{
  "version": "1.0",
  "truncation": null,
  "padding": null,
  "added_tokens": [
    {
      "id": 0,
      "content": "<PAD>",
      "single_word": false,
      "lstrip": false,
      "rstrip": false,
      "normalized": false,
      "special": true
    },
    {
      "id": 1,
      "content": "<UNK>",
      "single_word": false,
      "lstrip": false,
      "rstrip": false,
      "normalized": false,
      "special": true
    },
    {
      "id": 2,
      "content": "<BOS>",
      "single_word": false,
      "lstrip": false,
      "rstrip": false,
      "normalized": false,
      "special": true
    },
    {
      "id": 3,
      "content": "<EOS>",
      "single_word": false,
      "lstrip": false,
      "rstrip": false,
      "normalized": false,
      "special": true
    }
  ],
  "normalizer": null,
  "pre_tokenizer": {
    "type": "ByteLevel",
    "add_prefix_space": false,
    "trim_offsets": true,
    "use_regex": true
  },
  "post_processor": {
    "type": "ByteLevel",
    "add_prefix_space": true,
    "trim_offsets": false,
    "use_regex": true
  },
  "decoder": {
    "type": "ByteLevel",
    "add_prefix_space": true,
    "trim_offsets": true,
    "use_regex": true
  },
  "model": {
    "type": "BPE",
    "dropout": null,
    "unk_token": null,
    "continuing_subword_prefix": null,
    "end_of_word_suffix": null,
    "fuse_unk": false,
    "byte_fallback": false,
    "ignore_merges": false,
    "vocab": {
      "<PAD>": 0,
      "<UNK>": 1,
      "<BOS>": 2,
      "<EOS>": 3,
      "!": 4,
      "\"": 5,
      "#": 6,
      "$": 7,
      "%": 8,
      "&": 9,
      "'": 10,
      "(": 11,
      ")": 12,
      "*": 13,
      "+": 14,
      ",": 15,
      "-": 16,
      ".": 17,
      "/": 18,
      "0": 19,
      "1": 20,
      "2": 21,
      "3": 22,
      "4": 23,
      "5": 24,
      "6": 25,
      "7": 26,
      "8": 27,
      "9": 28,
      ":": 29,
      ";": 30,
      "<": 31,
      "=": 32,
      ">": 33,
      "?": 34,
      "@": 35,
      "A": 36,
      "B": 37,
      "C": 38,
      "D": 39,
      "E": 40,
      "F": 41,
      "G": 42,
      "H": 43,
      "I": 44,
      "J": 45,
      "K": 46,
      "L": 47,
      "M": 48,
      "N": 49,
      "O": 50,
      "P": 51,
      "Q": 52,
      "R": 53,
      "S": 54,
      "T": 55,
      "U": 56,
      "V": 57,
      "W": 58,
      "X": 59,
      "Y": 60,
      "Z": 61,
      "[": 62,
      "\\": 63,
      "]": 64,
      "^": 65,
      "_": 66,
      "`": 67,
      "a": 68,
      "b": 69,
      "c": 70,
      "d": 71,
      "e": 72,
      "f": 73,
      "g": 74,
      "h": 75,
      "i": 76,
      "j": 77,
      "k": 78,
      "l": 79,
      "m": 80,
      "n": 81,
      "o": 82,
      "p": 83,
      "q": 84,
      "r": 85,
      "s": 86,
      "t": 87,
      "u": 88,
      "v": 89,
      "w": 90,
      "x": 91,
      "y": 92,
      "z": 93,
      "{": 94,
      "|": 95,
      "}": 96,
      "~": 97,
      "¡": 98,
      "¢": 99,
      "£": 100,
      "¤": 101,
      "¥": 102,
      "¦": 103,
      "§": 104,
      "¨": 105,
      "©": 106,
      "ª": 107,
      "«": 108,
      "¬": 109,
      "®": 110,
      "¯": 111,
      "°": 112,
      "±": 113,
      "²": 114,
      "³": 115,
      "´": 116,
      "µ": 117,
      "¶": 118,
      "·": 119,
      "¸": 120,
      "¹": 121,
      "º": 122,
      "»": 123,
      "¼": 124,
      "½": 125,
      "¾": 126,
      "¿": 127,
      "À": 128,
      "Á": 129,
      "Â": 130,
      "Ã": 131,
      "Ä": 132,
      "Å": 133,
      "Æ": 134,
      "Ç": 135,
      "È": 136,
      "É": 137,
      "Ê": 138,
      "Ë": 139,
      "Ì": 140,
      "Í": 141,
      "Î": 142,
      "Ï": 143,
      "Ð": 144,
      "Ñ": 145,
      "Ò": 146,
      "Ó": 147,
      "Ô": 148,
      "Õ": 149,
      "Ö": 150,
      "×": 151,
      "Ø": 152,
      "Ù": 153,
      "Ú": 154,
      "Û": 155,
      "Ü": 156,
      "Ý": 157,
      "Þ": 158,
      "ß": 159,
      "à": 160,
      "á": 161,
      "â": 162,
      "ã": 163,
      "ä": 164,
      "å": 165,
      "æ": 166,
      "ç": 167,
      "è": 168,
      "é": 169,
      "ê": 170,
      "ë": 171,
      "ì": 172,
      "í": 173,
      "î": 174,
      "ï": 175,
      "ð": 176,
      "ñ": 177,
      "ò": 178,
      "ó": 179,
      "ô": 180,
      "õ": 181,
      "ö": 182,
      "÷": 183,
      "ø": 184,
      "ù": 185,
      "ú": 186,
      "û": 187,
      "ü": 188,
      "ý": 189,
      "þ": 190,
      "ÿ": 191,
      "Ā": 192,
      "ā": 193,
      "Ă": 194,
      "ă": 195,
      "Ą": 196,
      "ą": 197,
      "Ć": 198,
      "ć": 199,
      "Ĉ": 200,
      "ĉ": 201,
      "Ċ": 202,
      "ċ": 203,
      "Č": 204,
      "č": 205,
      "Ď": 206,
      "ď": 207,
      "Đ": 208,
      "đ": 209,
      "Ē": 210,
      "ē": 211,
      "Ĕ": 212,
      "ĕ": 213,
      "Ė": 214,
      "ė": 215,
      "Ę": 216,
      "ę": 217,
      "Ě": 218,
      "ě": 219,
      "Ĝ": 220,
      "ĝ": 221,
      "Ğ": 222,
      "ğ": 223,
      "Ġ": 224,
      "ġ": 225,
      "Ģ": 226,
      "ģ": 227,
      "Ĥ": 228,
      "ĥ": 229,
      "Ħ": 230,
      "ħ": 231,
      "Ĩ": 232,
      "ĩ": 233,
      "Ī": 234,
      "ī": 235,
      "Ĭ": 236,
      "ĭ": 237,
      "Į": 238,
      "į": 239,
      "İ": 240,
      "ı": 241,
      "Ĳ": 242,
      "ĳ": 243,
      "Ĵ": 244,
      "ĵ": 245,
      "Ķ": 246,
      "ķ": 247,
      "ĸ": 248,
      "Ĺ": 249,
      "ĺ": 250,
      "Ļ": 251,
      "ļ": 252,
      "Ľ": 253,
      "ľ": 254,
      "Ŀ": 255,
      "ŀ": 256,
      "Ł": 257,
      "ł": 258,
      "Ń": 259,
      "ĠĠ": 260,
      "ĠĠĠĠ": 261,
      "ĠĠĠ": 262,
      "ĊĠĠĠĠ": 263,
      "on": 264,
      "er": 265,
      "in": 266,
      "ĊĠĠĠĠĠĠĠ": 267,
      "ĊĠĠĠ": 268,
      "at": 269,
      "or": 270,
      "es": 271,
      "ĊĠĠĠĠĠĠĠĠ": 272,
      "se": 273,
      "en": 274,
      "Ġt": 275,
      "Ġ=": 276,
      "Ġ\"": 277,
      "Ġa": 278,
      "st": 279,
      "ar": 280,
      "al": 281,
      "re": 282,
      "de": 283,
      "ĠĠĠĠĠĠĠĠ": 284,
      "Ġi": 285,
      "he": 286,
      "ĊĠĠĠĠĠĠĠĠĠĠĠ": 287,
      "le": 288,
      "ion": 289,
      "ro": 290,
      "Ġc": 291,
      "an": 292,
      "ct": 293,
      "Ġf": 294,
      "it": 295,
      "mp": 296,
      "\",": 297,
      "ge": 298,
      "sel": 299,
      "self": 300,
      "Ġp": 301,
      "Ġs": 302,
      "ing": 303,
      "ut": 304,
      "Ġm": 305,
      "ex": 306,
      "ent": 307,
      "Ġin": 308,
      "ol": 309,
      "Ġb": 310,
      "ur": 311,
      "ed": 312,
      "ĠĠĠĠĠĠĠ": 313,
      "est": 314,
      "\"\"": 315,
      "ss": 316,
      "--": 317,
      "):": 318,
      "Ġo": 319,
      "ch": 320,
      "me": 321,
      "Ġthe": 322,
      "ra": 323,
      "pe": 324,
      "ort": 325,
      "id": 326,
      "Ġn": 327,
      "Ġw": 328,
      "li": 329,
      "ot": 330,
      "def": 331,
      "la": 332,
      "ce": 333,
      "ĊĊĠĠĠ": 334,
      "un": 335,
      "Ġ'": 336,
      "()": 337,
      "Ġre": 338,
      "ate": 339,
      "Ġself": 340,
      "ĊĠĠĠĠĠĠĠĠĠĠĠĠĠĠĠĠ": 341,
      "one": 342,
      "ue": 343,
      "um": 344,
      "ert": 345,
      "res": 346,
      "\":": 347,
      "ont": 348,
      "ĊĠĠĠĠĠĠĠĠĠĠĠĠĠĠĠ": 349,
      "pt": 350,
      "Ġd": 351,
      "mport": 352,
      "lo": 353,
      "Ġ(": 354,
      "ma": 355,
      "fi": 356,
      "Ðł": 357,
      "et": 358,
      "Ġst": 359,
      "ad": 360,
      "),": 361,
      "ext": 362,
      "Ġv": 363,
      "urn": 364,
      "ction": 365,
      "rom": 366,
      "ck": 367,
      "iz": 368,
      "ul": 369,
      "is": 370,
      "Ġto": 371,
      "Ġis": 372,
      "Ġ{": 373,
      "Ġan": 374,
      "ode": 375,
      "ĉĉ": 376,
      "Ġif": 377,
      "ĠT": 378,
      "Ġdef": 379,
      "pro": 380,
      "None": 381,
      "ame": 382,
      "Ġimport": 383,
      "il": 384,
      "Ġ[": 385,
      "ess": 386,
      "Ġ\"\"\"": 387,
      "im": 388,
      "Ġfor": 389,
      "che": 390,
      "Ġ-": 391,
      "th": 392,
      "Â°": 393,
      "ation": 394,
      "turn": 395,
      "ĊĊĠĠĠĠĠĠĠ": 396,
      "ĊĊ": 397,
      "Ġe": 398,
      "__": 399,
      "ĠS": 400,
      "ĠA": 401,
      "Ġ1": 402,
      "age": 403,
      "ver": 404,
      "ata": 405,
      "ssert": 406,
      "from": 407,
      "Ġ==": 408,
      "ig": 409,
      "up": 410,
      "Ġof": 411,
      "(\"": 412,
      "co": 413,
      "ize": 414,
      "ht": 415,
      "ĠNone": 416,
      "Ġreturn": 417,
      "ÐĴ": 418,
      "arg": 419,
      "int": 420,
      "ype": 421,
      "Ġres": 422,
      "Ġassert": 423,
      "to": 424,
      "ith": 425,
      "Ġ#": 426,
      "Ġ)": 427,
      "set": 428,
      "ke": 429,
      "get": 430,
      "ect": 431,
      "._": 432,
      "di": 433,
      "Ġl": 434,
      "odel": 435,
      "\"]": 436,
      "tr": 437,
      "Ġ0": 438,
      "ult": 439,
      "ath": 440,
      "Ġbe": 441,
      "',": 442,
      "ap": 443,
      "as": 444,
      "Â¤": 445,
      "qu": 446,
      "vi": 447,
      "put": 448,
      "ter": 449,
      "ve": 450,
      "----": 451,
      "Ġas": 452,
      "Ġstr": 453,
      "val": 454,
      "lass": 455,
      "\")": 456,
      "ange": 457,
      "ĊĠĠĠĠĠĠĠĠĠĠĠĠĠĠĠĠĠĠĠĠĠĠĠĠ": 458,
      "Ġ_": 459,
      "par": 460,
      "pon": 461,
      "[\"": 462,
      "mo": 463,
      "test": 464,
      "ontent": 465,
      "Ġtest": 466,
      "ser": 467,
      "Ġand": 468,
      "Ġar": 469,
      "all": 470,
      "ĠC": 471,
      "ĠF": 472,
      "args": 473,
      "pen": 474,
      "str": 475,
      "ror": 476,
      "and": 477,
      "py": 478,
      "Ġco": 479,
      "ĊĠĠĠĠĠĠĠĠĠĠĠĠĠĠĠĠĠĠĠ": 480,
      "olor": 481,
      "am": 482,
      "name": 483,
      "Ġth": 484,
      "ine": 485,
      "Ġ2": 486,
      "Ġwith": 487,
      "Ġr": 488,
      "em": 489,
      "essage": 490,
      "ase": 491,
      "atch": 492,
      ">>": 493,
      "],": 494,
      "ponse": 495,
      "orm": 496,
      "Ġnot": 497,
      "list": 498,
      "out": 499,
      "')": 500,
      "ĠR": 501,
      "\"),": 502,
      "ri": 503,
      "ption": 504,
      "Ġval": 505,
      "key": 506,
      "ly": 507,
      "path": 508,
      "sh": 509,
      "ab": 510,
      "ject": 511,
      "00": 512,
      "ight": 513,
      "':": 514,
      "mar": 515,
      "text": 516,
      "ew": 517,
      "},": 518,
      "class": 519,
      "ho": 520,
      "stan": 521,
      "con": 522,
      "type": 523,
      "Ġcon": 524,
      "Ġex": 525,
      "mple": 526,
      "content": 527,
      "\"\"\"": 528,
      "Ġarg": 529,
      "Ġ*": 530,
      "chema": 531,
      "ĠP": 532,
      "ers": 533,
      "po": 534,
      "pert": 535,
      "ĠM": 536,
      "rue": 537,
      "Ġtext": 538,
      "ĠI": 539,
      "el": 540,
      "ic": 541,
      "Ġ->": 542,
      "('": 543,
      "ai": 544,
      "Ch": 545,
      "Er": 546,
      "us": 547,
      "Ġor": 548,
      "ĠO": 549,
      "Ġ(\"": 550,
      "da": 551,
      "file": 552,
      "ure": 553,
      "Ġpro": 554,
      "form": 555,
      "Ċĉĉ": 556,
      "Ġdata": 557,
      "der": 558,
      "Ġ@": 559,
      "perty": 560,
      "import": 561,
      "Error": 562,
      "âĢ": 563,
      "))": 564,
      "ding": 565,
      "ens": 566,
      "js": 567,
      "size": 568,
      "Ġit": 569,
      "=\"": 570,
      "ger": 571,
      "bject": 572,
      "kw": 573,
      "model": 574,
      "Ġdi": 575,
      "ip": 576,
      "yn": 577,
      "ĠD": 578,
      "mark": 579,
      "ime": 580,
      "Ġ+": 581,
      "schema": 582,
      "ci": 583,
      "data": 584,
      "ow": 585,
      "Ġlo": 586,
      "ack": 587,
      "stance": 588,
      "Ġse": 589,
      "row": 590,
      "ub": 591,
      "Ġde": 592,
      "alse": 593,
      "ang": 594,
      "ĠL": 595,
      "lay": 596,
      "fig": 597,
      "od": 598,
      "Ġ:": 599,
      "St": 600,
      "Ġlist": 601,
      "Ġfont": 602,
      "vers": 603,
      "Ġresult": 604,
      "ph": 605,
      "cal": 606,
      "if": 607,
      "end": 608,
      "art": 609,
      "umb": 610,
      "Ġresponse": 611,
      "Change": 612,
      "mb": 613,
      "use": 614,
      "eight": 615,
      "url": 616,
      "que": 617,
      "lient": 618,
      "ll": 619,
      "kwargs": 620,
      "loat": 621,
      "rint": 622,
      "ets": 623,
      "her": 624,
      "of": 625,
      "Ġcolor": 626,
      "not": 627,
      "sk": 628,
      "ord": 629,
      "oc": 630,
      "ps": 631,
      "Ġch": 632,
      "valid": 633,
      "len": 634,
      "idth": 635,
      "pa": 636,
      "yle": 637,
      "low": 638,
      "Ġlen": 639,
      "te": 640,
      "Ġg": 641,
      "ence": 642,
      "Ġfrom": 643,
      "ĠAn": 644,
      "pect": 645,
      "try": 646,
      "ĠV": 647,
      "..": 648,
      "Ġap": 649,
      "ant": 650,
      "ĊĠĠĠĠĠĠĠĠĠĠĠĠĠĠĠĠĠĠĠĠĠĠĠ": 651,
      ">>>": 652,
      "Ð²": 653,
      "Ġ3": 654,
      "ore": 655,
      "ÐłÐ": 656,
      "Ġ__": 657,
      "Ġ>>>": 658,
      "ument": 659,
      "ische": 660,
      "NG": 661,
      "ag": 662,
      "color": 663,
      "Ġpy": 664,
      "otal": 665,
      "ain": 666,
      "cre": 667,
      "ĠSets": 668,
      "Ġstring": 669,
      "json": 670,
      "ator": 671,
      "property": 672,
      "lse": 673,
      "¢Ñ": 674,
      "Ð¢Ñ": 675,
      "instance": 676,
      "ptim": 677,
      "Ġelse": 678,
      "Ð¢ÑĴ": 679,
      "ĠE": 680,
      "Ġen": 681,
      "Ġbo": 682,
      "Ġthat": 683,
      "ep": 684,
      "ĠThe": 685,
      "ER": 686,
      "ist": 687,
      "tn": 688,
      "vid": 689,
      "Ġx": 690,
      "ition": 691,
      "Ġprint": 692,
      "Test": 693,
      "])": 694,
      "Ġ},": 695,
      "raction": 696,
      "unt": 697,
      "quest": 698,
      "dapt": 699,
      "fo": 700,
      "ment": 701,
      "ĠTrue": 702,
      "queue": 703,
      "Ġmodel": 704,
      "htt": 705,
      "value": 706,
      "In": 707,
      "ill": 708,
      "cl": 709,
      "pl": 710,
      "Ġh": 711,
      "itle": 712,
      "ray": 713,
      "raph": 714,
      "uld": 715,
      "dict": 716,
      "les": 717,
      "message": 718,
      "per": 719,
      "Ġnp": 720,
      "lab": 721,
      "fa": 722,
      "mm": 723,
      "Ġfi": 724,
      "ity": 725,
      "Ġpar": 726,
      "ĊĠĠĠĠĠĠĠĠĠĠĠĠĠĠĠĠĠĠĠĠĠĠĠĠĠĠĠĠĠĠĠĠ": 727,
      "ync": 728,
      "umber": 729,
      "ay": 730,
      "Ġ4": 731,
      "yp": 732,
      "ari": 733,
      "ĠRet": 734,
      "ind": 735,
      "state": 736,
      "Ġsho": 737,
      "peed": 738,
      "vider": 739,
      "os": 740,
      "Ġuse": 741,
      "Ġ**": 742,
      "OR": 743,
      "ĊĠĠĠĠĠĠĠĠĠĠĠĠĠĠĠĠĠĠĠĠĠĠĠĠĠĠĠĠĠĠĠ": 744,
      "add": 745,
      "tok": 746,
      "app": 747,
      "State": 748,
      "daptor": 749,
      "cy": 750,
      "Ġat": 751,
      "edding": 752,
      "Ġ|": 753,
      "ne": 754,
      "Ġ}": 755,
      "Ġcont": 756,
      "Ġsh": 757,
      "Ġ{\"": 758,
      "Ġshould": 759,
      "ÐĤ": 760,
      "Ġ/": 761,
      "ĠFalse": 762,
      "Ġthis": 763,
      "Ċĉĉĉĉ": 764,
      ".\"\"\"": 765,
      "ans": 766,
      "Ġmo": 767,
      "Ġwh": 768,
      "unction": 769,
      "Ġlog": 770,
      "Ð²ÐĤ": 771,
      "ĠB": 772,
      "error": 773,
      "main": 774,
      "comp": 775,
      "init": 776,
      "Ġtotal": 777,
      "head": 778,
      "Ġfloat": 779,
      "Ġint": 780,
      "Ġvi": 781,
      "view": 782,
      "bo": 783,
      "adow": 784,
      "urns": 785,
      "ies": 786,
      "ĊĠĠĠĠĠĠĠĠĠ": 787,
      "peci": 788,
      "call": 789,
      "Ġ----": 790,
      "info": 791,
      "dex": 792,
      "NO": 793,
      "Ġget": 794,
      "mpt": 795,
      "---": 796,
      "shot": 797,
      "able": 798,
      "pecifi": 799,
      "10": 800,
      "back": 801,
      "time": 802,
      "Ġmessage": 803,
      "Ġdict": 804,
      "mmand": 805,
      "==": 806,
      "Adaptor": 807,
      "CH": 808,
      "ta": 809,
      "weight": 810,
      "width": 811,
      "Ġout": 812,
      "__(": 813,
      "mplet": 814,
      "pected": 815,
      "ĠReturns": 816,
      "port": 817,
      "Ġon": 818,
      "are": 819,
      "item": 820,
      "mage": 821,
      "Ġpytest": 822,
      "cess": 823,
      "ise": 824,
      "optim": 825,
      "Ð¡": 826,
      "rain": 827,
      "ait": 828,
      "case": 829,
      "ick": 830,
      "ĠU": 831,
      "stat": 832,
      "AR": 833,
      "ust": 834,
      "arch": 835,
      "Ġisinstance": 836,
      "count": 837,
      "pytest": 838,
      "eddings": 839,
      "():": 840,
      "code": 841,
      "Ġun": 842,
      "orch": 843,
      "Ġsup": 844,
      "ily": 845,
      "amily": 846,
      "ob": 847,
      "pq": 848,
      "lib": 849,
      "mask": 850,
      "quer": 851,
      "output": 852,
      "True": 853,
      "ues": 854,
      "Ġz": 855,
      "ard": 856,
      "anim": 857,
      "ĊĠĠĠĠĠĠĠĠĠĠĠĠĠĠĠĠĠĠĠĠĠĠĠĠĠĠĠ": 858,
      "Ġapp": 859,
      "Type": 860,
      "ape": 861,
      "Ġ%": 862,
      "Ġj": 863,
      "lection": 864,
      "Ġline": 865,
      "vide": 866,
      "ages": 867,
      "TestChange": 868,
      "ial": 869,
      "line": 870,
      "Ġra": 871,
      "ory": 872,
      "esc": 873,
      "().": 874,
      "profile": 875,
      "mpletion": 876,
      "='": 877,
      "ff": 878,
      "pi": 879,
      "ug": 880,
      "ĠN": 881,
      "input": 882,
      "array": 883,
      "rect": 884,
      "Ġmet": 885,
      "ress": 886,
      "ON": 887,
      "Ġ`": 888,
      "Ġcomp": 889,
      "version": 890,
      "ĠAny": 891,
      "creen": 892,
      "PI": 893,
      "og": 894,
      "sum": 895,
      "Ġ]": 896,
      "ated": 897,
      "env": 898,
      "Ġtype": 899,
      "Ġ10": 900,
      "upd": 901,
      "query": 902,
      ").": 903,
      "graph": 904,
      "ton": 905,
      "ĠW": 906,
      "Ġpl": 907,
      "und": 908,
      "Ġtool": 909,
      "pend": 910,
      "//": 911,
      "ault": 912,
      "ive": 913,
      "min": 914,
      "Ġkey": 915,
      "Ġby": 916,
      "thon": 917,
      "DE": 918,
      "cs": 919,
      "Ġ<": 920,
      "Ġcan": 921,
      "otly": 922,
      "ameter": 923,
      "://": 924,
      "patch": 925,
      "ĠG": 926,
      "inal": 927,
      "retry": 928,
      "Ġsize": 929,
      "old": 930,
      "chang": 931,
      "essages": 932,
      "config": 933,
      "ariant": 934,
      "''": 935,
      "ANG": 936,
      "HT": 937,
      "ac": 938,
      "gent": 939,
      "ner": 940,
      "Ġsum": 941,
      "Ġopen": 942,
      "Ġnum": 943,
      "unk": 944,
      "ctions": 945,
      "ations": 946,
      "LE": 947,
      "ass": 948,
      "ample": 949,
      "user": 950,
      "Ġspecifi": 951,
      "(),": 952,
      "move": 953,
      "ptions": 954,
      "SS": 955,
      "cen": 956,
      "versation": 957,
      "Ġ-------": 958,
      "UL": 959,
      "ax": 960,
      "ach": 961,
      "dd": 962,
      "gth": 963,
      "ron": 964,
      "with": 965,
      "Ġy": 966,
      "Ġ..": 967,
      "Ġwill": 968,
      "ash": 969,
      "Ġraise": 970,
      ":`": 971,
      "TH": 972,
      "dc": 973,
      "open": 974,
      "Ġhtt": 975,
      "Ġax": 976,
      "Ġso": 977,
      "Ġover": 978,
      "pace": 979,
      "**": 980,
      "act": 981,
      "eb": 982,
      "font": 983,
      "ib": 984,
      "num": 985,
      "rit": 986,
      "yles": 987,
      "})": 988,
      "ener": 989,
      "arn": 990,
      "lect": 991,
      "lif": 992,
      "Ġresol": 993,
      "Ġrun": 994,
      "clu": 995,
      "StateChange": 996,
      "Ġsuper": 997,
      "([": 998,
      "Val": 999,
      "ca": 1000,
      "om": 1001,
      "uct": 1002,
      "led": 1003,
      "lement": 1004,
      "adata": 1005,
      "upy": 1006,
      "mobject": 1007,
      "pos": 1008,
      "AL": 1009,
      "dim": 1010,
      "gro": 1011,
      "over": 1012,
      "ings": 1013,
      "Ġos": 1014,
      "Ġname": 1015,
      "lable": 1016,
      "changes": 1017,
      "']": 1018,
      "IN": 1019,
      "eg": 1020,
      "ry": 1021,
      "style": 1022,
      "Ġpath": 1023,
      "ute": 1024,
      "resh": 1025,
      "tool": 1026,
      "vice": 1027,
      "point": 1028,
      "format": 1029,
      "ypes": 1030,
      "CHANG": 1031,
      "CHANGE": 1032,
      "pre": 1033,
      "ts": 1034,
      "Ċĉ": 1035,
      "Ġtime": 1036,
      "Ġclass": 1037,
      "utton": 1038,
      "izer": 1039,
      "proj": 1040,
      "rowser": 1041,
      "Ġused": 1042,
      "Ġattn": 1043,
      "escri": 1044,
      "Ġspecified": 1045,
      "CT": 1046,
      "ix": 1047,
      "ql": 1048,
      "wait": 1049,
      "Ġall": 1050,
      "Ġmin": 1051,
      "ils": 1052,
      "Ġexpected": 1053,
      "Valid": 1054,
      "Re": 1055,
      "The": 1056,
      "fer": 1057,
      "scal": 1058,
      "ual": 1059,
      "Ġset": 1060,
      "Ġtorch": 1061,
      "Ġword": 1062,
      "response": 1063,
      "Ġemb": 1064,
      "Ġconfig": 1065,
      "validate": 1066,
      "Ð¢ÑĴÐłÐ": 1067,
      "Ġenum": 1068,
      "nection": 1069,
      "Ġview": 1070,
      "ULT": 1071,
      "nd": 1072,
      "Ġare": 1073,
      "return": 1074,
      "param": 1075,
      "Con": 1076,
      "ler": 1077,
      "ml": 1078,
      "mat": 1079,
      "speed": 1080,
      "space": 1081,
      "vo": 1082,
      "Ġ),": 1083,
      "Ġpre": 1084,
      "Ġdo": 1085,
      "fix": 1086,
      "Ġstate": 1087,
      "cker": 1088,
      "append": 1089,
      "((": 1090,
      "ave": 1091,
      "client": 1092,
      "meth": 1093,
      "log": 1094,
      "struct": 1095,
      "ensor": 1096,
      "here": 1097,
      "position": 1098,
      "ference": 1099,
      "EN": 1100,
      "FA": 1101,
      "Par": 1102,
      "SE": 1103,
      "ee": 1104,
      "iv": 1105,
      "mit": 1106,
      "pla": 1107,
      "ĊĊĠĠĠĠĠĠĠĠĠĠĠ": 1108,
      "Ġ.": 1109,
      "Ġ5": 1110,
      "Ġ6": 1111,
      "Ġ>": 1112,
      "Ġ):": 1113,
      "reate": 1114,
      "Ġcupy": 1115,
      "ception": 1116,
      "unc": 1117,
      "setter": 1118,
      "Ġproperty": 1119,
      "off": 1120,
      "Ġbool": 1121,
      "tokens": 1122,
      "Ġshadow": 1123,
      "Ġenumer": 1124,
      "AI": 1125,
      "Co": 1126,
      "Client": 1127,
      "gon": 1128,
      "sg": 1129,
      "word": 1130,
      "ygon": 1131,
      "Ġkwargs": 1132,
      "atform": 1133,
      "Ġcall": 1134,
      "Ġfamily": 1135,
      "olygon": 1136,
      "Ġstyle": 1137,
      "ther": 1138,
      "ĠSt": 1139,
      "ask": 1140,
      "usage": 1141,
      "Ġitem": 1142,
      "ÐłÐĥ": 1143,
      "Input": 1144,
      "creenshot": 1145,
      "cene": 1146,
      "ED": 1147,
      "Message": 1148,
      "ken": 1149,
      "sv": 1150,
      "ule": 1151,
      "Ġq": 1152,
      "Ġle": 1153,
      "ink": 1154,
      "esponse": 1155,
      "Ġal": 1156,
      "stem": 1157,
      "request": 1158,
      "role": 1159,
      "Ġcontent": 1160,
      "Ġnumber": 1161,
      "())": 1162,
      "Ġprovider": 1163,
      "ocument": 1164,
      "</": 1165,
      "To": 1166,
      "descri": 1167,
      "number": 1168,
      "rst": 1169,
      "vai": 1170,
      "{\"": 1171,
      "ater": 1172,
      "Ġadd": 1173,
      "ark": 1174,
      "Ġsub": 1175,
      "Ġmay": 1176,
      "rame": 1177,
      "Ġweight": 1178,
      "max": 1179,
      "imal": 1180,
      "ĠCh": 1181,
      "Ġlogger": 1182,
      "vailable": 1183,
      "Ex": 1184,
      "base": 1185,
      "cle": 1186,
      "float": 1187,
      "gress": 1188,
      "image": 1189,
      "object": 1190,
      "ystem": 1191,
      "ary": 1192,
      "Ġca": 1193,
      "Ġ'''": 1194,
      "Ġstart": 1195,
      "mod": 1196,
      "python": 1197,
      "Ġvalid": 1198,
      "abs": 1199,
      "token": 1200,
      "100": 1201,
      "title": 1202,
      "hell": 1203,
      "Ġfunction": 1204,
      "dir": 1205,
      "emb": 1206,
      "ormal": 1207,
      "rior": 1208,
      "Ġwhi": 1209,
      "items": 1210,
      "ameters": 1211,
      "FAULT": 1212,
      "Ġk": 1213,
      "Ġinput": 1214,
      "Ġnew": 1215,
      "lic": 1216,
      "cept": 1217,
      "com": 1218,
      "ector": 1219,
      "parent": 1220,
      "ension": 1221,
      "length": 1222,
      "lower": 1223,
      "ansform": 1224,
      "Ð²ÐĤÑ": 1225,
      "optimize": 1226,
      "clude": 1227,
      "De": 1228,
      "tw": 1229,
      "tick": 1230,
      "vert": 1231,
      "index": 1232,
      "Ġbrowser": 1233,
      "idget": 1234,
      "Ġelif": 1235,
      "hod": 1236,
      "cond": 1237,
      "eld": 1238,
      "notator": 1239,
      "pac": 1240,
      "cache": 1241,
      "riority": 1242,
      "DA": 1243,
      "Pro": 1244,
      "assert": 1245,
      "gs": 1246,
      "ging": 1247,
      "any": 1248,
      "gex": 1249,
      "Ġpass": 1250,
      "Ġwidth": 1251,
      "Ġ[]": 1252,
      "direct": 1253,
      "tern": 1254,
      "river": 1255,
      "ptional": 1256,
      "Ġbox": 1257,
      "ĊĠĠĠĠĠĠĠĠĠĠĠĠĠĠĠĠĠĠĠĠĠĠĠĠĠĠĠĠĠĠĠĠĠĠĠ": 1258,
      "heads": 1259,
      "mpty": 1260,
      "Ġoutput": 1261,
      "Ġ...": 1262,
      "Ð¢ÑĴÐłÐĬ": 1263,
      "ĠState": 1264,
      "'s": 1265,
      "12": 1266,
      "False": 1267,
      "match": 1268,
      "node": 1269,
      "run": 1270,
      "wer": 1271,
      "Ġ7": 1272,
      "Ġ8": 1273,
      "invalid": 1274,
      "dequeue": 1275,
      "heck": 1276,
      "height": 1277,
      "race": 1278,
      "ĠTest": 1279,
      "project": 1280,
      "Ġ[\"": 1281,
      "Ġ100": 1282,
      "ĠCo": 1283,
      "Ġrange": 1284,
      "Ġconversation": 1285,
      "Ġargs": 1286,
      "skip": 1287,
      "plotly": 1288,
      "Ġcontain": 1289,
      "Ġwhen": 1290,
      "ĠStateTestChange": 1291,
      "ING": 1292,
      "ec": 1293,
      "fraction": 1294,
      "my": 1295,
      "sync": 1296,
      "ump": 1297,
      "}\"": 1298,
      "attr": 1299,
      "hel": 1300,
      "urce": 1301,
      "ĠTh": 1302,
      "copy": 1303,
      "sets": 1304,
      "Ġcommand": 1305,
      "Ġhttps": 1306,
      "IG": 1307,
      "Model": 1308,
      "oog": 1309,
      "Ġid": 1310,
      "Ġmessages": 1311,
      "olum": 1312,
      "Ġbatch": 1313,
      "Ġformat": 1314,
      "api": 1315,
      "Ġvalues": 1316,
      "keys": 1317,
      "ĠEx": 1318,
      "status": 1319,
      "DEFAULT": 1320,
      "ÐłÐĥÐł": 1321,
      "oogle": 1322,
      "olumn": 1323,
      "ME": 1324,
      "PT": 1325,
      "amp": 1326,
      "avi": 1327,
      "cor": 1328,
      "ces": 1329,
      "eat": 1330,
      "Ġone": 1331,
      "Ġtrain": 1332,
      "Ġawait": 1333,
      "Ġavailable": 1334,
      "Ġindex": 1335,
      "loc": 1336,
      "Ġvariant": 1337,
      "ises": 1338,
      "Ġ['": 1339,
      "--------": 1340,
      "shadow": 1341,
      "Ċĉĉĉ": 1342,
      "Ġchat": 1343,
      "tections": 1344,
      "ĠVal": 1345,
      "label": 1346,
      "objs": 1347,
      "Ġzone": 1348,
      "Ġmethod": 1349,
      "Base": 1350,
      "HE": 1351,
      "for": 1352,
      "function": 1353,
      "gend": 1354,
      "ili": 1355,
      "op": 1356,
      "tra": 1357,
      "ved": 1358,
      "writ": 1359,
      "ĠH": 1360,
      "enqueue": 1361,
      "read": 1362,
      "Ġcap": 1363,
      "Ġclient": 1364,
      "ution": 1365,
      "Ġinstance": 1366,
      "ueError": 1367,
      "result": 1368,
      "adb": 1369,
      "Ġannot": 1370,
      "Ġdefault": 1371,
      "ĠAPI": 1372,
      "tries": 1373,
      "shape": 1374,
      "own": 1375,
      "hero": 1376,
      "Ġparser": 1377,
      "apping": 1378,
      "dcc": 1379,
      "Parser": 1380,
      "(**": 1381,
      "IT": 1382,
      "[:": 1383,
      "aut": 1384,
      "cont": 1385,
      "hand": 1386,
      "nap": 1387,
      "oint": 1388,
      "ound": 1389,
      "qc": 1390,
      "tings": 1391,
      "upt": 1392,
      "zure": 1393,
      "start": 1394,
      "roup": 1395,
      "html": 1396,
      "ĠCon": 1397,
      "Ġvalue": 1398,
      "ĠOpen": 1399,
      "ĠOptional": 1400,
      "odule": 1401,
      "Ġfirst": 1402,
      "ORS": 1403,
      "maining": 1404,
      "groupt": 1405,
      "voke": 1406,
      "Ġwhich": 1407,
      "napshot": 1408,
      "grouptitle": 1409,
      "An": 1410,
      "ION": 1411,
      "LL": 1412,
      "['": 1413,
      "].": 1414,
      "bs": 1415,
      "cent": 1416,
      "ier": 1417,
      "ice": 1418,
      "iadb": 1419,
      "sql": 1420,
      "Ġ],": 1421,
      "ero": 1422,
      "sed": 1423,
      "Ġtyp": 1424,
      "red": 1425,
      "regex": 1426,
      "Ġplay": 1427,
      "Ġsv": 1428,
      "Ġmanim": 1429,
      "raises": 1430,
      "under": 1431,
      "Ġ{'": 1432,
      "process": 1433,
      "\"],": 1434,
      "mariadb": 1435,
      "umbers": 1436,
      "Ġfile": 1437,
      "cycle": 1438,
      "Ġonly": 1439,
      "Validation": 1440,
      "method": 1441,
      "20": 1442,
      "ES": 1443,
      "Se": 1444,
      "]:": 1445,
      "ager": 1446,
      "net": 1447,
      "so": 1448,
      "styles": 1449,
      "Ġcreate": 1450,
      "anische": 1451,
      "Ġoption": 1452,
      "completion": 1453,
      "ĠIn": 1454,
      "Ġits": 1455,
      "StateTestChange": 1456,
      "mini": 1457,
      "ake": 1458,
      "np": 1459,
      "train": 1460,
      "ative": 1461,
      "attern": 1462,
      "arget": 1463,
      "arrow": 1464,
      "annotator": 1465,
      "Ġfol": 1466,
      "Ġfil": 1467,
      "Ġfraction": 1468,
      "its": 1469,
      "ital": 1470,
      "Ġpart": 1471,
      "ents": 1472,
      "Ġobject": 1473,
      "Ġoptim": 1474,
      "lock": 1475,
      "map": 1476,
      "viron": 1477,
      "string": 1478,
      "create": 1479,
      "Ġcontext": 1480,
      "====": 1481,
      "Ġapply": 1482,
      "Ġopenai": 1483,
      "Ġresolve": 1484,
      "place": 1485,
      "ĠValueError": 1486,
      "'t": 1487,
      "=[": 1488,
      "OL": 1489,
      "TO": 1490,
      "cur": 1491,
      "core": 1492,
      "func": 1493,
      "havi": 1494,
      "oin": 1495,
      "play": 1496,
      "range": 1497,
      "sub": 1498,
      "ream": 1499,
      "Ġmust": 1500,
      "Ġmark": 1501,
      "Ġinte": 1502,
      "lier": 1503,
      "default": 1504,
      "adding": 1505,
      "uple": 1506,
      "argument": 1507,
      "quence": 1508,
      "pons": 1509,
      "mock": 1510,
      "Ġargument": 1511,
      "air": 1512,
      "day": 1513,
      "Ġ+=": 1514,
      "istory": 1515,
      "Ċĉĉĉĉĉĉ": 1516,
      "openai": 1517,
      "reshold": 1518,
      "havior": 1519,
      "!=": 1520,
      "({": 1521,
      "50": 1522,
      "Ar": 1523,
      "Hier": 1524,
      "Met": 1525,
      "Response": 1526,
      "Trace": 1527,
      "do": 1528,
      "rc": 1529,
      "ture": 1530,
      "uid": 1531,
      "uff": 1532,
      "vis": 1533,
      "yType": 1534,
      "Ġ!=": 1535,
      "ates": 1536,
      "stra": 1537,
      "Ġfpq": 1538,
      "Ġfinal": 1539,
      "Ġsort": 1540,
      "Ġmatch": 1541,
      "Ġstat": 1542,
      "Ġepq": 1543,
      "\"][\"": 1544,
      "pha": 1545,
      "archyType": 1546,
      "().__": 1547,
      "update": 1548,
      "ible": 1549,
      "description": 1550,
      "IGHT": 1551,
      "HierarchyType": 1552,
      "TraceHierarchyType": 1553,
      "\"}": 1554,
      "\"},": 1555,
      "64": 1556,
      "AT": 1557,
      "Ret": 1558,
      "doc": 1559,
      "dant": 1560,
      "gt": 1561,
      "ict": 1562,
      "lm": 1563,
      "ls": 1564,
      "pair": 1565,
      "ĠQ": 1566,
      "Ġli": 1567,
      "Ġla": 1568,
      "invoke": 1569,
      "deo": 1570,
      "ingle": 1571,
      "Ġinst": 1572,
      "Ġvenv": 1573,
      "Ġtoken": 1574,
      "Ġ{}": 1575,
      "ession": 1576,
      "imation": 1577,
      "command": 1578,
      "âĢļ": 1579,
      "odes": 1580,
      "called": 1581,
      "ustom": 1582,
      "Ġappli": 1583,
      "videos": 1584,
      "achine": 1585,
      "Ġtyping": 1586,
      "ValidationError": 1587,
      "ponses": 1588,
      "dantic": 1589,
      "=(": 1590,
      "BU": 1591,
      "RL": 1592,
      "ade": 1593,
      "ear": 1594,
      "family": 1595,
      "shell": 1596,
      "Ġus": 1597,
      "attn": 1598,
      "decl": 1599,
      "Ġcheck": 1600,
      "utils": 1601,
      "Ġmax": 1602,
      "chor": 1603,
      "chunk": 1604,
      "extra": 1605,
      "ultip": 1606,
      "Ġarray": 1607,
      "penv": 1608,
      "âĢ¢": 1609,
      "Ġsecond": 1610,
      "Ġapi": 1611,
      "box": 1612,
      "account": 1613,
      "CTION": 1614,
      "Ġminimal": 1615,
      "pacity": 1616,
      "DAPT": 1617,
      "ĠThis": 1618,
      "Ġcapital": 1619,
      "Ġinteger": 1620,
      "ultiple": 1621,
      "DAPTORS": 1622,
      "Mo": 1623,
      "cli": 1624,
      "driver": 1625,
      "join": 1626,
      "lar": 1627,
      "px": 1628,
      "ĠK": 1629,
      "Ġjson": 1630,
      "order": 1631,
      "ender": 1632,
      "ref": 1633,
      "redirect": 1634,
      "iter": 1635,
      "expected": 1636,
      "Ġinter": 1637,
      "ures": 1638,
      "Ġwidget": 1639,
      "Ġdoc": 1640,
      "load": 1641,
      "ched": 1642,
      "ĠAgent": 1643,
      "Ġland": 1644,
      "Ġlang": 1645,
      "ĠFraction": 1646,
      "ride": 1647,
      "ĠPro": 1648,
      "âĢľ": 1649,
      "lename": 1650,
      "Ġgener": 1651,
      "ĊĠĠĠĠĠĠĠĠĠĠĠĠĠĠĠĠĠĠĠĠĠĠĠĠĠĠĠĠĠĠĠĠĠĠĠĠĠĠĠĠ": 1652,
      "structor": 1653,
      "Tool": 1654,
      "button": 1655,
      "ehavior": 1656,
      "ful": 1657,
      "frame": 1658,
      "gn": 1659,
      "gpt": 1660,
      "ias": 1661,
      "kill": 1662,
      "messages": 1663,
      "ou": 1664,
      "total": 1665,
      "Ġerror": 1666,
      "Ġquery": 1667,
      "Ġ\"--": 1668,
      "ancy": 1669,
      "Ġsu": 1670,
      "Ġmy": 1671,
      "Ġbutton": 1672,
      "Ġweb": 1673,
      "Ġretry": 1674,
      "Ġdim": 1675,
      "provider": 1676,
      "prompt": 1677,
      "ign": 1678,
      "ĠMachine": 1679,
      "ĠIf": 1680,
      "Chat": 1681,
      "ynci": 1682,
      "mbda": 1683,
      "mbeddings": 1684,
      "Ġchar": 1685,
      "optimiz": 1686,
      "Ġunit": 1687,
      "Ġembeddings": 1688,
      "yncio": 1689,
      "={\"": 1690,
      "Content": 1691,
      "FT": 1692,
      "GE": 1693,
      "ML": 1694,
      "Tensor": 1695,
      "google": 1696,
      "ile": 1697,
      "istan": 1698,
      "msg": 1699,
      "no": 1700,
      "ransform": 1701,
      "org": 1702,
      "Ġtitle": 1703,
      "rection": 1704,
      "gemini": 1705,
      "Ġoptions": 1706,
      "idx": 1707,
      "Ġremaining": 1708,
      "ization": 1709,
      "igits": 1710,
      "dic": 1711,
      "difi": 1712,
      "qual": 1713,
      "\"))": 1714,
      "ell": 1715,
      "ĠOR": 1716,
      "models": 1717,
      "Ġselection": 1718,
      "layout": 1719,
      "http": 1720,
      "Ġlogging": 1721,
      "Ġplotly": 1722,
      "Ġplatform": 1723,
      "Ġenumeration": 1724,
      "embeddings": 1725,
      "Ð¢ÑĴÐłÐĬÐł": 1726,
      "umpy": 1727,
      "Ġmanimlib": 1728,
      "25": 1729,
      "PA": 1730,
      "][": 1731,
      "_(": 1732,
      "av": 1733,
      "bar": 1734,
      "batch": 1735,
      "emp": 1736,
      "ik": 1737,
      "ld": 1738,
      "pol": 1739,
      "padding": 1740,
      "rm": 1741,
      "variant": 1742,
      "Â¬": 1743,
      "Ġhead": 1744,
      "ork": 1745,
      "selection": 1746,
      "select": 1747,
      "hether": 1748,
      "uture": 1749,
      "exec": 1750,
      "olution": 1751,
      "ollar": 1752,
      "Ġbut": 1753,
      "Ġtheme": 1754,
      "Ġwe": 1755,
      "Ġrequest": 1756,
      "firm": 1757,
      "ĠText": 1758,
      "ametr": 1759,
      "ĠAsync": 1760,
      "ĠADAPTORS": 1761,
      "vel": 1762,
      "parametr": 1763,
      "textcase": 1764,
      "ĠPath": 1765,
      "perties": 1766,
      "Ġtextcase": 1767,
      "Ġorder": 1768,
      "ĠDollar": 1769,
      "ackoff": 1770,
      "ody": 1771,
      "ift": 1772,
      "Ġchunk": 1773,
      "Ġhave": 1774,
      "face": 1775,
      "fault": 1776,
      "ĠBase": 1777,
      "Ġlineposition": 1778,
      "lineposition": 1779,
      "Ġ<=": 1780,
      "arning": 1781,
      "scale": 1782,
      "Ġenumerate": 1783,
      "123": 1784,
      "ople": 1785,
      "ĠOpenAI": 1786,
      "annotators": 1787,
      "Ġstatic": 1788,
      "optimizing": 1789,
      "parametrize": 1790,
      "\"{": 1791,
      ".\"": 1792,
      ".__": 1793,
      "AN": 1794,
      "DO": 1795,
      "ccess": 1796,
      "dis": 1797,
      "gb": 1798,
      "ia": 1799,
      "ling": 1800,
      "oci": 1801,
      "opacity": 1802,
      "torch": 1803,
      "types": 1804,
      "vs": 1805,
      "}\")": 1806,
      "Ġ9": 1807,
      "erge": 1808,
      "ature": 1809,
      "requ": 1810,
      "Ġcur": 1811,
      "Ġfig": 1812,
      "mpl": 1813,
      "Ġpos": 1814,
      "except": 1815,
      "met": 1816,
      "pts": 1817,
      "Ġdtype": 1818,
      "Ġstep": 1819,
      "Ġstyles": 1820,
      "ildc": 1821,
      "threshold": 1822,
      "Ġllm": 1823,
      "testing": 1824,
      "Ġtesting": 1825,
      "server": 1826,
      "hoice": 1827,
      "Ġexc": 1828,
      "mplex": 1829,
      "calar": 1830,
      "plit": 1831,
      "states": 1832,
      "Ġresolved": 1833,
      "tracker": 1834,
      "Ġannotations": 1835,
      "declare": 1836,
      "dicate": 1837,
      "ildcard": 1838,
      ".\",": 1839,
      "Bo": 1840,
      "Behavior": 1841,
      "ID": 1842,
      "MI": 1843,
      "element": 1844,
      "ifi": 1845,
      "nt": 1846,
      "page": 1847,
      "right": 1848,
      "Ðİ": 1849,
      "Ġurl": 1850,
      "inner": 1851,
      "Ġagent": 1852,
      "Ġcal": 1853,
      "Ġfound": 1854,
      "Ġsa": 1855,
      "Ġspeed": 1856,
      "Ġbase": 1857,
      "chain": 1858,
      "Ġnormal": 1859,
      "Ġwhere": 1860,
      "Ġ'%": 1861,
      "ized": 1862,
      "ild": 1863,
      "Ġelement": 1864,
      "Ġempty": 1865,
      "ĠAr": 1866,
      "parameters": 1867,
      "Ġtester": 1868,
      "service": 1869,
      "Ġcompletion": 1870,
      "Ġ200": 1871,
      "Ġrv": 1872,
      "ĠRe": 1873,
      "pop": 1874,
      "ĠImport": 1875,
      "markers": 1876,
      "Ġdetections": 1877,
      "Ð¢ÑĴÐ²ÐĤ": 1878,
      "ĠEmbeddings": 1879,
      "Ġhas": 1880,
      "Ġmock": 1881,
      "calls": 1882,
      "Ġcupyx": 1883,
      "Ġfollow": 1884,
      "Ġlandmark": 1885,
      "metadata": 1886,
      ")')": 1887,
      "ET": 1888,
      "IC": 1889,
      "IS": 1890,
      "QL": 1891,
      "]]": 1892,
      "be": 1893,
      "fla": 1894,
      "future": 1895,
      "gle": 1896,
      "io": 1897,
      "istr": 1898,
      "md": 1899,
      "none": 1900,
      "nodes": 1901,
      "ok": 1902,
      "scene": 1903,
      "tab": 1904,
      "uuid": 1905,
      "Ġlabel": 1906,
      "ones": 1907,
      "onkey": 1908,
      "Ġtypes": 1909,
      "Ġtarget": 1910,
      "Ġ\"__": 1911,
      "Ġaction": 1912,
      "ree": 1913,
      "Ġcode": 1914,
      "Ġfa": 1915,
      "Ġpoint": 1916,
      "Ġmultiple": 1917,
      "Ġinclude": 1918,
      "Ġbtn": 1919,
      "chat": 1920,
      "ram": 1921,
      "Ġno": 1922,
      "cket": 1923,
      "ĠSee": 1924,
      "verage": 1925,
      "upper": 1926,
      "ithub": 1927,
      "ason": 1928,
      "async": 1929,
      "Ġasync": 1930,
      "Ġarrow": 1931,
      "poch": 1932,
      "oftw": 1933,
      "Ġchange": 1934,
      "Ġgroup": 1935,
      "ĠVect": 1936,
      "Ġenvs": 1937,
      "itional": 1938,
      "Ġfield": 1939,
      "ayout": 1940,
      "Ġ--------": 1941,
      "Ġsource": 1942,
      "Ġrunner": 1943,
      "Connection": 1944,
      "docs": 1945,
      "ĠImportError": 1946,
      "oftware": 1947,
      "API": 1948,
      "FF": 1949,
      "MAR": 1950,
      "Polygon": 1951,
      "RO": 1952,
      "Schema": 1953,
      "Zone": 1954,
      "``": 1955,
      "gener": 1956,
      "hash": 1957,
      "jqc": 1958,
      "link": 1959,
      "mt": 1960,
      "ness": 1961,
      "numbers": 1962,
      "ran": 1963,
      "screenshot": 1964,
      "swer": 1965,
      "ux": 1966,
      "Ġend": 1967,
      "Ġ---": 1968,
      "ĠHT": 1969,
      "Ġuser": 1970,
      "Ġhel": 1971,
      "ines": 1972,
      "environ": 1973,
      "Ġtry": 1974,
      "Ġtemp": 1975,
      "retries": 1976,
      "replace": 1977,
      "level": 1978,
      "rop": 1979,
      "Ġframe": 1980,
      "Ġser": 1981,
      "Ġsql": 1982,
      "unit": 1983,
      "()))": 1984,
      "Ġdash": 1985,
      "progress": 1986,
      "Ġeq": 1987,
      "Ġev": 1988,
      "__\":": 1989,
      "ĠSchema": 1990,
      "igger": 1991,
      "(\"--": 1992,
      "argin": 1993,
      "mob": 1994,
      "pypi": 1995,
      "Ġcopy": 1996,
      "contents": 1997,
      "ĠPar": 1998,
      "ĠIt": 1999,
      "Ġdataset": 2000,
      "âĢĺ": 2001,
      "ists": 2002,
      "Ġunder": 2003,
      "ugh": 2004,
      "Ġviewport": 2005,
      "Ġlegend": 2006,
      "Exception": 2007,
      "BaseTraceHierarchyType": 2008,
      "heroes": 2009,
      "lockfile": 2010,
      "click": 2011,
      "PolygonZone": 2012,
      "uxili": 2013,
      "Graph": 2014,
      "PO": 2015,
      "ST": 2016,
      "Transform": 2017,
      "[-": 2018,
      "bind": 2019,
      "beg": 2020,
      "digits": 2021,
      "iss": 2022,
      "ns": 2023,
      "normal": 2024,
      "ops": 2025,
      "rate": 2026,
      "split": 2027,
      "ese": 2028,
      "Ġ\"\"": 2029,
      "Ġass": 2030,
      "lean": 2031,
      "rough": 2032,
      "Ġscreenshot": 2033,
      "Ġmonkey": 2034,
      "Ġinit": 2035,
      "Ġborder": 2036,
      "change": 2037,
      "Ġwhether": 2038,
      "celer": 2039,
      "responses": 2040,
      "lose": 2041,
      "Ġany": 2042,
      "Ġangle": 2043,
      "Ġanswer": 2044,
      "chemy": 2045,
      "Ġeach": 2046,
      "iginal": 2047,
      "inter": 2048,
      "div": 2049,
      "values": 2050,
      "Ġcomb": 2051,
      "ify": 2052,
      "Ġpydantic": 2053,
      "itions": 2054,
      "https": 2055,
      "platform": 2056,
      "fact": 2057,
      "Ġparse": 2058,
      "ĊĠĠĠĠĠĠĠĠĠĠĠĠĠĠĠĠĠĠĠĠĠĠĠĠĠĠĠĠĠĠĠĠĠĠĠĠĠĠĠ": 2059,
      "Ġ//": 2060,
      "Ċĉĉĉĉĉ": 2061,
      "viewclass": 2062,
      "Ġoutlier": 2063,
      "updater": 2064,
      "acceler": 2065,
      "axis": 2066,
      "Ġoverlay": 2067,
      "arnings": 2068,
      "lication": 2069,
      "amples": 2070,
      "curs": 2071,
      "Ġarguments": 2072,
      "({'": 2073,
      "Metadata": 2074,
      "Ġusing": 2075,
      "begin": 2076,
      "Ġmonkeypatch": 2077,
      "accelerator": 2078,
      "56": 2079,
      "As": 2080,
      "ASE": 2081,
      "CI": 2082,
      "KER": 2083,
      "Line": 2084,
      "PE": 2085,
      "RA": 2086,
      "azure": 2087,
      "cone": 2088,
      "cul": 2089,
      "cap": 2090,
      "down": 2091,
      "ft": 2092,
      "hs": 2093,
      "lta": 2094,
      "options": 2095,
      "sort": 2096,
      "src": 2097,
      "ted": 2098,
      "uction": 2099,
      "zone": 2100,
      "Â¦": 2101,
      "Ġup": 2102,
      "inis": 2103,
      "ded": 2104,
      "lete": 2105,
      "Ġcor": 2106,
      "Ġcol": 2107,
      "Ġsystem": 2108,
      "Ġsnapshot": 2109,
      "ention": 2110,
      "rap": 2111,
      "people": 2112,
      "ote": 2113,
      "Ġvis": 2114,
      "uler": 2115,
      "ĠTensor": 2116,
      "prop": 2117,
      "Ġ12": 2118,
      "transform": 2119,
      "parts": 2120,
      "andle": 2121,
      "ams": 2122,
      "shift": 2123,
      "host": 2124,
      "pose": 2125,
      "ĠImage": 2126,
      "('\\": 2127,
      "âĢĵ": 2128,
      "âĢŀ": 2129,
      "marker": 2130,
      "Ġselect": 2131,
      "endgrouptitle": 2132,
      "Ġlength": 2133,
      "Ð¢ÑĴÐł": 2134,
      "fail": 2135,
      "Ġparams": 2136,
      "Ġshape": 2137,
      "Ġmobject": 2138,
      "callback": 2139,
      "pipenv": 2140,
      "egendgrouptitle": 2141,
      "Ġpaths": 2142,
      "Validator": 2143,
      "scalar": 2144,
      "Ġ>=": 2145,
      "Ġcast": 2146,
      "tokenizer": 2147,
      "Provider": 2148,
      "ĠTestClient": 2149,
      "cycleview": 2150,
      "BUFF": 2151,
      "Mock": 2152,
      "Ġcurr": 2153,
      "Ġfollowing": 2154,
      "MARKER": 2155,
      "ĠSchemaValidator": 2156,
      "Assets": 2157,
      "15": 2158,
      "24": 2159,
      "200": 2160,
      "={": 2161,
      "CSS": 2162,
      "Det": 2163,
      "En": 2164,
      "Layout": 2165,
      "Str": 2166,
      "Speed": 2167,
      "UN": 2168,
      "bug": 2169,
      "empty": 2170,
      "eager": 2171,
      "feat": 2172,
      "nn": 2173,
      "specifi": 2174,
      "snapshot": 2175,
      "the": 2176,
      "task": 2177,
      "venv": 2178,
      "}.": 2179,
      "}\",": 2180,
      "Ġro": 2181,
      "Ġlib": 2182,
      "ini": 2183,
      "Ġac": 2184,
      "store": 2185,
      "stream": 2186,
      "arange": 2187,
      "aryn": 2188,
      "recycleview": 2189,
      "Ġign": 2190,
      "Ġpolygon": 2191,
      "utput": 2192,
      "Ġmake": 2193,
      "exit": 2194,
      "expect": 2195,
      "olute": 2196,
      "char": 2197,
      "raw": 2198,
      "iler": 2199,
      "imum": 2200,
      "check": 2201,
      "ĠSync": 2202,
      "trans": 2203,
      "parer": 2204,
      "ĠResponse": 2205,
      "stants": 2206,
      "conversation": 2207,
      "mplement": 2208,
      "Ġsearch": 2209,
      "llm": 2210,
      "video": 2211,
      "Ġmetadata": 2212,
      "Ġoverride": 2213,
      "ALL": 2214,
      "dimension": 2215,
      "Request": 2216,
      "Ġembed": 2217,
      "eek": 2218,
      "Comp": 2219,
      "ĠChat": 2220,
      "auth": 2221,
      "auto": 2222,
      "source": 2223,
      "Ġfilen": 2224,
      "Ġoptimizer": 2225,
      "straint": 2226,
      "Retry": 2227,
      "Ġapplied": 2228,
      "uxiliaryn": 2229,
      "Ġcombin": 2230,
      "rapper": 2231,
      "uxiliarynet": 2232,
      "*]": 2233,
      "32": 2234,
      "AGE": 2235,
      "BO": 2236,
      "Call": 2237,
      "LD": 2238,
      "[*]": 2239,
      "close": 2240,
      "date": 2241,
      "dpi": 2242,
      "elif": 2243,
      "fid": 2244,
      "fter": 2245,
      "find": 2246,
      "gre": 2247,
      "history": 2248,
      "ous": 2249,
      "pp": 2250,
      "print": 2251,
      "rid": 2252,
      "sing": 2253,
      "sup": 2254,
      "sample": 2255,
      "session": 2256,
      "ten": 2257,
      "work": 2258,
      "ys": 2259,
      "}')": 2260,
      "Ñĵ": 2261,
      "âĦ": 2262,
      "ĠJ": 2263,
      "Ġet": 2264,
      "Ġhtml": 2265,
      "orial": 2266,
      "Ġ\"#": 2267,
      "Ġ\"-": 2268,
      "Ġ\"{": 2269,
      "device": 2270,
      "legend": 2271,
      "Ġcolumn": 2272,
      "anchor": 2273,
      "Ġpla": 2274,
      "Ġpattern": 2275,
      "Ġscene": 2276,
      "Ġsolution": 2277,
      "Ġme": 2278,
      "Ġmod": 2279,
      "Ġmapping": 2280,
      "Ġmargin": 2281,
      "Ġbu": 2282,
      "Ġthey": 2283,
      "Ġtheta": 2284,
      "Ġne": 2285,
      "Ġnn": 2286,
      "Ġnon": 2287,
      "Ġnumpy": 2288,
      "Ġwell": 2289,
      "Ġread": 2290,
      "Ġretries": 2291,
      "Ġdocument": 2292,
      "Ġvector": 2293,
      "ctionary": 2294,
      "through": 2295,
      "settings": 2296,
      "parse": 2297,
      "ally": 2298,
      "Ġright": 2299,
      "paths": 2300,
      "ĠPriority": 2301,
      "ĠMo": 2302,
      "ĠModel": 2303,
      "ĠMobject": 2304,
      "ĠDe": 2305,
      "ĠList": 2306,
      "Style": 2307,
      "States": 2308,
      "ainer": 2309,
      "plot": 2310,
      "ORM": 2311,
      "Ġvideo": 2312,
      "board": 2313,
      "abled": 2314,
      "timeout": 2315,
      "Ġcompany": 2316,
      "Ġhttpx": 2317,
      "Ġaxis": 2318,
      "StateChangeStates": 2319,
      "params": 2320,
      "Ġalpha": 2321,
      "two": 2322,
      "HELL": 2323,
      "write": 2324,
      "Ġvenvs": 2325,
      "Ġdimension": 2326,
      "ChatModel": 2327,
      "istant": 2328,
      "requi": 2329,
      "ntence": 2330,
      "ĠArgs": 2331,
      "istral": 2332,
      "Ġ----------": 2333,
      "ĠParameters": 2334,
      "caps": 2335,
      "specific": 2336,
      "legendgrouptitle": 2337,
      "'),": 2338,
      "'],": 2339,
      "(_": 2340,
      ")]": 2341,
      "40": 2342,
      "Backoff": 2343,
      "Cont": 2344,
      "Data": 2345,
      "EC": 2346,
      "RE": 2347,
      "Res": 2348,
      "SHELL": 2349,
      "TP": 2350,
      "Th": 2351,
      "TER": 2352,
      "YPE": 2353,
      "aD": 2354,
      "ak": 2355,
      "dt": 2356,
      "document": 2357,
      "fore": 2358,
      "fpq": 2359,
      "gion": 2360,
      "ir": 2361,
      "lative": 2362,
      "ng": 2363,
      "our": 2364,
      "su": 2365,
      "tx": 2366,
      "tip": 2367,
      "tabs": 2368,
      "tention": 2369,
      "wit": 2370,
      "Ġupdate": 2371,
      "Ġextra": 2372,
      "include": 2373,
      "see": 2374,
      "Ġtuple": 2375,
      "Ġauxiliarynet": 2376,
      "alchemy": 2377,
      "deta": 2378,
      "detections": 2379,
      "leep": 2380,
      "Ġfet": 2381,
      "mpatch": 2382,
      "exists": 2383,
      "Ġinto": 2384,
      "edin": 2385,
      "Ġob": 2386,
      "Ġnode": 2387,
      "uns": 2388,
      "ada": 2389,
      "ĠTo": 2390,
      "(\"/": 2391,
      "\"])": 2392,
      "part": 2393,
      "andler": 2394,
      "aml": 2395,
      "Ġrand": 2396,
      "rix": 2397,
      "confirm": 2398,
      "Ġconvert": 2399,
      "Ġexcept": 2400,
      "ĠPy": 2401,
      "ersion": 2402,
      "ĠIN": 2403,
      "ĠOCI": 2404,
      "ĠDE": 2405,
      "ĠDocument": 2406,
      "Ġloss": 2407,
      "Ġsepar": 2408,
      "angle": 2409,
      "herit": 2410,
      "ĠVector": 2411,
      "Ġboard": 2412,
      "epq": 2413,
      "question": 2414,
      "Ġmodels": 2415,
      "Ġhistory": 2416,
      "ariaD": 2417,
      "bool": 2418,
      "backoff": 2419,
      "Ġjqc": 2420,
      "ffect": 2421,
      "updat": 2422,
      "Ġtools": 2423,
      "riter": 2424,
      "INT": 2425,
      "Ġqp": 2426,
      "ĠChange": 2427,
      "Ġcapt": 2428,
      "Default": 2429,
      "Ġcontains": 2430,
      "writer": 2431,
      "handler": 2432,
      "âĢļÂ¬": 2433,
      "PATH": 2434,
      "Ġsqlalchemy": 2435,
      "inish": 2436,
      "Enter": 2437,
      "Ġfilename": 2438,
      "fidence": 2439,
      "Ġetc": 2440,
      "mpatches": 2441,
      "%,": 2442,
      "%)')": 2443,
      "22": 2444,
      "310": 2445,
      "::": 2446,
      "AB": 2447,
      "AME": 2448,
      "ACTION": 2449,
      "Js": 2450,
      "KE": 2451,
      "Mobject": 2452,
      "Mapping": 2453,
      "RIGHT": 2454,
      "Ser": 2455,
      "UB": 2456,
      "Vi": 2457,
      "\\.": 2458,
      "aw": 2459,
      "ast": 2460,
      "by": 2461,
      "body": 2462,
      "cimal": 2463,
      "fet": 2464,
      "fancy": 2465,
      "hsv": 2466,
      "impl": 2467,
      "nel": 2468,
      "ose": 2469,
      "pack": 2470,
      "rgb": 2471,
      "sc": 2472,
      "system": 2473,
      "ud": 2474,
      "ui": 2475,
      "wik": 2476,
      "wildcard": 2477,
      "xel": 2478,
      "xml": 2479,
      "ylename": 2480,
      "ĠY": 2481,
      "Ġqueue": 2482,
      "Ġmpatches": 2483,
      "onents": 2484,
      "erm": 2485,
      "erature": 2486,
      "inary": 2487,
      "Ġad": 2488,
      "Ġabs": 2489,
      "alpha": 2490,
      "reference": 2491,
      "debug": 2492,
      "Ġcustom": 2493,
      "anager": 2494,
      "Ġfeat": 2495,
      "ite": 2496,
      "utf": 2497,
      "Ġmerge": 2498,
      "Ġbias": 2499,
      "uration": 2500,
      "pear": 2501,
      "Ġnext": 2502,
      "other": 2503,
      "Ġref": 2504,
      "Ġdrop": 2505,
      "Â°\",": 2506,
      "ĠSoftware": 2507,
      "ĠAU": 2508,
      "setattr": 2509,
      "asyncio": 2510,
      "parser": 2511,
      "ĠFI": 2512,
      "strip": 2513,
      "Ġcom": 2514,
      "amili": 2515,
      "Ġconstructor": 2516,
      "Ġexpect": 2517,
      "ĠModule": 2518,
      "ĠIS": 2519,
      "ured": 2520,
      "Ġprovide": 2521,
      "dataclass": 2522,
      "Ġload": 2523,
      "Ġsend": 2524,
      "ube": 2525,
      "Ġdecor": 2526,
      "urls": 2527,
      "oflow": 2528,
      "Ġappear": 2529,
      "colorbar": 2530,
      "application": 2531,
      "answer": 2532,
      "components": 2533,
      "weights": 2534,
      "static": 2535,
      "Ġsupport": 2536,
      "Ġjob": 2537,
      "pixel": 2538,
      "Ġ``": 2539,
      "SSAGE": 2540,
      "Ġruns": 2541,
      "ndarray": 2542,
      "fixture": 2543,
      "ivy": 2544,
      "sgpt": 2545,
      "lowercase": 2546,
      "Ð²ÐĤÑĻ": 2547,
      "Ġcontainer": 2548,
      "MESSAGE": 2549,
      "Ġoptimize": 2550,
      "Ġmarker": 2551,
      "Ġlambda": 2552,
      "execute": 2553,
      "Ġchunks": 2554,
      "ccessful": 2555,
      "ifier": 2556,
      "ÐİÐł": 2557,
      "ĠHTML": 2558,
      "âĢŀâĢĵ": 2559,
      "Ġignore": 2560,
      "ĠChangeSpeed": 2561,
      "Json": 2562,
      "amilies": 2563,
      "ĠModuleType": 2564,
      "\"):": 2565,
      "01": 2566,
      "By": 2567,
      "Div": 2568,
      "Dict": 2569,
      "Group": 2570,
      "Handler": 2571,
      "PL": 2572,
      "Patch": 2573,
      "Set": 2574,
      "Single": 2575,
      "Text": 2576,
      "US": 2577,
      "Web": 2578,
      "dat": 2579,
      "dash": 2580,
      "ection": 2581,
      "final": 2582,
      "ffix": 2583,
      "github": 2584,
      "hind": 2585,
      "ie": 2586,
      "kens": 2587,
      "pattern": 2588,
      "rand": 2589,
      "si": 2590,
      "sage": 2591,
      "sleep": 2592,
      "tim": 2593,
      "table": 2594,
      "vent": 2595,
      "zil": 2596,
      "Ġ\\": 2597,
      "ĠError": 2598,
      "ĠĠĠĠĠĠ": 2599,
      "onic": 2600,
      "atible": 2601,
      "ency": 2602,
      "Ġtick": 2603,
      "Ġtask": 2604,
      "Ġafter": 2605,
      "remove": 2606,
      "Ġcmd": 2607,
      "Ġfla": 2608,
      "Ġfunc": 2609,
      "itonic": 2610,
      "Ġpas": 2611,
      "Ġsave": 2612,
      "Ġscalar": 2613,
      "utorial": 2614,
      "Ġmat": 2615,
      "Ġmodule": 2616,
      "example": 2617,
      "Ġbs": 2618,
      "Ġback": 2619,
      "Ġbold": 2620,
      "eds": 2621,
      "ids": 2622,
      "Ġwarnings": 2623,
      "Ġ'<": 2624,
      "ueue": 2625,
      "mas": 2626,
      "filename": 2627,
      "Ġtokens": 2628,
      "Ġanimation": 2629,
      "ĠType": 2630,
      "ĊĊĉ": 2631,
      "ĊĊĉĉ": 2632,
      "ĠSQL": 2633,
      "verse": 2634,
      "uplic": 2635,
      "complex": 2636,
      "direction": 2637,
      "velo": 2638,
      "ĠFran": 2639,
      "Ġrate": 2640,
      "Ġexact": 2641,
      "Ġtextual": 2642,
      "ical": 2643,
      "ĠOne": 2644,
      "Ġproperties": 2645,
      "schemas": 2646,
      "ĠLine": 2647,
      "ĠVi": 2648,
      "epsee": 2649,
      "ĠRetry": 2650,
      "Ġmove": 2651,
      "CHEC": 2652,
      "ĠUn": 2653,
      "ĠURL": 2654,
      "Ġzones": 2655,
      "lectionBehavior": 2656,
      "ĠNo": 2657,
      "sums": 2658,
      "Ġyou": 2659,
      "tools": 2660,
      "Ġdoes": 2661,
      "Completion": 2662,
      "Ġcontents": 2663,
      "Ġadditional": 2664,
      "Ġsubset": 2665,
      "pacing": 2666,
      "ĠException": 2667,
      "Ġchatgpt": 2668,
      "bsz": 2669,
      "SelectionBehavior": 2670,
      "Arrow": 2671,
      "Ġsorted": 2672,
      "pairs": 2673,
      "Ġlangchain": 2674,
      "Ġsuch": 2675,
      "polate": 2676,
      "selected": 2677,
      "ĠEmbeddingsSingle": 2678,
      "Ġface": 2679,
      "Ġpoints": 2680,
      "POINT": 2681,
      "Transformer": 2682,
      "factory": 2683,
      "Ġseparated": 2684,
      "herited": 2685,
      "fancyarrow": 2686,
      "Settings": 2687,
      "zilla": 2688,
      "Ġpassed": 2689,
      "epseek": 2690,
      "CHECK": 2691,
      "ĠEmbeddingsSingleton": 2692,
      "*\\": 2693,
      "16": 2694,
      ":.": 2695,
      "Action": 2696,
      "BASE": 2697,
      "EM": 2698,
      "Font": 2699,
      "Fade": 2700,
      "IM": 2701,
      "Id": 2702,
      "Of": 2703,
      "SW": 2704,
      "Sc": 2705,
      "SON": 2706,
      "UT": 2707,
      "URL": 2708,
      "]),": 2709,
      "bone": 2710,
      "bias": 2711,
      "dump": 2712,
      "epoch": 2713,
      "fe": 2714,
      "fld": 2715,
      "hing": 2716,
      "nown": 2717,
      "opts": 2718,
      "tutorial": 2719,
      "we": 2720,
      "ww": 2721,
      "ĠEr": 2722,
      "Ġusage": 2723,
      "Ġlayout": 2724,
      "ong": 2725,
      "inst": 2726,
      "search": 2727,
      "send": 2728,
      "Ġ\"/": 2729,
      "Ġ\"_": 2730,
      "Ġaut": 2731,
      "Ġadaptor": 2732,
      "Ġaverage": 2733,
      "step": 2734,
      "alic": 2735,
      "develo": 2736,
      "rol": 2737,
      "Ġcase": 2738,
      "Ġclean": 2739,
      "Ġfmt": 2740,
      "Ġfamilies": 2741,
      "Ġpage": 2742,
      "Ġsame": 2743,
      "Ġsample": 2744,
      "Ġsingle": 2745,
      "Ġskill": 2746,
      "entifier": 2747,
      "Ġindicate": 2748,
      "olve": 2749,
      "Ġbet": 2750,
      "rast": 2751,
      "lambda": 2752,
      "Ġremo": 2753,
      "Ġremove": 2754,
      "Ġredirect": 2755,
      "Ġrelative": 2756,
      "Ġ('": 2757,
      "Ġ({": 2758,
      "Ġversion": 2759,
      "ĠTO": 2760,
      "ĠTYPE": 2761,
      "props": 2762,
      "ĠSize": 2763,
      "Ġoff": 2764,
      "\"].": 2765,
      "trigger": 2766,
      "Ġbefore": 2767,
      "Ġbehind": 2768,
      "aped": 2769,
      "ases": 2770,
      "Ġasyncio": 2771,
      "parsing": 2772,
      "mozilla": 2773,
      "Ġtests": 2774,
      "Ġaren": 2775,
      "ĠCal": 2776,
      "ĠFont": 2777,
      "Ġwithout": 2778,
      "outlier": 2779,
      "').": 2780,
      "abc": 2781,
      "conn": 2782,
      "connection": 2783,
      "Ġconn": 2784,
      "Ġconnection": 2785,
      "Ġexample": 2786,
      "post": 2787,
      "Ġproject": 2788,
      "Ġitalic": 2789,
      "Ġdiff": 2790,
      "Ġdirect": 2791,
      "Ġdirection": 2792,
      "Ġsequence": 2793,
      "Ġdelta": 2794,
      "Ġfonts": 2795,
      "skill": 2796,
      "ocab": 2797,
      "cret": 2798,
      "Ġenviron": 2799,
      "ERAT": 2800,
      "dapter": 2801,
      "indow": 2802,
      "Ġcontrast": 2803,
      "errors": 2804,
      "backbone": 2805,
      "ickfont": 2806,
      "Ġmeta": 2807,
      "Ġtypeface": 2808,
      "actual": 2809,
      "ixture": 2810,
      "Ð¢ÑĴÐłÐī": 2811,
      "Ġstyled": 2812,
      "Ġkind": 2813,
      "Ð²ÐĤÑĶ": 2814,
      "context": 2815,
      "EST": 2816,
      "========": 2817,
      "vision": 2818,
      "Ġlimit": 2819,
      "Ġlast": 2820,
      "Ġapplies": 2821,
      "Ġcapitalization": 2822,
      "Ġcapitalized": 2823,
      "refresh": 2824,
      "cheduler": 2825,
      "Ġlanggraph": 2826,
      "ĠProvide": 2827,
      "Ġgeneration": 2828,
      "buttons": 2829,
      "Ġcalled": 2830,
      "uppercase": 2831,
      "Ġhelp": 2832,
      "String": 2833,
      "transpose": 2834,
      "Ġcombinations": 2835,
      "ĠJSON": 2836,
      "Ġplaces": 2837,
      "required": 2838,
      "adapt": 2839,
      "ariaDB": 2840,
      "ĠAUTO": 2841,
      "Ġcommas": 2842,
      "Ġdecoration": 2843,
      "Ġbsz": 2844,
      "Ġboldness": 2845,
      "uplicate": 2846,
      "CHECKING": 2847,
      "ĠErr": 2848,
      "install": 2849,
      "developer": 2850,
      "Ġdiffer": 2851,
      "Ġenvironment": 2852,
      "\"\\": 2853,
      "'])": 2854,
      "(-": 2855,
      ")):": 2856,
      ">\",": 2857,
      "Agent": 2858,
      "Class": 2859,
      "CEN": 2860,
      "Choice": 2861,
      "Fixture": 2862,
      "Hel": 2863,
      "LM": 2864,
      "MALL": 2865,
      "No": 2866,
      "OP": 2867,
      "OW": 2868,
      "Sh": 2869,
      "UR": 2870,
      "Up": 2871,
      "With": 2872,
      "XML": 2873,
      "\\\\.": 2874,
      "bum": 2875,
      "block": 2876,
      "custom": 2877,
      "dk": 2878,
      "dot": 2879,
      "fund": 2880,
      "gine": 2881,
      "ield": 2882,
      "lers": 2883,
      "mall": 2884,
      "nip": 2885,
      "pip": 2886,
      "polygon": 2887,
      "rt": 2888,
      "swith": 2889,
      "ude": 2890,
      "vector": 2891,
      "wo": 2892,
      "Ġrole": 2893,
      "inf": 2894,
      "initions": 2895,
      "sequence": 2896,
      "secret": 2897,
      "Ġtr": 2898,
      "Ġtrue": 2899,
      "Ġ\"\\": 2900,
      "Ġavo": 2901,
      "Ġimage": 2902,
      "lem": 2903,
      "lease": 2904,
      "rome": 2905,
      "roke": 2906,
      "ctx": 2907,
      "gether": 2908,
      "Ġpi": 2909,
      "Ġpriority": 2910,
      "util": 2911,
      "Ġmain": 2912,
      "exc": 2913,
      "ential": 2914,
      "uri": 2915,
      "edDict": 2916,
      "Ġother": 2917,
      "raps": 2918,
      "Ġnumbers": 2919,
      "laude": 2920,
      "uni": 2921,
      "Ġreplace": 2922,
      "ĊĠĠĠĠĠĠĠĠĠĠĠĠĠĠĠĠĠ": 2923,
      "Ġtop": 2924,
      "properties": 2925,
      "Ġimportlib": 2926,
      "Ġ[{\"": 2927,
      "ĠSystem": 2928,
      "Ġ16": 2929,
      "coding": 2930,
      "coord": 2931,
      "Ġlines": 2932,
      "pare": 2933,
      "[\"_": 2934,
      "Ġtested": 2935,
      "Ġrender": 2936,
      "ript": 2937,
      "constraint": 2938,
      "Ġconstants": 2939,
      "ĠPfund": 2940,
      "Ġdictionary": 2941,
      "dataset": 2942,
      "Ġlocal": 2943,
      "angGraph": 2944,
      "ĠLLM": 2945,
      "nothing": 2946,
      "pass": 2947,
      "Ġgre": 2948,
      "Ġgot": 2949,
      "Ġpython": 2950,
      "Tester": 2951,
      "foo": 2952,
      "Invalid": 2953,
      "Ġparameter": 2954,
      "mmandTester": 2955,
      "Ġzip": 2956,
      "ught": 2957,
      "ĠGet": 2958,
      "Ġsummar": 2959,
      "LECT": 2960,
      "rong": 2961,
      "ixed": 2962,
      "returncode": 2963,
      "iven": 2964,
      "Ġqa": 2965,
      "Ġallow": 2966,
      "gression": 2967,
      "dirs": 2968,
      "embed": 2969,
      "vertex": 2970,
      "ĠCommandTester": 2971,
      "INGS": 2972,
      "fractions": 2973,
      "ITY": 2974,
      "OLD": 2975,
      "uffle": 2976,
      "ĊĠĠĠĠĠĠĠĠĠĠĠĠĠĠĠĠĠĠĠĠĠĠĠĠĠĠĠĠĠĠĠĠĠĠĠĠĠĠĠĠĠĠĠ": 2977,
      "ancyArrow": 2978,
      "avig": 2979,
      "Box": 2980,
      "SchemaTransformer": 2981,
      "Compiler": 2982,
      "Ġ\"#/": 2983,
      "Result": 2984,
      "updaters": 2985,
      "View": 2986,
      "JsonSchemaTransformer": 2987,
      "Ġexactly": 2988,
      "ĠVideo": 2989,
      "Ġdifferent": 2990,
      "nippe": 2991,
      "pipfile": 2992,
      "Ġavoid": 2993,
      "ancyArrowPatch": 2994,
      "'})": 2995,
      "(*": 2996,
      "(\\": 2997,
      "(\"\"\"": 2998,
      ")'": 2999,
      ")}": 3000,
      ".$": 3001,
      "90": 3002,
      ">'": 3003,
      "Column": 3004,
      "Fraction": 3005,
      "GEN": 3006,
      "HIS": 3007,
      "Lo": 3008,
      "List": 3009,
      "OM": 3010,
      "One": 3011,
      "Tab": 3012,
      "Un": 3013,
      "Wrapper": 3014,
      "\\(\\": 3015,
      "]\\": 3016,
      "_{": 3017,
      "`,": 3018,
      "`.": 3019,
      "`\"\"": 3020,
      "css": 3021,
      "cations": 3022,
      "ema": 3023,
      "ections": 3024,
      "false": 3025,
      "gra": 3026,
      "hist": 3027,
      "ila": 3028,
      "ium": 3029,
      "lter": 3030,
      "nia": 3031,
      "ought": 3032,
      "png": 3033,
      "rant": 3034,
      "sdk": 3035,
      "target": 3036,
      "uix": 3037,
      "widget": 3038,
      "warning": 3039,
      "ym": 3040,
      "zer": 3041,
      "zero": 3042,
      "}'": 3043,
      "Ġho": 3044,
      "Ġrow": 3045,
      "only": 3046,
      "atypes": 3047,
      "ornia": 3048,
      "eso": 3049,
      "sentence": 3050,
      "engine": 3051,
      "Ġtra": 3052,
      "Ġtab": 3053,
      "Ġ\"$": 3054,
      "std": 3055,
      "aris": 3056,
      "rel": 3057,
      "reak": 3058,
      "ĠĠĠĠĠĠĠĠĠĠ": 3059,
      "ĠĠĠĠĠĠĠĠĠĠĠĠĠĠĠĠĠĠ": 3060,
      "Ġimplement": 3061,
      "Ġcent": 3062,
      "anner": 3063,
      "ctest": 3064,
      "Ġper": 3065,
      "Ġport": 3066,
      "Ġscreen": 3067,
      "utter": 3068,
      "Ġmore": 3069,
      "Ġmistral": 3070,
      "estamp": 3071,
      "cho": 3072,
      "child": 3073,
      "rag": 3074,
      "lish": 3075,
      "lama": 3076,
      "Ġreference": 3077,
      "Ġreverse": 3078,
      "Ġdur": 3079,
      "loss": 3080,
      "first": 3081,
      "field": 3082,
      "filter": 3083,
      "Ġstream": 3084,
      "Ġstylename": 3085,
      "ĠTHE": 3086,
      "ĠTHIS": 3087,
      "Ġ\"\"\"\\": 3088,
      "__,": 3089,
      "__):": 3090,
      "__(\"": 3091,
      "ĠShell": 3092,
      "ĠSear": 3093,
      "(\"_": 3094,
      "Ġlink": 3095,
      "trial": 3096,
      "viation": 3097,
      "ĊĠĠĠĠĠĠĠĠĠĠĠĠĠĠĠĠĠĠĠĠĠĠĠĠĠĠĠĠĠĠ": 3098,
      "parameter": 3099,
      "allclose": 3100,
      "ĠClass": 3101,
      "ĠFake": 3102,
      "amila": 3103,
      "outher": 3104,
      "constructor": 3105,
      "Ġconfidence": 3106,
      "Ġexp": 3107,
      "ĠOutput": 3108,
      "filepath": 3109,
      "Ġdataclass": 3110,
      "âĢĶ": 3111,
      "Ġdepend": 3112,
      "Ġdevice": 3113,
      "ifornia": 3114,
      "Ġchild": 3115,
      "ĠAnimation": 3116,
      "ĠVMobject": 3117,
      "NGTH": 3118,
      "agent": 3119,
      "Ð¢ÑĴÐ²": 3120,
      "peration": 3121,
      "Ġgetattr": 3122,
      "aregion": 3123,
      "county": 3124,
      "Ġunable": 3125,
      "Ġlinear": 3126,
      "ialize": 3127,
      "ĠNet": 3128,
      "ression": 3129,
      "Ġcompatible": 3130,
      "ogram": 3131,
      "ĠWI": 3132,
      "Ġplt": 3133,
      "LENGTH": 3134,
      "Ġoverwit": 3135,
      "override": 3136,
      "egaregion": 3137,
      "preparer": 3138,
      "Recycle": 3139,
      "Ġembedding": 3140,
      "Config": 3141,
      "Ġdoctest": 3142,
      "Ġ64": 3143,
      "Ġitems": 3144,
      "Token": 3145,
      "descriptions": 3146,
      "basedat": 3147,
      "module": 3148,
      "absolute": 3149,
      "Ð²ÐĤÑŀ": 3150,
      "Ġ1000": 3151,
      "ĠExamples": 3152,
      "container": 3153,
      "handlers": 3154,
      "ĠConstruct": 3155,
      "center": 3156,
      "Search": 3157,
      "Ġfolder": 3158,
      "Ġinterval": 3159,
      "difications": 3160,
      "ĠAsyncMock": 3161,
      "ĠBaseTraceHierarchyType": 3162,
      "Ġelements": 3163,
      "generator": 3164,
      "Ġcorrect": 3165,
      "support": 3166,
      "âĦĸ": 3167,
      "Ġdocuments": 3168,
      "ĠModifications": 3169,
      "ĠModelRetry": 3170,
      "txt": 3171,
      "Ġfetched": 3172,
      "ĠFILE": 3173,
      "timestamp": 3174,
      "Ġmatrix": 3175,
      "ERATED": 3176,
      "Ġpipenv": 3177,
      "coords": 3178,
      "nippets": 3179,
      "(\"\"\"\\": 3180,
      "GENERATED": 3181,
      "\\(\\)'": 3182,
      "`\"\"\")": 3183,
      "histogram": 3184,
      "zeros": 3185,
      "arison": 3186,
      "ĠSearx": 3187,
      "outhern": 3188,
      "Ġoverwitten": 3189,
      "basedatatypes": 3190,
      "\".": 3191,
      "'}": 3192,
      ")),": 3193,
      "/{": 3194,
      "03": 3195,
      "18": 3196,
      "30": 3197,
      "35": 3198,
      "99": 3199,
      ">',": 3200,
      "AD": 3201,
      "AX": 3202,
      "BXML": 3203,
      "BOLD": 3204,
      "Cal": 3205,
      "Code": 3206,
      "Create": 3207,
      "Do": 3208,
      "Del": 3209,
      "Driver": 3210,
      "File": 3211,
      "FLD": 3212,
      "Hero": 3213,
      "IL": 3214,
      "Is": 3215,
      "Jquery": 3216,
      "LI": 3217,
      "Legendgrouptitle": 3218,
      "NU": 3219,
      "Not": 3220,
      "NAME": 3221,
      "OB": 3222,
      "QU": 3223,
      "Ro": 3224,
      "Su": 3225,
      "SMALL": 3226,
      "TE": 3227,
      "TTO": 3228,
      "TEST": 3229,
      "UID": 3230,
      "Wh": 3231,
      "YG": 3232,
      "]):": 3233,
      "`:": 3234,
      "cp": 3235,
      "cupy": 3236,
      "db": 3237,
      "done": 3238,
      "eger": 3239,
      "fy": 3240,
      "fit": 3241,
      "fun": 3242,
      "km": 3243,
      "merge": 3244,
      "new": 3245,
      "numpy": 3246,
      "ool": 3247,
      "pers": 3248,
      "qd": 3249,
      "qp": 3250,
      "screen": 3251,
      "sign": 3252,
      "small": 3253,
      "ting": 3254,
      "uctions": 3255,
      "vate": 3256,
      "vnode": 3257,
      "ward": 3258,
      "}\\": 3259,
      "Ġsel": 3260,
      "Ġke": 3261,
      "Ġjs": 3262,
      "ĠNO": 3263,
      "Ġui": 3264,
      "original": 3265,
      "Ġtwo": 3266,
      "Ġ\")": 3267,
      "Ġab": 3268,
      "Ġadapter": 3269,
      "stack": 3270,
      "alle": 3271,
      "alect": 3272,
      "allow": 3273,
      "alind": 3274,
      "remaining": 3275,
      "hed": 3276,
      "Ġcli": 3277,
      "Ġsrc": 3278,
      "Ġspacing": 3279,
      "oles": 3280,
      "Ġbuff": 3281,
      "Ġbreak": 3282,
      "edia": 3283,
      "Ġnme": 3284,
      "Ġnam": 3285,
      "Ġwildcard": 3286,
      "lign": 3287,
      "last": 3288,
      "una": 3289,
      "()},": 3290,
      "Ġreason": 3291,
      "ertex": 3292,
      "izes": 3293,
      "Ġ[])": 3294,
      "imes": 3295,
      "Ġepoch": 3296,
      "ĠAI": 3297,
      "ĠAN": 3298,
      "igs": 3299,
      "integer": 3300,
      "quant": 3301,
      "-----": 3302,
      "ĠCSS": 3303,
      "ĠChoice": 3304,
      "ĠFor": 3305,
      "pyright": 3306,
      "Ġcomm": 3307,
      "ĠRes": 3308,
      "rivate": 3309,
      "shaped": 3310,
      "abel": 3311,
      "0000": 3312,
      "Ġexist": 3313,
      "Ġexception": 3314,
      "ĠPeso": 3315,
      "ĠPFLD": 3316,
      "ĠMessage": 3317,
      "ĠMark": 3318,
      "ĠMIT": 3319,
      "ĠMariaDB": 3320,
      "icen": 3321,
      "ically": 3322,
      "Ġoriginal": 3323,
      "ĠDo": 3324,
      "Ġsee": 3325,
      "Ġdecl": 3326,
      "ĠLegendgrouptitle": 3327,
      "ĠLicen": 3328,
      "layer": 3329,
      "layers": 3330,
      "calcul": 3331,
      "queues": 3332,
      "lowError": 3333,
      "Ġ30": 3334,
      "Ġfix": 3335,
      "osition": 3336,
      "apply": 3337,
      "Ġmost": 3338,
      "Ġmocker": 3339,
      "ĠBMI": 3340,
      "comparison": 3341,
      "ĠUS": 3342,
      "ĠUsage": 3343,
      "ializer": 3344,
      "escape": 3345,
      "ĠNt": 3346,
      "Ġcompute": 3347,
      "ĠWeb": 3348,
      "csigs": 3349,
      "ĠGraph": 3350,
      "HTTP": 3351,
      "cense": 3352,
      "Ġraised": 3353,
      "openapi": 3354,
      "cluding": 3355,
      "([[": 3356,
      "group": 3357,
      "points": 3358,
      "Confirm": 3359,
      "logging": 3360,
      "Ġleft": 3361,
      "requests": 3362,
      "requester": 3363,
      "Example": 3364,
      "Ġwhile": 3365,
      "Ġpassage": 3366,
      "hello": 3367,
      "----------------": 3368,
      "Ġannotated": 3369,
      "reduction": 3370,
      "Ġplaylist": 3371,
      "chunks": 3372,
      "iteral": 3373,
      "difier": 3374,
      "Ġheaders": 3375,
      "ĠTextContent": 3376,
      "ANT": 3377,
      "Ġspeedinfo": 3378,
      "ĠEmbeddingsWrapper": 3379,
      "linkedin": 3380,
      "Ġtemperature": 3381,
      "issing": 3382,
      "transformer": 3383,
      "ĠImageAssets": 3384,
      "anchors": 3385,
      "ĠDefault": 3386,
      "Ġdimensions": 3387,
      "ĠPython": 3388,
      "ffects": 3389,
      "âĢļÂ¬\",": 3390,
      "fetch": 3391,
      "Ġdropout": 3392,
      "Ð²ÐĤÑĶÐł": 3393,
      "ĠVideoAssets": 3394,
      "Delta": 3395,
      "JqueryConfirm": 3396,
      "Role": 3397,
      "TTOM": 3398,
      "signature": 3399,
      "allel": 3400,
      "ĠUsageMetadata": 3401,
      "HTTPValidationError": 3402,
      "'{": 3403,
      "'},": 3404,
      ",),": 3405,
      "11": 3406,
      "456": 3407,
      "60": 3408,
      "70": 3409,
      "></": 3410,
      "App": 3411,
      "COL": 3412,
      "FO": 3413,
      "FancyArrowPatch": 3414,
      "FlowError": 3415,
      "GL": 3416,
      "ILL": 3417,
      "KILL": 3418,
      "LIGHT": 3419,
      "Max": 3420,
      "MED": 3421,
      "Module": 3422,
      "Omit": 3423,
      "Position": 3424,
      "Roles": 3425,
      "Skill": 3426,
      "SQL": 3427,
      "SKILL": 3428,
      "Tabs": 3429,
      "VE": 3430,
      "Wait": 3431,
      "WAR": 3432,
      "]],": 3433,
      "bl": 3434,
      "bold": 3435,
      "browser": 3436,
      "boflow": 3437,
      "cc": 3438,
      "cu": 3439,
      "df": 3440,
      "dtype": 3441,
      "ez": 3442,
      "ead": 3443,
      "gal": 3444,
      "gest": 3445,
      "gument": 3446,
      "known": 3447,
      "lang": 3448,
      "mote": 3449,
      "next": 3450,
      "norm": 3451,
      "ome": 3452,
      "operation": 3453,
      "ping": 3454,
      "priority": 3455,
      "private": 3456,
      "ral": 3457,
      "sa": 3458,
      "sl": 3459,
      "squ": 3460,
      "sizes": 3461,
      "tag": 3462,
      "tite": 3463,
      "wh": 3464,
      "ws": 3465,
      "wen": 3466,
      "week": 3467,
      "wrong": 3468,
      "xes": 3469,
      "}_{": 3470,
      "Ġquestion": 3471,
      "ernel": 3472,
      "inar": 3473,
      "orld": 3474,
      "section": 3475,
      "separ": 3476,
      "Ġ\"*": 3477,
      "Ġ\",": 3478,
      "Ġ\"\",": 3479,
      "stroke": 3480,
      "rec": 3481,
      "recurs": 3482,
      "rework": 3483,
      "delete": 3484,
      "decimal": 3485,
      "Ġiss": 3486,
      "left": 3487,
      "leted": 3488,
      "legal": 3489,
      "rout": 3490,
      "Ġcore": 3491,
      "Ġfun": 3492,
      "Ġfinish": 3493,
      "Ġpers": 3494,
      "Ġpfld": 3495,
      "Ġsession": 3496,
      "Ġmsg": 3497,
      "Ġmanager": 3498,
      "exce": 3499,
      "Ġinf": 3500,
      "Ġins": 3501,
      "Ġbig": 3502,
      "Ġbinary": 3503,
      "esting": 3504,
      "petite": 3505,
      "Ġnodes": 3506,
      "Ġwait": 3507,
      "Ġwork": 3508,
      "Ġwraps": 3509,
      "lim": 3510,
      "limit": 3511,
      "();": 3512,
      "ptuna": 3513,
      "Ġdt": 3514,
      "Ġday": 3515,
      "Ġduplicate": 3516,
      "ÐłÑĵ": 3517,
      "ader": 3518,
      "ules": 3519,
      "Ġanim": 3520,
      "ĠTuple": 3521,
      "imi": 3522,
      "Ġform": 3523,
      "ĠSe": 3524,
      "igh": 3525,
      "(\"[": 3526,
      "Ġreturns": 3527,
      "Ġresponses": 3528,
      "diction": 3529,
      "dify": 3530,
      "trib": 3531,
      "ulti": 3532,
      "\").": 3533,
      "pydantic": 3534,
      "Ġcoord": 3535,
      "Ġcomplex": 3536,
      "ames": 3537,
      "Ġthreshold": 3538,
      "emini": 3539,
      "')),": 3540,
      "stances": 3541,
      "Ġcond": 3542,
      "Ġexce": 3543,
      "Ġexcess": 3544,
      "mplete": 3545,
      "ĠMED": 3546,
      "ĠIs": 3547,
      "aise": 3548,
      "Chunk": 3549,
      "ĠOF": 3550,
      "âĢł": 3551,
      "Ġdialect": 3552,
      "ĠDinar": 3553,
      "imeout": 3554,
      "ĠLog": 3555,
      "Ġchang": 3556,
      "ÐłÐı": 3557,
      "Ð¢ÑĴÐ²ÐĤÑĻ": 3558,
      "ĠEC": 3559,
      "ĠElement": 3560,
      "Ġencoding": 3561,
      "ERS": 3562,
      "ĊĠĠĠĠĠĠĠĠĠĠĠĠĠĠĠĠĠĠĠĠĠĠĠĠĠĠĠĠĠĠĠĠĠ": 3563,
      "Ġshuffle": 3564,
      "Ð²ÐĤÐİÐł": 3565,
      "views": 3566,
      "ickness": 3567,
      "ĠUser": 3568,
      "animation": 3569,
      "lections": 3570,
      "uggest": 3571,
      "ĠGoogle": 3572,
      "ĠGemini": 3573,
      "changing": 3574,
      "LEFT": 3575,
      "Ġyaml": 3576,
      ":`.": 3577,
      "THER": 3578,
      "(['": 3579,
      "INAL": 3580,
      "predict": 3581,
      "prefix": 3582,
      "Ġtimeout": 3583,
      "Reference": 3584,
      "Ġprevnode": 3585,
      "Ġcalls": 3586,
      "Ġcalling": 3587,
      "Ġ70": 3588,
      "ĠCopyright": 3589,
      "track": 3590,
      "ĠHandle": 3591,
      "results": 3592,
      "[:,": 3593,
      "ĠConnection": 3594,
      "Annotator": 3595,
      "some": 3596,
      "Ġfilter": 3597,
      "playlist": 3598,
      "Ġlike": 3599,
      "ToolCall": 3600,
      "full": 3601,
      "istants": 3602,
      "quality": 3603,
      "ĠOpenAIJsonSchemaTransformer": 3604,
      "ANSW": 3605,
      "flags": 3606,
      "generate": 3607,
      "links": 3608,
      "Ġserver": 3609,
      "Ġeven": 3610,
      "accelerators": 3611,
      "Ġcollections": 3612,
      "Ġ128": 3613,
      "Ġselected": 3614,
      "Ð¢ÑĴÐłÑĵ": 3615,
      "Ġcurrent": 3616,
      "Deta": 3617,
      "greater": 3618,
      "Ġbucket": 3619,
      "Ġneed": 3620,
      "Ġreadonly": 3621,
      "ORMAT": 3622,
      "This": 3623,
      "Ġconverted": 3624,
      "KEY": 3625,
      "Ġprovided": 3626,
      "staticmethod": 3627,
      "random": 3628,
      "side": 3629,
      "Ġflags": 3630,
      "CompletionChunk": 3631,
      "Scanner": 3632,
      "ĠTODO": 3633,
      "Ġdirectory": 3634,
      "Shim": 3635,
      "rtual": 3636,
      "unique": 3637,
      "ĠSystemRole": 3638,
      "passage": 3639,
      "Ġgreater": 3640,
      "fields": 3641,
      "Ð²ÐĤÑŀÐł": 3642,
      "DriverWait": 3643,
      "What": 3644,
      "alindrome": 3645,
      "Ġcommit": 3646,
      "ĠWebDriverWait": 3647,
      "cuda": 3648,
      "separate": 3649,
      "reworks": 3650,
      "Ġperson": 3651,
      "ANSWER": 3652,
      "\"'": 3653,
      ")\"": 3654,
      ")\",": 3655,
      ")],": 3656,
      ".')": 3657,
      "300": 3658,
      "66": 3659,
      "><": 3660,
      "AM": 3661,
      "At": 3662,
      "CON": 3663,
      "Cnorm": 3664,
      "DINGS": 3665,
      "Function": 3666,
      "FINAL": 3667,
      "Il": 3668,
      "JE": 3669,
      "NE": 3670,
      "NORM": 3671,
      "Output": 3672,
      "PH": 3673,
      "Py": 3674,
      "PAR": 3675,
      "Priority": 3676,
      "SC": 3677,
      "Train": 3678,
      "VAL": 3679,
      "Vertex": 3680,
      "WOR": 3681,
      "XT": 3682,
      "[\\": 3683,
      "action": 3684,
      "acy": 3685,
      "available": 3686,
      "buff": 3687,
      "blem": 3688,
      "cat": 3689,
      "cub": 3690,
      "column": 3691,
      "gin": 3692,
      "ges": 3693,
      "just": 3694,
      "ky": 3695,
      "kivy": 3696,
      "mg": 3697,
      "multiple": 3698,
      "nk": 3699,
      "nly": 3700,
      "palindrome": 3701,
      "qa": 3702,
      "rer": 3703,
      "ren": 3704,
      "rder": 3705,
      "render": 3706,
      "sur": 3707,
      "suggest": 3708,
      "ty": 3709,
      "tex": 3710,
      "tuple": 3711,
      "tube": 3712,
      "uil": 3713,
      "udi": 3714,
      "vocab": 3715,
      "wise": 3716,
      "web": 3717,
      "window": 3718,
      "ymb": 3719,
      "yaml": 3720,
      "zy": 3721,
      "}:": 3722,
      "}}": 3723,
      "Ġ$": 3724,
      "Ġ,": 3725,
      "Ġhe": 3726,
      "Ġent": 3727,
      "Ġqual": 3728,
      "Ġutil": 3729,
      "once": 3730,
      "ins": 3731,
      "instances": 3732,
      "ating": 3733,
      "Ġterm": 3734,
      "Ġtimes": 3735,
      "arl": 3736,
      "album": 3737,
      "reason": 3738,
      "delay": 3739,
      "deepseek": 3740,
      "deviation": 3741,
      "Ġiter": 3742,
      "Ġiou": 3743,
      "Ġimg": 3744,
      "ross": 3745,
      "root": 3746,
      "Ġcases": 3747,
      "annot": 3748,
      "mpnet": 3749,
      "Ġpadding": 3750,
      "Ġsk": 3751,
      "Ġscal": 3752,
      "Ġsys": 3753,
      "Ġmask": 3754,
      "exception": 3755,
      "entity": 3756,
      "Ġinherited": 3757,
      "Ġour": 3758,
      "meta": 3759,
      "Ġthem": 3760,
      "raise": 3761,
      "Ġwas": 3762,
      "unner": 3763,
      "Ġ'#": 3764,
      "Ġregex": 3765,
      "Ġremote": 3766,
      "ressed": 3767,
      "Ġdone": 3768,
      "Ġdis": 3769,
      "Ġdescri": 3770,
      "Ġdcc": 3771,
      "ckets": 3772,
      "ull": 3773,
      "Ġ{},": 3774,
      "img": 3775,
      "Ġ-=": 3776,
      "ĠSpeed": 3777,
      "(\"#": 3778,
      "Ġbeets": 3779,
      "assets": 3780,
      "asns": 3781,
      "Ġ_,": 3782,
      "tester": 3783,
      "ĠCreate": 3784,
      "ĠCheck": 3785,
      "ĠFade": 3786,
      "ĠFixed": 3787,
      "strict": 3788,
      "structions": 3789,
      "Ġcount": 3790,
      "Ġcomplet": 3791,
      "Ġthen": 3792,
      "Ġthan": 3793,
      "Ġ25": 3794,
      "Ġrgb": 3795,
      "outube": 3796,
      "ĠRup": 3797,
      "shard": 3798,
      "Ġconstruct": 3799,
      "Ġargparse": 3800,
      "Ġ*,": 3801,
      "icy": 3802,
      "('/": 3803,
      "Chain": 3804,
      "usal": 3805,
      "Ġproper": 3806,
      "ipedia": 3807,
      "ĠDOW": 3808,
      "markdown": 3809,
      "imeError": 3810,
      "ĠLabel": 3811,
      "ĠLiteral": 3812,
      "Ġ:]": 3813,
      "Ġresults": 3814,
      "arts": 3815,
      "used": 3816,
      "queez": 3817,
      "temp": 3818,
      "tempt": 3819,
      "Ġgiven": 3820,
      "ĠVGroup": 3821,
      "ÐłÐĨ": 3822,
      "colors": 3823,
      "Ġenabled": 3824,
      "ERR": 3825,
      "viders": 3826,
      "until": 3827,
      "untimeError": 3828,
      "Ġhsv": 3829,
      "Ġhsl": 3830,
      "fast": 3831,
      "arimax": 3832,
      "Ġattrib": 3833,
      "Ġ})": 3834,
      "compress": 3835,
      "company": 3836,
      "headers": 3837,
      "Ġvirtual": 3838,
      "ART": 3839,
      "summar": 3840,
      "envs": 3841,
      "ĠWe": 3842,
      "ĠWait": 3843,
      "ĠGener": 3844,
      "assistant": 3845,
      "ronym": 3846,
      ":`~": 3847,
      "rite": 3848,
      "clud": 3849,
      "StateChangeError": 3850,
      "ground": 3851,
      "Ġpathlib": 3852,
      "formatted": 3853,
      "Ġconfiguration": 3854,
      "speedinfo": 3855,
      "Ġprepare": 3856,
      "logger": 3857,
      "ENAI": 3858,
      "SELECT": 3859,
      "offset": 3860,
      "Ġcallback": 3861,
      "Ġsubprocess": 3862,
      "ĠChart": 3863,
      "gressor": 3864,
      "Ġkivy": 3865,
      "Deleted": 3866,
      "ticks": 3867,
      "Property": 3868,
      "anyOf": 3869,
      "raceback": 3870,
      "ampling": 3871,
      "Ġtrainer": 3872,
      "Ġtraining": 3873,
      "zureProvider": 3874,
      "startswith": 3875,
      "ĠConvert": 3876,
      "Any": 3877,
      "Ġfiles": 3878,
      "mapping": 3879,
      "OLYG": 3880,
      "curacy": 3881,
      "Ġmarkers": 3882,
      "ResponseMetadata": 3883,
      "domain": 3884,
      "Return": 3885,
      "ĠQueue": 3886,
      "BUG": 3887,
      "aded": 3888,
      "Ġwidgets": 3889,
      "Ġgenerate": 3890,
      "Ġbuttons": 3891,
      "Ġcharact": 3892,
      "noun": 3893,
      "255": 3894,
      "DOT": 3895,
      "ociated": 3896,
      "requency": 3897,
      "Ġcalcul": 3898,
      "Ġbased": 3899,
      "Ġarrowstyle": 3900,
      "environment": 3901,
      "Ġevents": 3902,
      "iggering": 3903,
      "clicks": 3904,
      "Ġassociated": 3905,
      "interpolate": 3906,
      "hsl": 3907,
      "hsla": 3908,
      "Ġvision": 3909,
      "Detections": 3910,
      "LayoutSelectionBehavior": 3911,
      "Ġaccuracy": 3912,
      "streamtube": 3913,
      "Ġ\"-\",": 3914,
      "ChatModelWith": 3915,
      "Context": 3916,
      "suffix": 3917,
      "detail": 3918,
      "riterion": 3919,
      "Ġcaptured": 3920,
      "DefaultRoles": 3921,
      "Serializer": 3922,
      "hsva": 3923,
      "packages": 3924,
      "rgba": 3925,
      "wiki": 3926,
      "wikipedia": 3927,
      "Ġabsolute": 3928,
      "Ġrefresh": 3929,
      "ĠFranc": 3930,
      "ween": 3931,
      "Ġbetween": 3932,
      "Ð¢ÑĴÐłÐīÐł": 3933,
      "CENTER": 3934,
      "OPENAI": 3935,
      "urian": 3936,
      "angGraphClient": 3937,
      "Ġsummarize": 3938,
      "avigate": 3939,
      "Ġhow": 3940,
      "ĠShellTool": 3941,
      "ĠFakeChatModelWith": 3942,
      "âĦĸ\",": 3943,
      "Successful": 3944,
      "cpu": 3945,
      "funcsigs": 3946,
      "qdm": 3947,
      "Ġkeep": 3948,
      "Ġnamed": 3949,
      "ĠChoiceDelta": 3950,
      "ĠResampling": 3951,
      "ĠLicense": 3952,
      "blue": 3953,
      "ometry": 3954,
      "legalStateChangeError": 3955,
      "Ġcoordin": 3956,
      "Ġchanges": 3957,
      "IllegalStateChangeError": 3958,
      "VertexProvider": 3959,
      "WORD": 3960,
      "rderedDict": 3961,
      "surface": 3962,
      "udio": 3963,
      "ymbol": 3964,
      "Ġhex": 3965,
      "ĠDOWN": 3966,
      "queeze": 3967,
      "Ġvirtualenv": 3968,
      "OLYGON": 3969,
      "ĠFakeChatModelWithResponseMetadata": 3970,
      "%(": 3971,
      "'):": 3972,
      ",')),": 3973,
      "-%": 3974,
      ".{": 3975,
      "23": 3976,
      "78": 3977,
      "80": 3978,
      "96": 3979,
      ":\"": 3980,
      ">{": 3981,
      "??": 3982,
      "?\",": 3983,
      "AU": 3984,
      "AV": 3985,
      "AZ": 3986,
      "Al": 3987,
      "ASS": 3988,
      "Add": 3989,
      "BED": 3990,
      "CC": 3991,
      "DL": 3992,
      "Element": 3993,
      "Finish": 3994,
      "FORMAT": 3995,
      "Image": 3996,
      "IDE": 3997,
      "Joint": 3998,
      "Log": 3999,
      "Mix": 4000,
      "MOB": 4001,
      "Out": 4002,
      "Open": 4003,
      "OFT": 4004,
      "OUT": 4005,
      "PY": 4006,
      "Pre": 4007,
      "Queue": 4008,
      "Red": 4009,
      "Raw": 4010,
      "Raise": 4011,
      "SH": 4012,
      "So": 4013,
      "Scene": 4014,
      "Scalar": 4015,
      "Seek": 4016,
      "TI": 4017,
      "Tickfont": 4018,
      "Ur": 4019,
      "User": 4020,
      "VIDE": 4021,
      "]\",": 4022,
      "]]:": 4023,
      "bin": 4024,
      "btn": 4025,
      "cing": 4026,
      "col": 4027,
      "ced": 4028,
      "claude": 4029,
      "dater": 4030,
      "ev": 4031,
      "event": 4032,
      "gor": 4033,
      "git": 4034,
      "gutter": 4035,
      "hor": 4036,
      "ich": 4037,
      "job": 4038,
      "land": 4039,
      "mistral": 4040,
      "nme": 4041,
      "nas": 4042,
      "olean": 4043,
      "pg": 4044,
      "pin": 4045,
      "pies": 4046,
      "pression": 4047,
      "sor": 4048,
      "save": 4049,
      "scheduler": 4050,
      "tes": 4051,
      "tol": 4052,
      "tain": 4053,
      "uch": 4054,
      "uous": 4055,
      "ves": 4056,
      "van": 4057,
      "warn": 4058,
      "warnings": 4059,
      "xy": 4060,
      "{{": 4061,
      "}/": 4062,
      "}]": 4063,
      "Ġ--": 4064,
      "Ġquer": 4065,
      "Ġhere": 4066,
      "Ġheight": 4067,
      "Ġlayer": 4068,
      "ond": 4069,
      "onger": 4070,
      "ere": 4071,
      "inherited": 4072,
      "esische": 4073,
      "esNot": 4074,
      "second": 4075,
      "ench": 4076,
      "Ġtabs": 4077,
      "Ġtqdm": 4078,
      "Ġ\".": 4079,
      "Ġ\"[": 4080,
      "Ġact": 4081,
      "Ġalign": 4082,
      "Ġaffects": 4083,
      "ret": 4084,
      "delta": 4085,
      "Ġima": 4086,
      "lear": 4087,
      "rok": 4088,
      "roma": 4089,
      "Ġcb": 4090,
      "Ġcre": 4091,
      "Ġcho": 4092,
      "Ġcls": 4093,
      "Ġcell": 4094,
      "annel": 4095,
      "Ġfalse": 4096,
      "Ġfact": 4097,
      "mpro": 4098,
      "Ġpx": 4099,
      "Ġpen": 4100,
      "Ġpatch": 4101,
      "Ġsi": 4102,
      "Ġsnippets": 4103,
      "utation": 4104,
      "Ġmutation": 4105,
      "exclude": 4106,
      "Ġinform": 4107,
      "Ġintern": 4108,
      "Ġbest": 4109,
      "Ġbow": 4110,
      "Ġbackoff": 4111,
      "Ġbitonic": 4112,
      "Ġopts": 4113,
      "Ġoptuna": 4114,
      "channel": 4115,
      "mean": 4116,
      "Ġnative": 4117,
      "Ġwho": 4118,
      "Ġwarning": 4119,
      "Ġwriter": 4120,
      "oth": 4121,
      "otes": 4122,
      "otstra": 4123,
      "cel": 4124,
      "Ġ''": 4125,
      "Ġ')": 4126,
      "Ġ'[": 4127,
      "Ġ'_": 4128,
      "Ġ'----------------": 4129,
      "()),": 4130,
      "Ġred": 4131,
      "Ġreg": 4132,
      "Ġregression": 4133,
      "ateg": 4134,
      "respon": 4135,
      "resolve": 4136,
      "Ġdigits": 4137,
      "Ġdrag": 4138,
      "local": 4139,
      "Ġ((": 4140,
      "make": 4141,
      "files": 4142,
      "adMapping": 4143,
      "extension": 4144,
      "Ġver": 4145,
      "Ġvar": 4146,
      "Ġvmobject": 4147,
      "Ġ{})": 4148,
      "Ġanchor": 4149,
      "ĠTickfont": 4150,
      "Ġdefinitions": 4151,
      "prod": 4152,
      "providers": 4153,
      "profiles": 4154,
      "ilar": 4155,
      "ility": 4156,
      "Ġ[],": 4157,
      "imilar": 4158,
      "than": 4159,
      "thought": 4160,
      "thickness": 4161,
      "ĠSh": 4162,
      "ĠSet": 4163,
      "ĠSOFT": 4164,
      "ĠAzureProvider": 4165,
      "Ġ15": 4166,
      "very": 4167,
      "iguous": 4168,
      "(\"\\": 4169,
      "ithm": 4170,
      "setup": 4171,
      "dient": 4172,
      "Ġbegin": 4173,
      "\")]": 4174,
      "\")])": 4175,
      "ĠCS": 4176,
      "ĠCUB": 4177,
      "ĠFi": 4178,
      "pytorch": 4179,
      "Ġcohere": 4180,
      "inecone": 4181,
      "Ġ20": 4182,
      "Ġ224": 4183,
      "Ġrest": 4184,
      "Ġnotice": 4185,
      "'))": 4186,
      "ĠRuntimeError": 4187,
      "001": 4188,
      "002": 4189,
      "constants": 4190,
      "ĠMapping": 4191,
      "ĠIter": 4192,
      "('.": 4193,
      "ĠOver": 4194,
      "ĠOTHER": 4195,
      "ĠOrderedDict": 4196,
      "âĢ¡": 4197,
      ")))": 4198,
      "ĠDict": 4199,
      "Ġloaded": 4200,
      "Ġsentence": 4201,
      "Ġdecimal": 4202,
      "Ġdeepseek": 4203,
      "ĠLI": 4204,
      "ĠLink": 4205,
      "Ġ:=": 4206,
      "Ġcolorsrc": 4207,
      "psT": 4208,
      "Ġgrok": 4209,
      "ĠVer": 4210,
      "agi": 4211,
      "colorsrc": 4212,
      "epSeek": 4213,
      "Ġxy": 4214,
      "Int": 4215,
      "Ġparallel": 4216,
      "aystack": 4217,
      "ORT": 4218,
      "Ġattention": 4219,
      "Ġshift": 4220,
      "Ġmodify": 4221,
      "mainSo": 4222,
      "compact": 4223,
      "Ġvia": 4224,
      "bound": 4225,
      "NOUN": 4226,
      "Ð¡Ñ": 4227,
      "ĠUse": 4228,
      "oboflow": 4229,
      "Ġzero": 4230,
      "ĠNs": 4231,
      "ONT": 4232,
      "Ġ```": 4233,
      "Ġcompile": 4234,
      "Ġcompressed": 4235,
      "csv": 4236,
      "'''": 4237,
      "Ġyield": 4238,
      "Ġsome": 4239,
      "Ġsock": 4240,
      "Ġsuperagi": 4241,
      "cause": 4242,
      "overlay": 4243,
      "']:": 4244,
      "reshape": 4245,
      "ixDo": 4246,
      "Read": 4247,
      "scaled": 4248,
      "Ġsettings": 4249,
      "ULTRA": 4250,
      "ckerFixture": 4251,
      "ENT": 4252,
      "SEMI": 4253,
      "words": 4254,
      "MessageSerializer": 4255,
      "svg": 4256,
      "describe": 4257,
      "DepsT": 4258,
      "DAY": 4259,
      "Process": 4260,
      "Ġ[\"--": 4261,
      "ĠComp": 4262,
      "skipif": 4263,
      "Ġcontaining": 4264,
      "aviate": 4265,
      "HEAV": 4266,
      "ĠHero": 4267,
      "reads": 4268,
      "ParserException": 4269,
      "contiguous": 4270,
      "handle": 4271,
      "central": 4272,
      "ĠInit": 4273,
      "training": 4274,
      "Ġparts": 4275,
      "subplot": 4276,
      "Argument": 4277,
      "stract": 4278,
      "ĠQual": 4279,
      "Ġinstead": 4280,
      "âĢļ\",": 4281,
      "Ġuses": 4282,
      "Ġseconds": 4283,
      "CTIONS": 4284,
      "Modifier": 4285,
      "Ġinterpolate": 4286,
      "ĠAgentFinish": 4287,
      "Ġsuffix": 4288,
      "Ġunittest": 4289,
      "policy": 4290,
      "Ġsafe": 4291,
      "ĠRecycle": 4292,
      "Ð¢ÑĴÐ²ÐĤÐİ": 4293,
      "Ð¢ÑĴÐ²ÐĤÐİÐł": 4294,
      "flag": 4295,
      "flaky": 4296,
      "rames": 4297,
      "Ġnoqa": 4298,
      "cketConnection": 4299,
      "Ġfields": 4300,
      "ĠHTTP": 4301,
      "Ġhello": 4302,
      "Ġservice": 4303,
      "ission": 4304,
      "eselect": 4305,
      "Ġoutliercolor": 4306,
      "Ġoutlierwidth": 4307,
      "cursor": 4308,
      "andlepin": 4309,
      "hosts": 4310,
      "failures": 4311,
      "callbacks": 4312,
      "Ġroot": 4313,
      "expecting": 4314,
      "checkpoint": 4315,
      "ĠChatCompletionChunk": 4316,
      "BOTTOM": 4317,
      "Callback": 4318,
      "printer": 4319,
      "âĦ¢": 4320,
      "Ġbuckets": 4321,
      "Ġnni": 4322,
      "Ġdocumentation": 4323,
      "Ġvectorstore": 4324,
      "ĠMockerFixture": 4325,
      "'],\"": 4326,
      "documents": 4327,
      "Ġobtain": 4328,
      "Ġrandom": 4329,
      "ĠOCIRaw": 4330,
      "ĠDEFAULT": 4331,
      "ABLE": 4332,
      "script": 4333,
      "ermission": 4334,
      "Ġfeature": 4335,
      "Ġmerged": 4336,
      "githubcode": 4337,
      "ĠUnixDo": 4338,
      "Ġdoesn": 4339,
      "FadeIn": 4340,
      "dumps": 4341,
      "epochs": 4342,
      "www": 4343,
      "entifierPre": 4344,
      "Ġremover": 4345,
      "Ġoffset": 4346,
      "ĠCallable": 4347,
      "outliercolor": 4348,
      "outlierwidth": 4349,
      "adapter": 4350,
      "adaptor": 4351,
      "blocking": 4352,
      "Ġtriggering": 4353,
      "emails": 4354,
      "stdin": 4355,
      "rello": 4356,
      "losses": 4357,
      "Ġlinkedin": 4358,
      "ĠOutputParserException": 4359,
      "Ġchildren": 4360,
      "TokenDeta": 4361,
      "AXIS": 4362,
      "NUM": 4363,
      "Ġselen": 4364,
      "Ġclick": 4365,
      "ĠDoesNot": 4366,
      "calculate": 4367,
      "ĠDefaults": 4368,
      "WARE": 4369,
      "operationId": 4370,
      "recursion": 4371,
      "ĠLogBase": 4372,
      "ÐłÐıÐł": 4373,
      "Ð¢ÑĴÐ²ÐĤÑĻÐł": 4374,
      "ERSION": 4375,
      "ĠGoogleVertexProvider": 4376,
      "somequery": 4377,
      "JECT": 4378,
      "PriorityQueue": 4379,
      "reruns": 4380,
      "uilder": 4381,
      "Ġterms": 4382,
      "ĠSpeedModifier": 4383,
      "ĠRupie": 4384,
      "ERROR": 4385,
      "summary": 4386,
      "Ġcoordinates": 4387,
      "BEDDINGS": 4388,
      "MOBJECT": 4389,
      "OpenAI": 4390,
      "gorithm": 4391,
      "tolist": 4392,
      "Ġqueries": 4393,
      "Ġimages": 4394,
      "Ġinformation": 4395,
      "Ġbowling": 4396,
      "channels": 4397,
      "otstrap": 4398,
      "ĠSOFTWARE": 4399,
      "mainSocketConnection": 4400,
      "HEAVY": 4401,
      "ĠOCIRawMessageSerializer": 4402,
      "ĠUnixDomainSocketConnection": 4403,
      "entifierPreparer": 4404,
      "TokenDetails": 4405,
      "ĠDoesNotRaise": 4406,
      "'\"": 4407,
      "(__": 4408,
      ")}\"": 4409,
      ".\\": 4410,
      ".\")": 4411,
      "/',": 4412,
      "05": 4413,
      "17": 4414,
      "26": 4415,
      "45": 4416,
      "422": 4417,
      "75": 4418,
      "86": 4419,
      "AP": 4420,
      "AS": 4421,
      "Ab": 4422,
      "And": 4423,
      "Azure": 4424,
      "CAR": 4425,
      "Check": 4426,
      "DI": 4427,
      "Di": 4428,
      "Dir": 4429,
      "EF": 4430,
      "EFT": 4431,
      "FY": 4432,
      "GS": 4433,
      "IA": 4434,
      "It": 4435,
      "Kernel": 4436,
      "LO": 4437,
      "LR": 4438,
      "LU": 4439,
      "LAR": 4440,
      "LangGraphClient": 4441,
      "My": 4442,
      "Mark": 4443,
      "Manager": 4444,
      "Megaregion": 4445,
      "NS": 4446,
      "Number": 4447,
      "OS": 4448,
      "Opts": 4449,
      "Pl": 4450,
      "RK": 4451,
      "Rout": 4452,
      "RANT": 4453,
      "Sub": 4454,
      "Screenshot": 4455,
      "Session": 4456,
      "Southern": 4457,
      "UE": 4458,
      "VERSION": 4459,
      "Warning": 4460,
      "WID": 4461,
      "WBXML": 4462,
      "[[": 4463,
      "](": 4464,
      "]*": 4465,
      "][\"": 4466,
      "big": 4467,
      "bische": 4468,
      "cr": 4469,
      "eep": 4470,
      "equal": 4471,
      "eded": 4472,
      "effect": 4473,
      "frequency": 4474,
      "frames": 4475,
      "ires": 4476,
      "jection": 4477,
      "jpg": 4478,
      "kl": 4479,
      "kanische": 4480,
      "lr": 4481,
      "less": 4482,
      "lines": 4483,
      "mode": 4484,
      "mory": 4485,
      "oal": 4486,
      "option": 4487,
      "oader": 4488,
      "ped": 4489,
      "rone": 4490,
      "ration": 4491,
      "spla": 4492,
      "samples": 4493,
      "tp": 4494,
      "tect": 4495,
      "typ": 4496,
      "ttp": 4497,
      "uage": 4498,
      "ving": 4499,
      "wear": 4500,
      "wrapper": 4501,
      "}`": 4502,
      "}],": 4503,
      "}</": 4504,
      "ĊĊĠĠĠĠĠĠĠĠĠĠĠĠĠĠĠ": 4505,
      "ĠZ": 4506,
      "Ġens": 4507,
      "Ġlab": 4508,
      "Ġupd": 4509,
      "Ġheads": 4510,
      "Ġquant": 4511,
      "onac": 4512,
      "inv": 4513,
      "infix": 4514,
      "atter": 4515,
      "atio": 4516,
      "attempt": 4517,
      "ors": 4518,
      "enci": 4519,
      "Ġtol": 4520,
      "Ġtip": 4521,
      "Ġtensor": 4522,
      "Ġtransform": 4523,
      "Ġ\".\",": 4524,
      "Ġazure": 4525,
      "Ġaccess": 4526,
      "ares": 4527,
      "alf": 4528,
      "als": 4529,
      "aloader": 4530,
      "reg": 4531,
      "remo": 4532,
      "region": 4533,
      "regression": 4534,
      "dec": 4535,
      "deos": 4536,
      "Ġip": 4537,
      "lex": 4538,
      "learn": 4539,
      "ions": 4540,
      "Ġcv": 4541,
      "Ġcsv": 4542,
      "Ġctx": 4543,
      "Ġcriterion": 4544,
      "Ġfree": 4545,
      "Ġfbind": 4546,
      "itect": 4547,
      "itter": 4548,
      "ities": 4549,
      "Ġpo": 4550,
      "Ġpres": 4551,
      "Ġpad": 4552,
      "Ġpub": 4553,
      "Ġspa": 4554,
      "Ġsarimax": 4555,
      "Ġsymbol": 4556,
      "Ġsimilar": 4557,
      "utes": 4558,
      "Ġbody": 4559,
      "edy": 4560,
      "ssistant": 4561,
      "chine": 4562,
      "chron": 4563,
      "memory": 4564,
      "ider": 4565,
      "Ġneg": 4566,
      "Ġworld": 4567,
      "Ġwrite": 4568,
      "definitions": 4569,
      "las": 4570,
      "unding": 4571,
      "unselected": 4572,
      "Ġ'{": 4573,
      "()._": 4574,
      "Ġredis": 4575,
      "resolution": 4576,
      "onth": 4577,
      "Ġdriver": 4578,
      "Ġdown": 4579,
      "Ġdraw": 4580,
      "lob": 4581,
      "Ġ(-": 4582,
      "Ġ([": 4583,
      "Ġ(_": 4584,
      "machine": 4585,
      "fill": 4586,
      "Ġstore": 4587,
      "Ġvocab": 4588,
      "ular": 4589,
      "isch": 4590,
      "ĠTimeout": 4591,
      "ĠTraceback": 4592,
      "Ġforward": 4593,
      "checker": 4594,
      "thmap": 4595,
      "Ġeith": 4596,
      "Ġevery": 4597,
      "__()": 4598,
      "ĠScene": 4599,
      "ĠSouthern": 4600,
      "ĠAdd": 4601,
      "ĠAverage": 4602,
      "ĠApp": 4603,
      "cohere": 4604,
      "getenv": 4605,
      "Ġlater": 4606,
      "\"][": 4607,
      "true": 4608,
      "Ġbelow": 4609,
      "Ġbehavior": 4610,
      "apis": 4611,
      "apStyle": 4612,
      "asic": 4613,
      "quotes": 4614,
      "quires": 4615,
      "termin": 4616,
      "vement": 4617,
      "valu": 4618,
      "moder": 4619,
      "mount": 4620,
      "testmod": 4621,
      "alls": 4622,
      "allback": 4623,
      "ĠCli": 4624,
      "ĠColumn": 4625,
      "ĠClaude": 4626,
      "ĠFind": 4627,
      "ĠFOR": 4628,
      "ĠFeat": 4629,
      "strib": 4630,
      "Ġcomplete": 4631,
      "Ġcopies": 4632,
      "Ġ24": 4633,
      "ĠRIGHT": 4634,
      "ries": 4635,
      "shwear": 4636,
      "000": 4637,
      "stant": 4638,
      "conf": 4639,
      "Ġexport": 4640,
      "Ġexcluding": 4641,
      "ĠMy": 4642,
      "ĠManim": 4643,
      "ĠMini": 4644,
      "ĠMegaregion": 4645,
      "ĠID": 4646,
      "ĠId": 4647,
      "else": 4648,
      "usr": 4649,
      "using": 4650,
      "Ġprod": 4651,
      "Ġprompt": 4652,
      "derFlowError": 4653,
      "Ġitself": 4654,
      "ynta": 4655,
      "ynchron": 4656,
      "Ġlock": 4657,
      "Ġlower": 4658,
      "Ġdelete": 4659,
      "Ġdetect": 4660,
      "ĠLe": 4661,
      "ĠLEFT": 4662,
      "endpoint": 4663,
      "oft": 4664,
      "epal": 4665,
      "Inference": 4666,
      "Ġhand": 4667,
      "percy": 4668,
      "percent": 4669,
      "Ġparameters": 4670,
      "Ġ40": 4671,
      "Ġ422": 4672,
      "needed": 4673,
      "ĠBASE": 4674,
      "compiler": 4675,
      "Ġvideos": 4676,
      "ARRANT": 4677,
      "obar": 4678,
      "Ġjust": 4679,
      "Ġjconfirm": 4680,
      "ugging": 4681,
      "Ġ`{": 4682,
      "ĠWh": 4683,
      "ĠWARRANT": 4684,
      "Ġplus": 4685,
      "ively": 4686,
      "Ġcannot": 4687,
      "ĠGrid": 4688,
      "olders": 4689,
      "acronym": 4690,
      "Ġnums": 4691,
      "Ġspecific": 4692,
      "Ġyour": 4693,
      "THE": 4694,
      "Ġhttp": 4695,
      "Ġoverwrit": 4696,
      "actory": 4697,
      "ibility": 4698,
      "oms": 4699,
      "ucture": 4700,
      "grok": 4701,
      "preview": 4702,
      "predicate": 4703,
      "projection": 4704,
      "scaling": 4705,
      "ualization": 4706,
      "Ġsetup": 4707,
      "Ġwords": 4708,
      "Ġconfigured": 4709,
      "returning": 4710,
      "matrix": 4711,
      "Ġpredict": 4712,
      "Ġprefix": 4713,
      "Ġprediction": 4714,
      "logs": 4715,
      "Ġ60": 4716,
      "Ġleast": 4717,
      "Ġalso": 4718,
      "Expression": 4719,
      "clear": 4720,
      "licit": 4721,
      "twitter": 4722,
      "Ġ85": 4723,
      "ecute": 4724,
      "}\".": 4725,
      "helper": 4726,
      "IGIN": 4727,
      "Ġids": 4728,
      "cores": 4729,
      "correct": 4730,
      "located": 4731,
      "Ġmethods": 4732,
      "functions": 4733,
      "Ġdefaults": 4734,
      "oundSelectionBehavior": 4735,
      "ĠConversation": 4736,
      "ĠOpenCode": 4737,
      "ĠOpenRout": 4738,
      "Animation": 4739,
      "regexp": 4740,
      "ĠInference": 4741,
      "minimax": 4742,
      "Ġobjects": 4743,
      "mapbox": 4744,
      "arguments": 4745,
      "Array": 4746,
      "Method": 4747,
      "visible": 4748,
      "visibility": 4749,
      "visualization": 4750,
      "Ġmatches": 4751,
      "Returns": 4752,
      "ĠQwen": 4753,
      "Ġlicense": 4754,
      "declar": 4755,
      "chorople": 4756,
      "ĠKrone": 4757,
      "ĠAgentAction": 4758,
      "ĠProvider": 4759,
      "ĠProgress": 4760,
      "ĊĠĠĠĠĠĠĠĠĠĠĠĠĠĠĠĠĠĠĠĠĠĠĠĠĠĠĠĠĠĠĠĠĠĠĠĠĠĠĠĠĠĠĠĠĠĠĠĠ": 4761,
      "Ġerrors": 4762,
      "ChatCompletion": 4763,
      "googleapis": 4764,
      "barpol": 4765,
      "selectable": 4766,
      "execution": 4767,
      "Ġrequester": 4768,
      "ĠAsyncAzure": 4769,
      "123456": 4770,
      "dispatch": 4771,
      "Ġcursor": 4772,
      "Ġfigheight": 4773,
      "Ġposition": 4774,
      "Ġurllib": 4775,
      "Ġnormalize": 4776,
      "ĠRequest": 4777,
      "Ġhasattr": 4778,
      "ETS": 4779,
      "istry": 4780,
      "Ġincluded": 4781,
      "ĠVectN": 4782,
      "ConnectionError": 4783,
      "Ġtempfile": 4784,
      "Ġevent": 4785,
      "âĢĺ\",": 4786,
      "Linear": 4787,
      "uctionKernel": 4788,
      "Ġvisit": 4789,
      "transformers": 4790,
      "LayoutManager": 4791,
      "features": 4792,
      "ĠSyncLangGraphClient": 4793,
      "Requester": 4794,
      "LDCAR": 4795,
      "super": 4796,
      "workers": 4797,
      "ĠDeepSeek": 4798,
      "plotlib": 4799,
      "Container": 4800,
      "witter": 4801,
      "Ġfetch": 4802,
      "ĠTogether": 4803,
      "Ġlosses": 4804,
      "ĠboardString": 4805,
      "Ġcapture": 4806,
      "ABIL": 4807,
      "AMETER": 4808,
      "fety": 4809,
      "package": 4810,
      "scatter": 4811,
      "ĠYoutube": 4812,
      "Ġadded": 4813,
      "Ġsupported": 4814,
      "simple": 4815,
      "Ġflag": 4816,
      "Ġbackground": 4817,
      "ĠTypeA": 4818,
      "ĠURLs": 4819,
      "EMBEDDINGS": 4820,
      "IdentifierPreparer": 4821,
      "Ġauto": 4822,
      "Ġadaptors": 4823,
      "rolled": 4824,
      "ĠCalifornia": 4825,
      "Ġconnectionstyle": 4826,
      "AgentDepsT": 4827,
      "FixtureRequest": 4828,
      "Hello": 4829,
      "Helpers": 4830,
      "entials": 4831,
      "Ġrenderer": 4832,
      "Unexpected": 4833,
      "widgets": 4834,
      "Ġrows": 4835,
      "Ġimplemented": 4836,
      "Ġstreaming": 4837,
      "Ġdataclasses": 4838,
      "ĠWITH": 4839,
      "ĠWILDCAR": 4840,
      "ĠModelRetryBackoff": 4841,
      "ĠModelRetrySettings": 4842,
      "California": 4843,
      "QUAL": 4844,
      "ĠNOT": 4845,
      "ĠAIMessage": 4846,
      "ĠANY": 4847,
      "ĠMarkdown": 4848,
      "Ġdeclares": 4849,
      "COLOR": 4850,
      "safe": 4851,
      "square": 4852,
      "Ġ\"*\"": 4853,
      "Ġfunbind": 4854,
      "exceptions": 4855,
      "ĠSequence": 4856,
      "ĠIsInt": 4857,
      "PARAMETER": 4858,
      "VALUE": 4859,
      "Ġsklearn": 4860,
      "Ġcompleted": 4861,
      "temperature": 4862,
      "Ġ});": 4863,
      "SELECTOR": 4864,
      "Ġcalculation": 4865,
      "ĠChoiceDeltaToolCall": 4866,
      "7890": 4867,
      "ASSETS": 4868,
      "PYPI": 4869,
      "ReductionKernel": 4870,
      "Url": 4871,
      "events": 4872,
      "enchmark": 4873,
      "retch": 4874,
      "Ġcreated": 4875,
      "mprovement": 4876,
      "Ġsimple": 4877,
      "ĠFireworks": 4878,
      "ĠIterable": 4879,
      "ĠVerify": 4880,
      "subplots": 4881,
      "Item": 4882,
      "LARGE": 4883,
      "Submit": 4884,
      "WIDTH": 4885,
      "splashwear": 4886,
      "Ġensure": 4887,
      "Ġquantization": 4888,
      "onacci": 4889,
      "encies": 4890,
      "itecture": 4891,
      "Ġnegative": 4892,
      "Ġeither": 4893,
      "terminator": 4894,
      "ĠMiniMax": 4895,
      "yntax": 4896,
      "ynchronous": 4897,
      "Ġoverwritten": 4898,
      "ĠOpenRouter": 4899,
      "choroplethmap": 4900,
      "barpolar": 4901,
      "ĠAsyncAzureOpenAI": 4902,
      "1234567890": 4903,
      "LayoutManagerBehavior": 4904,
      "ABILITY": 4905,
      "scattermapbox": 4906,
      "ĠWILDCARD": 4907,
      "!/": 4908,
      "\"/": 4909,
      "\">": 4910,
      "#!/": 4911,
      "'.": 4912,
      "';": 4913,
      "'[": 4914,
      "'\\": 4915,
      "'re": 4916,
      "(.": 4917,
      "(\",": 4918,
      "([\"": 4919,
      "({\"": 4920,
      ")/": 4921,
      ")])": 4922,
      "*-": 4923,
      "*:": 4924,
      "+'": 4925,
      ".+": 4926,
      ".,": 4927,
      "/\")": 4928,
      "/]\\": 4929,
      "02": 4930,
      "08": 4931,
      "34": 4932,
      "79": 4933,
      ":\",": 4934,
      ":],": 4935,
      ";\"": 4936,
      "=-": 4937,
      "ADAPTORS": 4938,
      "AFT": 4939,
      "BER": 4940,
      "BadMapping": 4941,
      "Col": 4942,
      "Color": 4943,
      "Cred": 4944,
      "Camila": 4945,
      "Candlepin": 4946,
      "DR": 4947,
      "Dep": 4948,
      "Dive": 4949,
      "Emb": 4950,
      "Embeddings": 4951,
      "EXT": 4952,
      "Fil": 4953,
      "FONT": 4954,
      "GB": 4955,
      "Gu": 4956,
      "GPT": 4957,
      "Github": 4958,
      "GRA": 4959,
      "GRE": 4960,
      "Har": 4961,
      "Height": 4962,
      "Http": 4963,
      "IV": 4964,
      "ISE": 4965,
      "IES": 4966,
      "IFY": 4967,
      "KW": 4968,
      "Ke": 4969,
      "LS": 4970,
      "LANG": 4971,
      "MD": 4972,
      "NLL": 4973,
      "Navigate": 4974,
      "Op": 4975,
      "Only": 4976,
      "PRO": 4977,
      "POLYGON": 4978,
      "Render": 4979,
      "RET": 4980,
      "Runner": 4981,
      "SO": 4982,
      "SÐł": 4983,
      "Save": 4984,
      "SCEN": 4985,
      "SDAY": 4986,
      "Tr": 4987,
      "UP": 4988,
      "Use": 4989,
      "UPA": 4990,
      "URE": 4991,
      "Usage": 4992,
      "UUID": 4993,
      "Variant": 4994,
      "Window": 4995,
      "WISE": 4996,
      "XP": 4997,
      "XX": 4998,
      "YES": 4999,
      "You": 5000,
      "[_": 5001,
      "[/]\\": 5002,
      "]},": 5003,
      "]])": 5004,
      "]})": 5005,
      "]'),": 5006,
      "ace": 5007,
      "await": 5008,
      "behavior": 5009,
      "binary": 5010,
      "bitonic": 5011,
      "basic": 5012,
      "cer": 5013,
      "cated": 5014,
      "cript": 5015,
      "dl": 5016,
      "duplicate": 5017,
      "drant": 5018,
      "deselect": 5019,
      "eil": 5020,
      "ely": 5021,
      "euler": 5022,
      "echo": 5023,
      "eometry": 5024,
      "fg": 5025,
      "ffi": 5026,
      "folders": 5027,
      "goal": 5028,
      "hic": 5029,
      "high": 5030,
      "hugging": 5031,
      "ianische": 5032,
      "implement": 5033,
      "improvement": 5034,
      "ked": 5035,
      "lit": 5036,
      "llama": 5037,
      "med": 5038,
      "margin": 5039,
      "nmin": 5040,
      "npatch": 5041,
      "native": 5042,
      "nshard": 5043,
      "oo": 5044,
      "pres": 5045,
      "pfld": 5046,
      "rules": 5047,
      "same": 5048,
      "sche": 5049,
      "sig": 5050,
      "sco": 5051,
      "sys": 5052,
      "spacing": 5053,
      "tz": 5054,
      "tmp": 5055,
      "tate": 5056,
      "tension": 5057,
      "tures": 5058,
      "var": 5059,
      "vest": 5060,
      "vote": 5061,
      "wb": 5062,
      "wn": 5063,
      "yes": 5064,
      "zones": 5065,
      "}\":": 5066,
      "}),": 5067,
      "Â¶": 5068,
      "Âł": 5069,
      "Ġ&": 5070,
      "ĠX": 5071,
      "Ġ(),": 5072,
      "Ġhero": 5073,
      "Ġuuid": 5074,
      "Ġutf": 5075,
      "ĠÐłÐĨ": 5076,
      "inest": 5077,
      "inue": 5078,
      "ination": 5079,
      "atur": 5080,
      "attention": 5081,
      "ored": 5082,
      "orig": 5083,
      "orary": 5084,
      "sever": 5085,
      "ending": 5086,
      "Ġta": 5087,
      "Ġ\"%": 5088,
      "Ġ\"==": 5089,
      "Ġ\"</": 5090,
      "Ġag": 5091,
      "stud": 5092,
      "stylename": 5093,
      "alog": 5094,
      "alled": 5095,
      "alty": 5096,
      "release": 5097,
      "dev": 5098,
      "leh": 5099,
      "ionError": 5100,
      "roids": 5101,
      "roboflow": 5102,
      "Ġclear": 5103,
      "Ġceil": 5104,
      "ank": 5105,
      "anel": 5106,
      "Ġflow": 5107,
      "Ġfind": 5108,
      "Ġfull": 5109,
      "Ġfoo": 5110,
      "Ġpur": 5111,
      "Ġpack": 5112,
      "Ġprag": 5113,
      "Ġpool": 5114,
      "Ġsqu": 5115,
      "Ġschema": 5116,
      "Ġspace": 5117,
      "Ġshell": 5118,
      "Ġsplit": 5119,
      "Ġsoftware": 5120,
      "Ġsynchronous": 5121,
      "Ġscript": 5122,
      "uted": 5123,
      "Ġmdb": 5124,
      "Ġmissing": 5125,
      "Ġinvo": 5126,
      "Ġinstructions": 5127,
      "Ġboth": 5128,
      "Ġbenchmark": 5129,
      "uru": 5130,
      "ury": 5131,
      "edb": 5132,
      "edIn": 5133,
      "ssl": 5134,
      "ssible": 5135,
      "Ġop": 5136,
      "Ġoptional": 5137,
      "chill": 5138,
      "chitecture": 5139,
      "means": 5140,
      "ĠtheHar": 5141,
      "identity": 5142,
      "license": 5143,
      "ceiv": 5144,
      "unic": 5145,
      "Ġ'-": 5146,
      "Ġ'/": 5147,
      "Ġ'\\": 5148,
      "Ġ'+'": 5149,
      "()[": 5150,
      "Ġrev": 5151,
      "Ġreport": 5152,
      "Ġrecent": 5153,
      "Ġregressor": 5154,
      "Ġrequires": 5155,
      "Ġreceiv": 5156,
      "umPy": 5157,
      "ertical": 5158,
      "ontal": 5159,
      "Ġdon": 5160,
      "Ġdat": 5161,
      "loud": 5162,
      "mail": 5163,
      "filen": 5164,
      "Ġstop": 5165,
      "ador": 5166,
      "extend": 5167,
      "Ġvari": 5168,
      "cks": 5169,
      "izontal": 5170,
      "ĠThere": 5171,
      "ĠTask": 5172,
      "ĠTEXT": 5173,
      "problem": 5174,
      "Ġimports": 5175,
      "Ġ\"\"\".": 5176,
      "imit": 5177,
      "Ġ-*-": 5178,
      "Ġequal": 5179,
      "ĠScreenshot": 5180,
      "ĠSkill": 5181,
      "ĠScalar": 5182,
      "ĠSUPA": 5183,
      "ĠSchill": 5184,
      "ĠAS": 5185,
      "ĠAll": 5186,
      "Ġ18": 5187,
      "Ġ120": 5188,
      "Ġ140": 5189,
      "Ġ==========": 5190,
      "(\"-": 5191,
      "(\".": 5192,
      "comm": 5193,
      "too": 5194,
      "together": 5195,
      "Ġ))": 5196,
      "getitem": 5197,
      "Ġlonger": 5198,
      "Ġlinest": 5199,
      "\"]:": 5200,
      "Ġbeing": 5201,
      "Ġbecause": 5202,
      "',),": 5203,
      "asse": 5204,
      "vious": 5205,
      "vehic": 5206,
      "Ġstructure": 5207,
      "Ġ_:": 5208,
      "tested": 5209,
      "ĠCont": 5210,
      "ĠCore": 5211,
      "ĠCustom": 5212,
      "ĠCapStyle": 5213,
      "ĠForm": 5214,
      "ĠFAI": 5215,
      "ĠFast": 5216,
      "amic": 5217,
      "Ġthese": 5218,
      "Ġthought": 5219,
      "Ġthere": 5220,
      "Ġ256": 5221,
      "Ġrules": 5222,
      "Ġrich": 5223,
      "lists": 5224,
      "')):": 5225,
      "ĠRun": 5226,
      "ĠRender": 5227,
      "ĠRaw": 5228,
      "ĠRoboflow": 5229,
      "ĠREF": 5230,
      "classmethod": 5231,
      "confidence": 5232,
      "Ġconst": 5233,
      "Ġconstraint": 5234,
      "Ġexists": 5235,
      "ĠPl": 5236,
      "ĠPre": 5237,
      "ĠPond": 5238,
      "ĠPinecone": 5239,
      "pool": 5240,
      "ĠMag": 5241,
      "ellm": 5242,
      "icMock": 5243,
      "('{\"": 5244,
      "Ġprops": 5245,
      "Ġprocess": 5246,
      "ĊĉĉĠĠĠ": 5247,
      "Ġdistrib": 5248,
      "ips": 5249,
      "ipped": 5250,
      "ynamic": 5251,
      "ĠDot": 5252,
      "ĠData": 5253,
      "ĠDPI": 5254,
      "ĠDarts": 5255,
      "rows": 5256,
      "Ġdeal": 5257,
      "Ġdeps": 5258,
      "Ġdepre": 5259,
      "angChain": 5260,
      "ĠLayout": 5261,
      "ĠLangGraph": 5262,
      "ĠLlama": 5263,
      "ĠLangChain": 5264,
      "figure": 5265,
      "figsize": 5266,
      "Stream": 5267,
      "endswith": 5268,
      "Ġcolorize": 5269,
      "Ġgraph": 5270,
      "Ġgive": 5271,
      "Ġgithub": 5272,
      "agraph": 5273,
      "ainvoke": 5274,
      "ĠEng": 5275,
      "Ġbounding": 5276,
      "foobar": 5277,
      "Index": 5278,
      "Includ": 5279,
      "Ġhandle": 5280,
      "Ġhigh": 5281,
      "Ġhalf": 5282,
      "ays": 5283,
      "ypedDict": 5284,
      "ĠReturn": 5285,
      "addr": 5286,
      "needs": 5287,
      "ansport": 5288,
      "Ġloguru": 5289,
      "ĠBo": 5290,
      "ĠBrowser": 5291,
      "bom": 5292,
      "book": 5293,
      "NOT": 5294,
      "backtrack": 5295,
      "cessary": 5296,
      "ĠUP": 5297,
      "ĠUp": 5298,
      "Ġunexpected": 5299,
      "Ġapplication": 5300,
      "Ġ%(": 5301,
      "Ġjquery": 5302,
      "Ġjoint": 5303,
      "Ġjoin": 5304,
      "linear": 5305,
      "Ġraw": 5306,
      "escent": 5307,
      "ĠNot": 5308,
      "ĠNumPy": 5309,
      "ĠWils": 5310,
      "DET": 5311,
      "DENS": 5312,
      "ĠGeometry": 5313,
      "LEAP": 5314,
      "assign": 5315,
      "assistants": 5316,
      "SSING": 5317,
      "SSHelpers": 5318,
      "aching": 5319,
      "Ġyet": 5320,
      "Ġyear": 5321,
      "Ġyarl": 5322,
      "Ġsocket": 5323,
      "Ġoverall": 5324,
      "ibonacci": 5325,
      "nums": 5326,
      "})\"": 5327,
      "Ġsupernet": 5328,
      "([-": 5329,
      "ValueError": 5330,
      "cast": 5331,
      "INET": 5332,
      "prepare": 5333,
      "Ġminimum": 5334,
      "Ġviews": 5335,
      "ndische": 5336,
      "Ġpredicate": 5337,
      "Ġdomain": 5338,
      "ENV": 5339,
      "places": 5340,
      "placing": 5341,
      "Ġ50": 5342,
      "Ġ65": 5343,
      "uncation": 5344,
      "Could": 5345,
      "kenizer": 5346,
      "Ġlevel": 5347,
      "Ġalbum": 5348,
      "Ġalgorithm": 5349,
      "Ġsubmob": 5350,
      "ĠChroma": 5351,
      "Exec": 5352,
      "Extension": 5353,
      "Ġcache": 5354,
      "Ġstarting": 5355,
      "Ġvalidate": 5356,
      "embedding": 5357,
      "Ġinputs": 5358,
      "cepts": 5359,
      "Def": 5360,
      "Dead": 5361,
      "tickfont": 5362,
      "vertical": 5363,
      "conditions": 5364,
      "Ġ80": 5365,
      "projecteuler": 5366,
      "ĠCompletion": 5367,
      "ĠCohere": 5368,
      "ĠCoNLL": 5369,
      "ĠThree": 5370,
      "ĠThese": 5371,
      "Ġidx": 5372,
      "ĠExtra": 5373,
      "ĠExcel": 5374,
      "force": 5375,
      "ĠHaystack": 5376,
      "Ġcaps": 5377,
      "contain": 5378,
      "handles": 5379,
      "starting": 5380,
      "centroids": 5381,
      "ĠInc": 5382,
      "ĠInput": 5383,
      "italic": 5384,
      "curr": 5385,
      "subset": 5386,
      "Ġmarkdown": 5387,
      "501": 5388,
      "505": 5389,
      "Meter": 5390,
      "ĠQdrant": 5391,
      "Ġinstalled": 5392,
      "Ġtokenize": 5393,
      "boxarrow": 5394,
      "ĠKimi": 5395,
      "refusal": 5396,
      "Ġinteract": 5397,
      "loader": 5398,
      "ignore": 5399,
      "batchsize": 5400,
      "ikanische": 5401,
      "execut": 5402,
      "Ġrequests": 5403,
      "ĠTextFile": 5404,
      "ĠAsyncScanner": 5405,
      "ĠBaseResponse": 5406,
      "ĠOpenAIAdaptor": 5407,
      "ĠOpenAIChatModel": 5408,
      "display": 5409,
      "disabled": 5410,
      "MISSING": 5411,
      "okup": 5412,
      "ĠbtnClass": 5413,
      "mtch": 5414,
      "rank": 5415,
      "PolygonZoneAnnotator": 5416,
      "START": 5417,
      "Ġassistant": 5418,
      "Ġinitial": 5419,
      "changed": 5420,
      "interesting": 5421,
      "factor": 5422,
      "RADI": 5423,
      "sorted": 5424,
      "Ġcorrespon": 5425,
      "Ġvisible": 5426,
      "ĠImageContent": 5427,
      "BUFFER": 5428,
      "UND": 5429,
      "Ġroboflow": 5430,
      "Ġpolygons": 5431,
      "CompoundSelectionBehavior": 5432,
      "ĠChatGPT": 5433,
      "Ġcombination": 5434,
      "Ġmean": 5435,
      "Ġmeans": 5436,
      "Ġneeds": 5437,
      "Ġnecessary": 5438,
      "Ġrights": 5439,
      "ĠModelSettings": 5440,
      "requires": 5441,
      "DataView": 5442,
      "successful": 5443,
      "detach": 5444,
      "details": 5445,
      "Ġobese": 5446,
      "ĠTool": 5447,
      "ĠTokenizer": 5448,
      "Ġrandint": 5449,
      "ĠINET": 5450,
      "ĠDEBUG": 5451,
      "angleA": 5452,
      "updating": 5453,
      "Server": 5454,
      "xmlString": 5455,
      "Ġadjust": 5456,
      "Ġloading": 5457,
      "USER": 5458,
      "ĠSQLAl": 5459,
      "ĠFrance": 5460,
      "ĠLineJoint": 5461,
      "IMIT": 5462,
      "Ġremoved": 5463,
      "Ġredirects": 5464,
      "connect": 5465,
      "Ġdirectly": 5466,
      "ĠJSONL": 5467,
      "URN": 5468,
      "Updater": 5469,
      "customized": 5470,
      "Ġotherwise": 5471,
      "LECTED": 5472,
      "BoxModel": 5473,
      "BoxAnnotator": 5474,
      "Loss": 5475,
      "OMSDAY": 5476,
      "email": 5477,
      "grad": 5478,
      "Ġtracks": 5479,
      "stdout": 5480,
      "Ġcenturian": 5481,
      "Ġpermit": 5482,
      "Ġexpand": 5483,
      "Ġexplicit": 5484,
      "Ġdependencies": 5485,
      "RecycleView": 5486,
      "SearchGithub": 5487,
      "Ġabout": 5488,
      "quantize": 5489,
      "Ġexisting": 5490,
      "Ġdeclare": 5491,
      "Ġfixture": 5492,
      "ĠUsageMetadataCallback": 5493,
      "SkillReference": 5494,
      "Ġissue": 5495,
      "Ġinsert": 5496,
      "Ġinspect": 5497,
      "ÐłÑĵÐł": 5498,
      "Ġcondition": 5499,
      "Ġconditions": 5500,
      "ĠMEDIA": 5501,
      "ĠGeminiAdaptor": 5502,
      "generateContent": 5503,
      "Ð¢ÑĴÐłÑĵÐł": 5504,
      "Trainer": 5505,
      "webdriver": 5506,
      "reasoning": 5507,
      "Ġscale": 5508,
      "Ġmasks": 5509,
      "Ġdisabled": 5510,
      "Ġdescription": 5511,
      "Ġ255": 5512,
      "Ġattribute": 5513,
      "compressor": 5514,
      "ĠWeaviate": 5515,
      "Ġfilesize": 5516,
      "Ġcharacters": 5517,
      "ĠShellToolSkillReference": 5518,
      "AZURE": 5519,
      "Additional": 5520,
      "Mixin": 5521,
      "TIME": 5522,
      "VIDED": 5523,
      "cols": 5524,
      "landmark": 5525,
      "Ġactual": 5526,
      "Ġinternal": 5527,
      "localhost": 5528,
      "ĠCSV": 5529,
      "Ġrestri": 5530,
      "ĠLinkedIn": 5531,
      "Ġxyxy": 5532,
      "ĠInitialize": 5533,
      "ĠQualify": 5534,
      "NUMBER": 5535,
      "Ġselenium": 5536,
      "ĠSpeedModifierUpdater": 5537,
      "]*(.": 5538,
      "Ġupdated": 5539,
      "attempts": 5540,
      "remover": 5541,
      "decay": 5542,
      "Ġspacy": 5543,
      "ĠAverageMeter": 5544,
      "ĠCliRunner": 5545,
      "ĠClaudeAdaptor": 5546,
      "ĠFeature": 5547,
      "conftest": 5548,
      "Ġ854": 5549,
      "ĠOpenCodeAdaptor": 5550,
      "ĠQwenAdaptor": 5551,
      "declaration": 5552,
      "ĠDeepSeekAdaptor": 5553,
      "ĠTogetherAdaptor": 5554,
      "Ġflaglist": 5555,
      "ĠMarkdownAdaptor": 5556,
      "ĠFireworksAdaptor": 5557,
      "ĠMiniMaxAdaptor": 5558,
      "ĠOpenRouterAdaptor": 5559,
      "*:[\\": 5560,
      "AFTER": 5561,
      "Credentials": 5562,
      "Deprec": 5563,
      "GRAPH": 5564,
      "OpCredentials": 5565,
      "RETURN": 5566,
      "SCENE": 5567,
      "Variants": 5568,
      "behaviors": 5569,
      "huggingface": 5570,
      "implementation": 5571,
      "medium": 5572,
      "nminor": 5573,
      "vester": 5574,
      "aturday": 5575,
      "origin": 5576,
      "severely": 5577,
      "study": 5578,
      "Ġpurpose": 5579,
      "Ġpackage": 5580,
      "Ġpragma": 5581,
      "ĠtheHarvester": 5582,
      "unicase": 5583,
      "filenames": 5584,
      "ĠSUPABASE": 5585,
      "ĠSchilling": 5586,
      "Ġlinestyle": 5587,
      "vehicles": 5588,
      "ĠCustomError": 5589,
      "ĠFormat": 5590,
      "ĠFAISSHelpers": 5591,
      "ĠFastText": 5592,
      "ĠREFLECTED": 5593,
      "ĠPineconeAdaptor": 5594,
      "ĠMagicMock": 5595,
      "ĠDartsTrainer": 5596,
      "Ġdeprecated": 5597,
      "ĠLlamaIndex": 5598,
      "ĠLangChainAdaptor": 5599,
      "StreamHandler": 5600,
      "Ġgithubcode": 5601,
      "Includable": 5602,
      "Ġjoined": 5603,
      "ĠWilson": 5604,
      "DENSITY": 5605,
      "ĠChromaAdaptor": 5606,
      "Execution": 5607,
      "ĠExtract": 5608,
      "ĠHaystackAdaptor": 5609,
      "ĠQdrantAdaptor": 5610,
      "ĠKimiAdaptor": 5611,
      "RADIUS": 5612,
      "Ġcorresponding": 5613,
      "DataViewBehavior": 5614,
      "ĠSQLAlchemy": 5615,
      "SearchGithubCode": 5616,
      "ĠUsageMetadataCallbackHandler": 5617,
      "ĠWeaviateAdaptor": 5618,
      "ĠSpeedModifierUpdaterExample": 5619,
      "]*(.*": 5620,
      "ĠLlamaIndexAdaptor": 5621,
      "!\"": 5622,
      "\"})": 5623,
      "'\",": 5624,
      "'\")": 5625,
      "(%": 5626,
      "(?": 5627,
      ")!": 5628,
      "+\",": 5629,
      "-|": 5630,
      ".</": 5631,
      "/\",": 5632,
      "13": 5633,
      "14": 5634,
      "19": 5635,
      "37": 5636,
      "39": 5637,
      "65": 5638,
      "73": 5639,
      "800": 5640,
      "8123": 5641,
      "=(\"": 5642,
      ">\"\"\"": 5643,
      "?+": 5644,
      "Ak": 5645,
      "All": 5646,
      "Async": 5647,
      "BA": 5648,
      "BD": 5649,
      "BE": 5650,
      "BN": 5651,
      "Body": 5652,
      "Bitonic": 5653,
      "Builder": 5654,
      "CD": 5655,
      "CE": 5656,
      "Case": 5657,
      "Core": 5658,
      "Cmpl": 5659,
      "COM": 5660,
      "DJ": 5661,
      "DK": 5662,
      "EY": 5663,
      "Enum": 5664,
      "ECTIONS": 5665,
      "Fl": 5666,
      "Find": 5667,
      "Found": 5668,
      "Fast": 5669,
      "Factory": 5670,
      "GD": 5671,
      "GU": 5672,
      "Get": 5673,
      "Gap": 5674,
      "Google": 5675,
      "Hv": 5676,
      "How": 5677,
      "HIC": 5678,
      "IU": 5679,
      "IED": 5680,
      "Implement": 5681,
      "JS": 5682,
      "KR": 5683,
      "La": 5684,
      "Lib": 5685,
      "MS": 5686,
      "Ma": 5687,
      "Mal": 5688,
      "Man": 5689,
      "MPT": 5690,
      "MariaD": 5691,
      "MariaDB": 5692,
      "Multi": 5693,
      "Name": 5694,
      "Nepal": 5695,
      "OK": 5696,
      "OT": 5697,
      "OU": 5698,
      "Opacity": 5699,
      "OTTOM": 5700,
      "Ped": 5701,
      "Play": 5702,
      "Part": 5703,
      "Print": 5704,
      "Pattern": 5705,
      "PORT": 5706,
      "RS": 5707,
      "Rate": 5708,
      "Rep": 5709,
      "RAL": 5710,
      "RING": 5711,
      "SY": 5712,
      "Sk": 5713,
      "Sp": 5714,
      "Specifi": 5715,
      "See": 5716,
      "Software": 5717,
      "Samples": 5718,
      "Saturday": 5719,
      "TT": 5720,
      "Tra": 5721,
      "Temp": 5722,
      "Timeout": 5723,
      "TAU": 5724,
      "Uz": 5725,
      "UAL": 5726,
      "VR": 5727,
      "Wed": 5728,
      "Width": 5729,
      "WAI": 5730,
      "Whether": 5731,
      "YD": 5732,
      "YX": 5733,
      "ZD": 5734,
      "]][": 5735,
      "_%": 5736,
      "_:": 5737,
      "au": 5738,
      "avid": 5739,
      "actions": 5740,
      "aises": 5741,
      "ached": 5742,
      "affects": 5743,
      "bu": 5744,
      "bre": 5745,
      "but": 5746,
      "bort": 5747,
      "bmm": 5748,
      "cla": 5749,
      "cum": 5750,
      "cert": 5751,
      "cand": 5752,
      "catch": 5753,
      "cmin": 5754,
      "cmax": 5755,
      "cases": 5756,
      "camila": 5757,
      "dig": 5758,
      "drop": 5759,
      "dns": 5760,
      "descent": 5761,
      "eli": 5762,
      "eps": 5763,
      "elem": 5764,
      "ecast": 5765,
      "fr": 5766,
      "fri": 5767,
      "fai": 5768,
      "finis": 5769,
      "gh": 5770,
      "gl": 5771,
      "gation": 5772,
      "gable": 5773,
      "gram": 5774,
      "gration": 5775,
      "glob": 5776,
      "gOpacity": 5777,
      "hk": 5778,
      "jquery": 5779,
      "jconfirm": 5780,
      "kes": 5781,
      "kische": 5782,
      "kimi": 5783,
      "long": 5784,
      "mul": 5785,
      "mine": 5786,
      "missing": 5787,
      "month": 5788,
      "nes": 5789,
      "nest": 5790,
      "nul": 5791,
      "nische": 5792,
      "ould": 5793,
      "oauth": 5794,
      "por": 5795,
      "pub": 5796,
      "qwen": 5797,
      "rb": 5798,
      "rink": 5799,
      "ratio": 5800,
      "sw": 5801,
      "sch": 5802,
      "soc": 5803,
      "six": 5804,
      "single": 5805,
      "solution": 5806,
      "sJsonSchemaTransformer": 5807,
      "snippets": 5808,
      "squeeze": 5809,
      "soft": 5810,
      "tter": 5811,
      "tgt": 5812,
      "uer": 5813,
      "uce": 5814,
      "ustr": 5815,
      "ually": 5816,
      "vation": 5817,
      "vect": 5818,
      "wraps": 5819,
      "xlim": 5820,
      "xecute": 5821,
      "ya": 5822,
      "year": 5823,
      "yield": 5824,
      "ylim": 5825,
      "yarl": 5826,
      "zier": 5827,
      "|>": 5828,
      "}},": 5829,
      "}]\\": 5830,
      "}/{": 5831,
      "µÐł": 5832,
      "¿½": 5833,
      "ÂµÐł": 5834,
      "ï¿½": 5835,
      "Ġu": 5836,
      "Ġur": 5837,
      "Ġ()": 5838,
      "Ġher": 5839,
      "Ġheroes": 5840,
      "Ġupdater": 5841,
      "Ġupdaters": 5842,
      "Ġ??": 5843,
      "onische": 5844,
      "onym": 5845,
      "erce": 5846,
      "eric": 5847,
      "erform": 5848,
      "erType": 5849,
      "erial": 5850,
      "erved": 5851,
      "inParser": 5852,
      "instructions": 5853,
      "atically": 5854,
      "orage": 5855,
      "orpor": 5856,
      "ĊĠĠĠĠĠĠĠĠĠĠ": 5857,
      "enische": 5858,
      "ences": 5859,
      "encoding": 5860,
      "Ġtb": 5861,
      "Ġtmp": 5862,
      "Ġturn": 5863,
      "Ġtup": 5864,
      "Ġtrace": 5865,
      "Ġtgt": 5866,
      "Ġtree": 5867,
      "Ġtwitter": 5868,
      "Ġ\"\")": 5869,
      "Ġabo": 5870,
      "Ġaio": 5871,
      "Ġaffi": 5872,
      "ster": 5873,
      "stapi": 5874,
      "stop": 5875,
      "steep": 5876,
      "arx": 5877,
      "ared": 5878,
      "req": 5879,
      "relative": 5880,
      "regressor": 5881,
      "deco": 5882,
      "Ġimp": 5883,
      "rotate": 5884,
      "rosoft": 5885,
      "Ġchoice": 5886,
      "Ġcraw": 5887,
      "Ġcross": 5888,
      "ana": 5889,
      "anesische": 5890,
      "Ġfc": 5891,
      "Ġfit": 5892,
      "Ġfuture": 5893,
      "Ġfalls": 5894,
      "itive": 5895,
      "geometry": 5896,
      "Ġpr": 5897,
      "Ġpix": 5898,
      "Ġpermission": 5899,
      "Ġsm": 5900,
      "Ġsink": 5901,
      "Ġsign": 5902,
      "Ġsolve": 5903,
      "Ġscheduler": 5904,
      "Ġscores": 5905,
      "ingProperty": 5906,
      "Ġman": 5907,
      "Ġmode": 5908,
      "Ġmath": 5909,
      "Ġmapp": 5910,
      "Ġmulti": 5911,
      "export": 5912,
      "enter": 5913,
      "ently": 5914,
      "Ġindi": 5915,
      "Ġinvalid": 5916,
      "Ġinline": 5917,
      "Ġincluding": 5918,
      "Ġinside": 5919,
      "Ġinclud": 5920,
      "olved": 5921,
      "Ġbar": 5922,
      "ĠbgOpacity": 5923,
      "urr": 5924,
      "urs": 5925,
      "edis": 5926,
      "\"\"}": 5927,
      "\"\"\",": 5928,
      "ssistants": 5929,
      "Ġoci": 5930,
      "Ġops": 5931,
      "Ġomit": 5932,
      "radient": 5933,
      "pecs": 5934,
      "idate": 5935,
      "identifier": 5936,
      "Ġnet": 5937,
      "Ġnorm": 5938,
      "Ġnee": 5939,
      "Ġnavig": 5940,
      "Ġnshard": 5941,
      "Ġwant": 5942,
      "Ġwrong": 5943,
      "lias": 5944,
      "live": 5945,
      "liates": 5946,
      "defgh": 5947,
      "lainParser": 5948,
      "unct": 5949,
      "uning": 5950,
      "unce": 5951,
      "unlink": 5952,
      "unrolled": 5953,
      "Ġ'.": 5954,
      "Ġ'__": 5955,
      "(){": 5956,
      "()):": 5957,
      "Ġrecurs": 5958,
      "Ġreached": 5959,
      "ately": 5960,
      "reset": 5961,
      "pth": 5962,
      "Ġdest": 5963,
      "Ġdate": 5964,
      "Ġdue": 5965,
      "Ġddl": 5966,
      "mails": 5967,
      "fibs": 5968,
      "fireworks": 5969,
      "Ġstd": 5970,
      "Ġstra": 5971,
      "Ġstroke": 5972,
      "Ġstretch": 5973,
      "Ġstorage": 5974,
      "adjust": 5975,
      "Ġvc": 5976,
      "Ġvect": 5977,
      "urnis": 5978,
      "ising": 5979,
      "isionError": 5980,
      "isdig": 5981,
      "Ġtouch": 5982,
      "Ġ{:.": 5983,
      "Ġ{\"\"}": 5984,
      "Ġanother": 5985,
      "probs": 5986,
      "iles": 5987,
      "imated": 5988,
      "Ġforce": 5989,
      "Ġforecast": 5990,
      "thing": 5991,
      "thread": 5992,
      "ationWarning": 5993,
      "Ġec": 5994,
      "__':": 5995,
      "ĠSH": 5996,
      "ĠSup": 5997,
      "ĠStr": 5998,
      "ĠSAR": 5999,
      "ĠAR": 6000,
      "ĠAs": 6001,
      "ĠAxes": 6002,
      "ĠAssistant": 6003,
      "Ġ13": 6004,
      "Ġ14": 6005,
      "verify": 6006,
      "coverage": 6007,
      "coerce": 6008,
      "Ġreturned": 6009,
      "ÐĴÂµÐł": 6010,
      "Ġresize": 6011,
      "tom": 6012,
      "Ġ##": 6013,
      "setTool": 6014,
      "getLog": 6015,
      "dius": 6016,
      "diff": 6017,
      "dictionary": 6018,
      "dialog": 6019,
      "Ġlit": 6020,
      "\"]))": 6021,
      "Ġbecom": 6022,
      "asRep": 6023,
      "quential": 6024,
      "tered": 6025,
      "termine": 6026,
      "----')": 6027,
      "Ġasset": 6028,
      "\")),": 6029,
      "angeSpecifi": 6030,
      "ponential": 6031,
      "most": 6032,
      "modifier": 6033,
      "testclient": 6034,
      "Ġarcs": 6035,
      "allOf": 6036,
      "ĠCol": 6037,
      "ĠCamila": 6038,
      "ĠCLI": 6039,
      "ĠCloud": 6040,
      "ĠCorpor": 6041,
      "ĠFree": 6042,
      "ĠFancyArrowPatch": 6043,
      "ĠFace": 6044,
      "ĠFibonacci": 6045,
      "pytz": 6046,
      "Ġcover": 6047,
      "Ġcovers": 6048,
      "Ġthrough": 6049,
      "Ġwithin": 6050,
      "Ġrid": 6051,
      "Ġrank": 6052,
      "emote": 6053,
      "listener": 6054,
      "ĠRi": 6055,
      "ĠRial": 6056,
      "ĠReg": 6057,
      "ĠRunner": 6058,
      "ĠRaises": 6059,
      "ĠRedis": 6060,
      "ĠRangeSpecifi": 6061,
      "lying": 6062,
      "shared": 6063,
      "abstract": 6064,
      "0066": 6065,
      "classic": 6066,
      "Ġcons": 6067,
      "Ġexit": 6068,
      "Ġexog": 6069,
      "ĠPR": 6070,
      "ĠPage": 6071,
      "ĠPub": 6072,
      "ĠPUR": 6073,
      "ĠPlease": 6074,
      "ĠPART": 6075,
      "ĠPOLYGON": 6076,
      "ĠPLS": 6077,
      "ĠPanel": 6078,
      "ĠPerform": 6079,
      "ĠPlainParser": 6080,
      "ĠMic": 6081,
      "ĠMER": 6082,
      "ĠMass": 6083,
      "ices": 6084,
      "('[": 6085,
      "('''": 6086,
      "('----------------": 6087,
      "uses": 6088,
      "uspend": 6089,
      "ĠObject": 6090,
      "ĠOnly": 6091,
      "Ġprogram": 6092,
      "formSubmit": 6093,
      "Ġdatasets": 6094,
      "=\"#": 6095,
      "Ġdist": 6096,
      "Ġdivision": 6097,
      "ĠDet": 6098,
      "ĠDoc": 6099,
      "ĠDash": 6100,
      "ĠDec": 6101,
      "ĠDET": 6102,
      "ĠDynamic": 6103,
      "ĠDavid": 6104,
      "Ġdel": 6105,
      "Ġdeta": 6106,
      "Ġdebug": 6107,
      "Ġdetermine": 6108,
      "ĠLo": 6109,
      "ĠLive": 6110,
      "ĠLIC": 6111,
      "Start": 6112,
      "Store": 6113,
      "ends": 6114,
      "ChangeSpeed": 6115,
      "queador": 6116,
      "Ġcolorscale": 6117,
      "validation": 6118,
      "Ġleng": 6119,
      "Ġlengs": 6120,
      "tection": 6121,
      "Ġgit": 6122,
      "Ġgrid": 6123,
      "Ġgrant": 6124,
      "Ġgutter": 6125,
      "Ġgradient": 6126,
      "ĠAnnot": 6127,
      "ĠVFadeIn": 6128,
      "...": 6129,
      "Ġ31": 6130,
      "agents": 6131,
      "colorize": 6132,
      "Ġenable": 6133,
      "Ġboolean": 6134,
      "TestCase": 6135,
      "Ġ},\"\"\"": 6136,
      "four": 6137,
      "found": 6138,
      "Init": 6139,
      "fake": 6140,
      "Ġparagraph": 6141,
      "Ġ480": 6142,
      "ĠuseBo": 6143,
      "Ġatta": 6144,
      "Ġ}\")": 6145,
      "Ġcontrol": 6146,
      "Ġcontinue": 6147,
      "Ġshall": 6148,
      "Ġshrink": 6149,
      "Ġ{\"$": 6150,
      "Ġmob": 6151,
      "Ġmodifi": 6152,
      "ĠBE": 6153,
      "ĠBy": 6154,
      "ĠBackoff": 6155,
      "ĠBUT": 6156,
      "ĠBOTTOM": 6157,
      "compare": 6158,
      "compound": 6159,
      "compatible": 6160,
      "inite": 6161,
      "boolean": 6162,
      "bootstrap": 6163,
      "1024": 6164,
      "backend": 6165,
      "mmandResponse": 6166,
      "===": 6167,
      "CHANT": 6168,
      "ĠUuid": 6169,
      "ARGS": 6170,
      "Ġunits": 6171,
      "Ġunselected": 6172,
      "Ġunknown": 6173,
      "Ġjc": 6174,
      "lineDef": 6175,
      "Ġraising": 6176,
      "escaped": 6177,
      "ugin": 6178,
      "ĠNumber": 6179,
      "ĠNormal": 6180,
      "rectory": 6181,
      "Ġmetav": 6182,
      "Ġcompare": 6183,
      "Ġcompress": 6184,
      "ĠtypeAn": 6185,
      "Ġ106": 6186,
      "ĠWidget": 6187,
      "Ġplot": 6188,
      "minimum": 6189,
      "Ġkeys": 6190,
      "Ġkeyboard": 6191,
      "Ġbytes": 6192,
      "DETE": 6193,
      "DEBUG": 6194,
      "Ġ</": 6195,
      "ĠGiven": 6196,
      "ĠGNU": 6197,
      "configuration": 6198,
      "ANGLE": 6199,
      "unknown": 6200,
      "LES": 6201,
      "SSWORD": 6202,
      "censed": 6203,
      "ULAR": 6204,
      "ddling": 6205,
      "ronClient": 6206,
      "THIN": 6207,
      "THORS": 6208,
      "opencode": 6209,
      "openrout": 6210,
      "opengl": 6211,
      "activ": 6212,
      "eby": 6213,
      "Ġsupervision": 6214,
      "([])": 6215,
      "omatically": 6216,
      "mobjects": 6217,
      "ALIC": 6218,
      "overall": 6219,
      "INFO": 6220,
      "prediction": 6221,
      "Ġtimeit": 6222,
      "ReLU": 6223,
      "Ġsetting": 6224,
      "Ġviewclass": 6225,
      "ULTRAL": 6226,
      "Const": 6227,
      "Convert": 6228,
      "material": 6229,
      "fixtures": 6230,
      "ENSE": 6231,
      "Param": 6232,
      "Parallel": 6233,
      "Ġ.._": 6234,
      "offsets": 6235,
      "Count": 6236,
      "CommandResponse": 6237,
      "ĠStudio": 6238,
      "InputText": 6239,
      "Ġletter": 6240,
      "Ġalread": 6241,
      "Ġalong": 6242,
      "Ġsubmit": 6243,
      "Ġsubnet": 6244,
      "Ġsubstant": 6245,
      "Ġsublicense": 6246,
      "Ġweights": 6247,
      "maximum": 6248,
      "imalNumber": 6249,
      "ĠChrome": 6250,
      "Ġ'''`": 6251,
      "Ġvalidation": 6252,
      "Ġfunctions": 6253,
      "lengths": 6254,
      "Ð²ÐĤÑľ": 6255,
      "Delete": 6256,
      "DAxes": 6257,
      "ĠboxWidth": 6258,
      "128": 6259,
      "mysql": 6260,
      "attrs": 6261,
      "helpers": 6262,
      "Models": 6263,
      "Ġidentifier": 6264,
      "Ġbatches": 6265,
      "Ġformats": 6266,
      "Ġformatting": 6267,
      "ĠValue": 6268,
      "BaseMessage": 6269,
      "ĠHeight": 6270,
      "ĠHasRep": 6271,
      "Ġannotate": 6272,
      "ITNE": 6273,
      "ITALIC": 6274,
      "control": 6275,
      "ĠConv": 6276,
      "centurian": 6277,
      "sqlmodel": 6278,
      "sqltypes": 6279,
      "sqlite": 6280,
      "eroDiv": 6281,
      "Ġtypically": 6282,
      "Ġplayer": 6283,
      "Ġplayed": 6284,
      "processor": 6285,
      "2024": 6286,
      "2023": 6287,
      "Sequence": 6288,
      "ĠInlineDef": 6289,
      "=[],": 6290,
      "TOP": 6291,
      "TOOL": 6292,
      "submobject": 6293,
      "subnet": 6294,
      "visit": 6295,
      "Ġstatus": 6296,
      "\"}]": 6297,
      "ĠQUAL": 6298,
      "Ġlicensed": 6299,
      "Ġtokenizer": 6300,
      "BUUID": 6301,
      "âĢ¢\",": 6302,
      "large": 6303,
      "ĠKe": 6304,
      "ĠKw": 6305,
      "ĠKEY": 6306,
      "iterator": 6307,
      "Ġinterqu": 6308,
      "Ġinteresting": 6309,
      "loading": 6310,
      "Ġgenerator": 6311,
      "Ġgenerated": 6312,
      "Toolset": 6313,
      "ToolChoice": 6314,
      "Ġsubject": 6315,
      "Ġsuccessful": 6316,
      "igned": 6317,
      "ChatRequest": 6318,
      "Ġcharge": 6319,
      "ContentParser": 6320,
      "nouns": 6321,
      "ĠORIGIN": 6322,
      "PASSWORD": 6323,
      "avg": 6324,
      "iktoken": 6325,
      "lds": 6326,
      "ĠTextfont": 6327,
      "ĠAsyncRequester": 6328,
      "12345": 6329,
      "ANY": 6330,
      "Ġ90": 6331,
      "Ġ99": 6332,
      "Ġ999": 6333,
      "Ġpositive": 6334,
      "Boy": 6335,
      "Bounce": 6336,
      "ifies": 6337,
      "Ġagents": 6338,
      "ĠRead": 6339,
      "Ġfollows": 6340,
      "Ġlandmarks": 6341,
      "ICULAR": 6342,
      "bezier": 6343,
      "Ġfail": 6344,
      "Ġfastapi": 6345,
      "chatgpt": 6346,
      "asonal": 6347,
      "ConnectionStyle": 6348,
      "``.": 6349,
      "jqcd": 6350,
      "screenshots": 6351,
      "Ġusers": 6352,
      "Ġsqltypes": 6353,
      "unittest": 6354,
      "Ġcopyright": 6355,
      "ĠParqueador": 6356,
      "Ġunderlying": 6357,
      "uxiliary": 6358,
      "POSE": 6359,
      "STEM": 6360,
      "binds": 6361,
      "issues": 6362,
      "Ġassum": 6363,
      "Ġscreenshots": 6364,
      "platforms": 6365,
      "Ġcollect": 6366,
      "entional": 6367,
      "ĠImageUrl": 6368,
      "Ġselectable": 6369,
      "Ġlengths": 6370,
      "={})": 6371,
      "theme": 6372,
      "theta": 6373,
      "tasks": 6374,
      "venvs": 6375,
      "}.\")": 6376,
      "Ġround": 6377,
      "Ġaccepts": 6378,
      "Ġignored": 6379,
      "transport": 6380,
      "ĠResponseIncludable": 6381,
      "ĠChatCmpl": 6382,
      "BOOK": 6383,
      "gregation": 6384,
      "rides": 6385,
      "Ġcolumns": 6386,
      "specification": 6387,
      "Datasets": 6388,
      "Resolve": 6389,
      "ources": 6390,
      "Ġextract": 6391,
      "Ġobser": 6392,
      "unsClient": 6393,
      "unsqueeze": 6394,
      "(\"/\")": 6395,
      "ĠPyAnd": 6396,
      "Ġjqcd": 6397,
      "Ġcaptures": 6398,
      "Defaults": 6399,
      "Ġreflect": 6400,
      "ĠFIFO": 6401,
      "dataclasses": 6402,
      "ĠcontainerFl": 6403,
      "Bytes": 6404,
      "Textfont": 6405,
      "ventUp": 6406,
      "Ġticks": 6407,
      "Ġmatplotlib": 6408,
      "ĠanimationBounce": 6409,
      "ĊĊĉĉĉ": 6410,
      "ĠSQLModel": 6411,
      "ĠUnion": 6412,
      "ĠUnderFlowError": 6413,
      "160": 6414,
      "FadeOut": 6415,
      "IMAX": 6416,
      "SWBXML": 6417,
      "Ġautomatically": 6418,
      "Ġsampled": 6419,
      "Ġbeta": 6420,
      "Ġoffsets": 6421,
      "abcdefgh": 6422,
      "Ġconnect": 6423,
      "contexts": 6424,
      "================": 6425,
      "Ġlimitation": 6426,
      "NoBackoff": 6427,
      "Shape": 6428,
      "WithShape": 6429,
      "polygons": 6430,
      "Ġtruncation": 6431,
      "Ġrendered": 6432,
      "constraints": 6433,
      "ĠLLMChain": 6434,
      "Ġgreedy": 6435,
      "Ġsummary": 6436,
      "CompilerShim": 6437,
      ")}',": 6438,
      "Loader": 6439,
      "ListChatModel": 6440,
      "Unknown": 6441,
      "gradient": 6442,
      "Ġimplementation": 6443,
      "Ġcentury": 6444,
      "Ġperform": 6445,
      "Ġportions": 6446,
      "choose": 6447,
      "filterwarnings": 6448,
      "Ġlinks": 6449,
      "ĠFakeListChatModel": 6450,
      "Ġdependency": 6451,
      "ĠAnimationGroup": 6452,
      "RecycleLayoutManagerBehavior": 6453,
      "SearchSchema": 6454,
      "supports": 6455,
      "'}})": 6456,
      "Called": 6457,
      "LIQU": 6458,
      "OBLIQU": 6459,
      "TEXT": 6460,
      "dbapi": 6461,
      "ools": 6462,
      "Ġsell": 6463,
      "allows": 6464,
      "lastInputText": 6465,
      "ĠForce": 6466,
      "ĠPFLDDatasets": 6467,
      "ĠMarker": 6468,
      "ĠMariaDBShim": 6469,
      "calculator": 6470,
      "COLORS": 6471,
      "Maximum": 6472,
      "MEDIU": 6473,
      "ModuleList": 6474,
      "SQLIdentifierPreparer": 6475,
      "VEHIC": 6476,
      "language": 6477,
      "safety": 6478,
      "squad": 6479,
      "Ġ\"*\",": 6480,
      "record": 6481,
      "Ġissues": 6482,
      "routine": 6483,
      "exceeds": 6484,
      "Ġexceed": 6485,
      "Ġexceptions": 6486,
      "ĠElementPriorityQueue": 6487,
      "predictor": 6488,
      "ĠConnectionError": 6489,
      "Ġfiltering": 6490,
      "Ġlikely": 6491,
      "randomize": 6492,
      "Ġpersons": 6493,
      "Atlas": 6494,
      "NORMS": 6495,
      "NORMAL": 6496,
      "OutputParser": 6497,
      "SCA": 6498,
      "SCR": 6499,
      "renderer": 6500,
      "Ġentries": 6501,
      "insert": 6502,
      "annotate": 6503,
      "annotated": 6504,
      "Ġscaled": 6505,
      "ĠFixedPriorityQueue": 6506,
      "Ġproperly": 6507,
      "Ġattributes": 6508,
      "ĠWaiting": 6509,
      "ĠGeneral": 6510,
      "ĠChartType": 6511,
      "Ġcharacter": 6512,
      "DOTALL": 6513,
      "suffixes": 6514,
      "Ġkeepdim": 6515,
      "WORDS": 6516,
      "CCER": 6517,
      "ImageParam": 6518,
      "horizontal": 6519,
      "vance": 6520,
      "Ġaligned": 6521,
      "Ġchose": 6522,
      "Ġwhom": 6523,
      "Ġ'---------------------": 6524,
      "Ġ'--------------------')": 6525,
      "Ġreduction": 6526,
      "ategy": 6527,
      "ategory": 6528,
      "ĠdragWindow": 6529,
      "Ġdraggable": 6530,
      "Ġverifies": 6531,
      "Ġ{})),": 6532,
      "Ġanchors": 6533,
      "product": 6534,
      "ĠSetting": 6535,
      "ĠOverFlowError": 6536,
      "ĠLIKE": 6537,
      "Ð¡ÑĻ": 6538,
      "Ð¡ÑŁ": 6539,
      "ULTRABOLD": 6540,
      "ULTRAHEAVY": 6541,
      "SEMIBOLD": 6542,
      "SEMILIGHT": 6543,
      "ĠHeroes": 6544,
      "readsClient": 6545,
      "ArgumentParser": 6546,
      "Ġobtaining": 6547,
      "Ġclicking": 6548,
      "Directory": 6549,
      "LOG": 6550,
      "Marker": 6551,
      "Plugin": 6552,
      "samplesDir": 6553,
      "typing": 6554,
      "}`\"": 6555,
      "infixes": 6556,
      "Ġpossible": 6557,
      "Ġpublish": 6558,
      "Ġdrawing": 6559,
      "ĠTimeoutError": 6560,
      "modern": 6561,
      "ĠColumnExpression": 6562,
      "ĠManimColor": 6563,
      "InferenceModel": 6564,
      "percentage": 6565,
      "ĠWARRANTY": 6566,
      "THEME": 6567,
      "omsday": 6568,
      "Ġpredicted": 6569,
      "supervan": 6570,
      "ĠTypeAlias": 6571,
      "ĠWITHOUT": 6572,
      "ĠModelRetryBackoffInput": 6573,
      "Ġ});\"\"\"": 6574,
      "yntaxExtension": 6575,
      "\">%": 6576,
      "Filter": 6577,
      "SOCCER": 6578,
      "basicConfig": 6579,
      "litellm": 6580,
      "scope": 6581,
      "wbxml": 6582,
      "oraryDirectory": 6583,
      "Ġtaken": 6584,
      "Ġaggregation": 6585,
      "Ġsquare": 6586,
      "Ġinvokes": 6587,
      "Ġdataloader": 6588,
      "ĠTasks": 6589,
      "ĠSkillAdaptor": 6590,
      "ĠASCommandResponse": 6591,
      "common": 6592,
      "ĠRunContext": 6593,
      "ĠPlatform": 6594,
      "ĠPreventUp": 6595,
      "Ġprocessing": 6596,
      "Ġdistribute": 6597,
      "ĠDataLoader": 6598,
      "Ġhighest": 6599,
      "ĠBox": 6600,
      "ĠBrowserSession": 6601,
      "Ġminimums": 6602,
      "ĠThreeDAxes": 6603,
      "executable": 6604,
      "ĠChatGPTConfig": 6605,
      "ĠToolsetTool": 6606,
      "Ġexplicitly": 6607,
      "Ġinserted": 6608,
      "colspecs": 6609,
      "Ġrestriction": 6610,
      "DeprecationWarning": 6611,
      "=(\"\",": 6612,
      "AsyncClient": 6613,
      "CoreSchema": 6614,
      "COMP": 6615,
      "FastAPI": 6616,
      "MariaDBUUID": 6617,
      "Pedro": 6618,
      "PartImageParam": 6619,
      "Spider": 6620,
      "TemporaryDirectory": 6621,
      "Wednes": 6622,
      "WAIT": 6623,
      "candidate": 6624,
      "frikanische": 6625,
      "finished": 6626,
      "nested": 6627,
      "nullable": 6628,
      "soccer": 6629,
      "Ġhereby": 6630,
      "Ġ???+": 6631,
      "Ġtuples": 6632,
      "Ġabove": 6633,
      "Ġaiohttp": 6634,
      "Ġaffiliates": 6635,
      "decoder": 6636,
      "Ġcrawl": 6637,
      "Ġpixel": 6638,
      "Ġmapped": 6639,
      "Ġindices": 6640,
      "Ġincludes": 6641,
      "ssistantsClient": 6642,
      "Ġneeded": 6643,
      "urnished": 6644,
      "isdigit": 6645,
      "Ġforecasting": 6646,
      "ĠStringProperty": 6647,
      "ĠSARIMAX": 6648,
      "getLogger": 6649,
      "Ġbecomes": 6650,
      "ponentialBackoff": 6651,
      "ĠCorporation": 6652,
      "ĠFacebook": 6653,
      "ĠRangeSpecifier": 6654,
      "ĠPublic": 6655,
      "ĠPURPOSE": 6656,
      "ĠPARTICULAR": 6657,
      "ĠMicrosoft": 6658,
      "ĠMERCHANT": 6659,
      "ĠObjectProperty": 6660,
      "ĠDecimalNumber": 6661,
      "ĠDETECTIONS": 6662,
      "ĠDynamicContentParser": 6663,
      "ĠLICENSE": 6664,
      "Ġgranted": 6665,
      "ĠuseBootstrap": 6666,
      "Ġmodified": 6667,
      "ĠBackoffMock": 6668,
      "compoundselection": 6669,
      "Ġmetavar": 6670,
      "ĠtypeAnimated": 6671,
      "openrouter": 6672,
      "activate": 6673,
      "ULTRALIGHT": 6674,
      "Ġalready": 6675,
      "Ġsubstantial": 6676,
      "ĠHasRepr": 6677,
      "ITNESS": 6678,
      "eroDivisionError": 6679,
      "ĠInlineDefsJsonSchemaTransformer": 6680,
      "ĠQUALIFY": 6681,
      "ĠChatCmplStreamHandler": 6682,
      "ĠPyAndJson": 6683,
      "ĠcontainerFluid": 6684,
      "ĠLLMChainFilter": 6685,
      "OBLIQUE": 6686,
      "MEDIUM": 6687,
      "VEHICLES": 6688,
      "ĠdragWindowGap": 6689,
      "ĠColumnExpressionArgument": 6690,
      "ĠPreventUpdate": 6691,
      "Wednesday": 6692,
      "ĠMERCHANTABILITY": 6693,
      "!\")": 6694,
      "!')": 6695,
      "\"*": 6696,
      "\"[": 6697,
      "\">'": 6698,
      "\"[\\": 6699,
      "$)": 6700,
      "${": 6701,
      "'(": 6702,
      "'>": 6703,
      "'\"}": 6704,
      "((\"": 6705,
      ")*": 6706,
      ")[": 6707,
      ").\"\"\"": 6708,
      "*'": 6709,
      "*\":": 6710,
      "+\\\\.": 6711,
      ",'),": 6712,
      ",)),": 6713,
      "-{": 6714,
      ".:": 6715,
      ".<": 6716,
      "/-": 6717,
      "/\":": 6718,
      "/')": 6719,
      "012": 6720,
      "110": 6721,
      "135": 6722,
      "2505": 6723,
      "33": 6724,
      "55": 6725,
      "58": 6726,
      "500": 6727,
      "62": 6728,
      "67": 6729,
      "68": 6730,
      "69": 6731,
      "600": 6732,
      "82": 6733,
      ":%": 6734,
      ":'": 6735,
      ":]": 6736,
      ":]:": 6737,
      "<|": 6738,
      "=_": 6739,
      "=[\"": 6740,
      ">$": 6741,
      ">=": 6742,
      "?')": 6743,
      "@{{": 6744,
      "AF": 6745,
      "AG": 6746,
      "AK": 6747,
      "Aw": 6748,
      "Assert": 6749,
      "Ari": 6750,
      "ACH": 6751,
      "Align": 6752,
      "ACC": 6753,
      "Assistant": 6754,
      "AssistantsClient": 6755,
      "BP": 6756,
      "Ba": 6757,
      "Bh": 6758,
      "Bur": 6759,
      "Back": 6760,
      "Bind": 6761,
      "Button": 6762,
      "BIC": 6763,
      "Binary": 6764,
      "BIL": 6765,
      "Bleh": 6766,
      "CP": 6767,
      "Cy": 6768,
      "Can": 6769,
      "Cos": 6770,
      "CLE": 6771,
      "CAT": 6772,
      "CUB": 6773,
      "CPy": 6774,
      "CLU": 6775,
      "CronClient": 6776,
      "CACH": 6777,
      "Dial": 6778,
      "DING": 6779,
      "Drop": 6780,
      "Die": 6781,
      "DDL": 6782,
      "EA": 6783,
      "EE": 6784,
      "EL": 6785,
      "Eine": 6786,
      "EAR": 6787,
      "EPI": 6788,
      "Empty": 6789,
      "ELL": 6790,
      "Event": 6791,
      "EOS": 6792,
      "FL": 6793,
      "For": 6794,
      "Fig": 6795,
      "FER": 6796,
      "Final": 6797,
      "Fold": 6798,
      "FIG": 6799,
      "Fake": 6800,
      "Fran": 6801,
      "FUN": 6802,
      "Frid": 6803,
      "FLO": 6804,
      "FRING": 6805,
      "GN": 6806,
      "GO": 6807,
      "GP": 6808,
      "Gh": 6809,
      "GOR": 6810,
      "GHT": 6811,
      "Gener": 6812,
      "Hb": 6813,
      "IK": 6814,
      "IQ": 6815,
      "IZ": 6816,
      "Iter": 6817,
      "ITH": 6818,
      "IFT": 6819,
      "IAD": 6820,
      "IBE": 6821,
      "Ja": 6822,
      "Jc": 6823,
      "KD": 6824,
      "KP": 6825,
      "Kmeans": 6826,
      "Le": 6827,
      "Loc": 6828,
      "LAI": 6829,
      "Llm": 6830,
      "LIC": 6831,
      "Llama": 6832,
      "Label": 6833,
      "Limit": 6834,
      "MW": 6835,
      "Math": 6836,
      "MDE": 6837,
      "Mass": 6838,
      "Monkey": 6839,
      "MClass": 6840,
      "MENT": 6841,
      "ND": 6842,
      "NN": 6843,
      "Ne": 6844,
      "Num": 6845,
      "Net": 6846,
      "NIN": 6847,
      "NING": 6848,
      "OO": 6849,
      "OY": 6850,
      "Optim": 6851,
      "Options": 6852,
      "OUND": 6853,
      "OOMSDAY": 6854,
      "PR": 6855,
      "Ps": 6856,
      "Page": 6857,
      "Path": 6858,
      "PER": 6859,
      "Point": 6860,
      "PUN": 6861,
      "PUB": 6862,
      "PUT": 6863,
      "Please": 6864,
      "Pool": 6865,
      "QQ": 6866,
      "RU": 6867,
      "Ru": 6868,
      "Run": 6869,
      "Rust": 6870,
      "RES": 6871,
      "RUN": 6872,
      "Rating": 6873,
      "Roboflow": 6874,
      "RunsClient": 6875,
      "SD": 6876,
      "Sa": 6877,
      "Sy": 6878,
      "Sal": 6879,
      "Sch": 6880,
      "Sort": 6881,
      "Sup": 6882,
      "Size": 6883,
      "Send": 6884,
      "Screen": 6885,
      "System": 6886,
      "Shell": 6887,
      "Scheduler": 6888,
      "SABLE": 6889,
      "SGD": 6890,
      "SyntaxExtension": 6891,
      "SIZ": 6892,
      "Tip": 6893,
      "Table": 6894,
      "Tues": 6895,
      "Types": 6896,
      "Tell": 6897,
      "TYPE": 6898,
      "TAB": 6899,
      "Tasse": 6900,
      "TypedDict": 6901,
      "UC": 6902,
      "Uy": 6903,
      "VM": 6904,
      "Vc": 6905,
      "VER": 6906,
      "VED": 6907,
      "VENT": 6908,
      "VFadeIn": 6909,
      "WD": 6910,
      "WF": 6911,
      "WN": 6912,
      "We": 6913,
      "Wx": 6914,
      "Widget": 6915,
      "XES": 6916,
      "YR": 6917,
      "YY": 6918,
      "Your": 6919,
      "YRIGHT": 6920,
      "YCLE": 6921,
      "ZS": 6922,
      "[',": 6923,
      "\\\\": 6924,
      "]+": 6925,
      "]')": 6926,
      "]['": 6927,
      "]].": 6928,
      "]$)": 6929,
      "^/": 6930,
      "_,": 6931,
      "ae": 6932,
      "az": 6933,
      "aff": 6934,
      "auxiliarynet": 6935,
      "after": 6936,
      "audio": 6937,
      "afrikanische": 6938,
      "bc": 6939,
      "bn": 6940,
      "br": 6941,
      "bit": 6942,
      "bot": 6943,
      "bet": 6944,
      "bab": 6945,
      "bos": 6946,
      "blob": 6947,
      "cation": 6948,
      "cord": 6949,
      "cron": 6950,
      "cmpl": 6951,
      "canner": 6952,
      "cross": 6953,
      "criterion": 6954,
      "cions": 6955,
      "cfg": 6956,
      "caching": 6957,
      "dur": 6958,
      "dische": 6959,
      "dler": 6960,
      "darts": 6961,
      "ei": 6962,
      "eq": 6963,
      "ein": 6964,
      "eval": 6965,
      "eets": 6966,
      "eof": 6967,
      "each": 6968,
      "evalu": 6969,
      "fc": 6970,
      "fu": 6971,
      "fli": 6972,
      "families": 6973,
      "fusal": 6974,
      "fallback": 6975,
      "freq": 6976,
      "gc": 6977,
      "gf": 6978,
      "gp": 6979,
      "gen": 6980,
      "got": 6981,
      "gate": 6982,
      "gres": 6983,
      "ght": 6984,
      "gca": 6985,
      "guid": 6986,
      "ghost": 6987,
      "grid": 6988,
      "gui": 6989,
      "glish": 6990,
      "ha": 6991,
      "hi": 6992,
      "hent": 6993,
      "ham": 6994,
      "haystack": 6995,
      "iq": 6996,
      "ira": 6997,
      "iate": 6998,
      "iumb": 6999,
      "ience": 7000,
      "iled": 7001,
      "irc": 7002,
      "ijection": 7003,
      "ja": 7004,
      "jac": 7005,
      "joint": 7006,
      "kb": 7007,
      "kq": 7008,
      "king": 7009,
      "kernel": 7010,
      "kmeans": 7011,
      "lf": 7012,
      "lp": 7013,
      "longer": 7014,
      "mr": 7015,
      "man": 7016,
      "mix": 7017,
      "mnt": 7018,
      "mixed": 7019,
      "media": 7020,
      "multi": 7021,
      "nP": 7022,
      "ners": 7023,
      "nger": 7024,
      "names": 7025,
      "null": 7026,
      "nepal": 7027,
      "oU": 7028,
      "ost": 7029,
      "oot": 7030,
      "opt": 7031,
      "optuna": 7032,
      "odify": 7033,
      "pr": 7034,
      "pinner": 7035,
      "pinecone": 7036,
      "punct": 7037,
      "qt": 7038,
      "rest": 7039,
      "rary": 7040,
      "rstrip": 7041,
      "sb": 7042,
      "spa": 7043,
      "sType": 7044,
      "score": 7045,
      "symbol": 7046,
      "scores": 7047,
      "syntax": 7048,
      "tb": 7049,
      "tle": 7050,
      "tur": 7051,
      "til": 7052,
      "tree": 7053,
      "trello": 7054,
      "tuning": 7055,
      "uint": 7056,
      "uische": 7057,
      "uay": 7058,
      "uanische": 7059,
      "udo": 7060,
      "vcr": 7061,
      "wal": 7062,
      "wine": 7063,
      "world": 7064,
      "ways": 7065,
      "xb": 7066,
      "xies": 7067,
      "yal": 7068,
      "yError": 7069,
      "yper": 7070,
      "youtube": 7071,
      "zzy": 7072,
      "zipped": 7073,
      "{}'": 7074,
      "}-": 7075,
      "}}\",": 7076,
      "Â§": 7077,
      "Â®": 7078,
      "ÂŃ": 7079,
      "ĊĠĠ": 7080,
      "Ġext": 7081,
      "Ġqu": 7082,
      "Ġ])": 7083,
      "Ġupper": 7084,
      "Ġqueues": 7085,
      "Ġextension": 7086,
      "Ġhosts": 7087,
      "Ġ^/": 7088,
      "onent": 7089,
      "ern": 7090,
      "erve": 7091,
      "erView": 7092,
      "erianische": 7093,
      "ercions": 7094,
      "inet": 7095,
      "inische": 7096,
      "inline": 7097,
      "instruct": 7098,
      "inference": 7099,
      "instructor": 7100,
      "inimum": 7101,
      "inherit": 7102,
      "atic": 7103,
      "atures": 7104,
      "atlas": 7105,
      "orType": 7106,
      "espace": 7107,
      "ĊĠĠĠĠĠĠĠĠĠĠĠĠĠĠ": 7108,
      "sey": 7109,
      "sent": 7110,
      "enu": 7111,
      "encode": 7112,
      "enated": 7113,
      "enom": 7114,
      "ended": 7115,
      "Ġtens": 7116,
      "Ġtake": 7117,
      "Ġtraceback": 7118,
      "Ġtrello": 7119,
      "Ġtiktoken": 7120,
      "Ġtlds": 7121,
      "Ġteach": 7122,
      "Ġtyper": 7123,
      "Ġ\":": 7124,
      "Ġ\"<": 7125,
      "Ġ\">>>": 7126,
      "Ġam": 7127,
      "Ġadapt": 7128,
      "Ġamount": 7129,
      "stand": 7130,
      "stmt": 7131,
      "stops": 7132,
      "stretch": 7133,
      "arc": 7134,
      "arp": 7135,
      "arge": 7136,
      "arische": 7137,
      "arrange": 7138,
      "arColumn": 7139,
      "alt": 7140,
      "aling": 7141,
      "alische": 7142,
      "align": 7143,
      "alves": 7144,
      "algorithm": 7145,
      "always": 7146,
      "repe": 7147,
      "repl": 7148,
      "retention": 7149,
      "replacing": 7150,
      "dem": 7151,
      "demo": 7152,
      "deps": 7153,
      "decode": 7154,
      "decor": 7155,
      "ĠĠĠĠĠĠĠĠĠ": 7156,
      "Ġill": 7157,
      "leav": 7158,
      "roll": 7159,
      "round": 7160,
      "Ġcert": 7161,
      "Ġcir": 7162,
      "Ġcaching": 7163,
      "Ġcategory": 7164,
      "Ġcirc": 7165,
      "anat": 7166,
      "anger": 7167,
      "anonym": 7168,
      "ctime": 7169,
      "ctools": 7170,
      "Ġfr": 7171,
      "Ġfine": 7172,
      "Ġfai": 7173,
      "Ġfoc": 7174,
      "Ġfear": 7175,
      "Ġfdiv": 7176,
      "Ġfrequency": 7177,
      "Ġfurnished": 7178,
      "itespace": 7179,
      "\",\"": 7180,
      "Ġpd": 7181,
      "Ġpin": 7182,
      "Ġput": 7183,
      "Ġpand": 7184,
      "Ġpow": 7185,
      "Ġpay": 7186,
      "Ġpress": 7187,
      "Ġprior": 7188,
      "Ġpop": 7189,
      "Ġpair": 7190,
      "Ġpie": 7191,
      "Ġspe": 7192,
      "Ġsure": 7193,
      "Ġsync": 7194,
      "Ġspeci": 7195,
      "Ġscen": 7196,
      "Ġsgpt": 7197,
      "Ġsleep": 7198,
      "Ġsmall": 7199,
      "Ġsoft": 7200,
      "Ġsuspend": 7201,
      "uthor": 7202,
      "Ġma": 7203,
      "Ġmd": 7204,
      "Ġmus": 7205,
      "Ġmemb": 7206,
      "Ġmachine": 7207,
      "Ġmixed": 7208,
      "Ġmuch": 7209,
      "Ġmonth": 7210,
      "exist": 7211,
      "excl": 7212,
      "ental": 7213,
      "ented": 7214,
      "entest": 7215,
      "entation": 7216,
      "entence": 7217,
      "entry": 7218,
      "entries": 7219,
      "Ġinfix": 7220,
      "Ġinference": 7221,
      "Ġinvoke": 7222,
      "older": 7223,
      "Ġbas": 7224,
      "Ġbbox": 7225,
      "Ġballs": 7226,
      "Ġbijection": 7227,
      "urations": 7228,
      "urces": 7229,
      "edError": 7230,
      "ssische": 7231,
      "Ġoper": 7232,
      "Ġopacity": 7233,
      "Ġoperation": 7234,
      "chart": 7235,
      "chische": 7236,
      "chroma": 7237,
      "raeli": 7238,
      "orty": 7239,
      "ides": 7240,
      "idation": 7241,
      "Ġnice": 7242,
      "Ġwiz": 7243,
      "Ġweek": 7244,
      "lag": 7245,
      "lause": 7246,
      "lazy": 7247,
      "ceil": 7248,
      "cewise": 7249,
      "units": 7250,
      "unday": 7251,
      "unexpected": 7252,
      "unlp": 7253,
      "Ġ',": 7254,
      "Ġ'--": 7255,
      "Ġ'</": 7256,
      "Ġ'-----": 7257,
      "()]": 7258,
      "()}": 7259,
      "()[-": 7260,
      "Ġreal": 7261,
      "Ġrepres": 7262,
      "Ġreplacing": 7263,
      "Ġrecord": 7264,
      "atever": 7265,
      "ummar": 7266,
      "umference": 7267,
      "reserved": 7268,
      "resolved": 7269,
      "ptures": 7270,
      "Ġdes": 7271,
      "Ġdid": 7272,
      "Ġdri": 7273,
      "Ġdump": 7274,
      "Ġdeselect": 7275,
      "Ġdenom": 7276,
      "loor": 7277,
      "lookup": 7278,
      "Ġ(.": 7279,
      "maked": 7280,
      "master": 7281,
      "etProvider": 7282,
      "etration": 7283,
      "Ġstuff": 7284,
      "Ġstud": 7285,
      "added": 7286,
      "Ġvs": 7287,
      "Ġvertex": 7288,
      "Ġvcr": 7289,
      "Ġvertical": 7290,
      "ctionari": 7291,
      "ckpt": 7292,
      "ulate": 7293,
      "isc": 7294,
      "Ġtoo": 7295,
      "Ġtogether": 7296,
      "Ġanal": 7297,
      "Ġannotator": 7298,
      "ĠTex": 7299,
      "ĠTime": 7300,
      "ĠTotal": 7301,
      "ĠTable": 7302,
      "ĠTORT": 7303,
      "ĠTABLE": 7304,
      "ĠTrello": 7305,
      "ĠTwitter": 7306,
      "ĠTasse": 7307,
      "ĠTypedDict": 7308,
      "proxies": 7309,
      "Ġimporter": 7310,
      "iling": 7311,
      "Ġ[[": 7312,
      "Ġ[{": 7313,
      "Ġ[%(": 7314,
      "Ġ\"\"\"<": 7315,
      "imate": 7316,
      "imental": 7317,
      "cheke": 7318,
      "think": 7319,
      "threads": 7320,
      "ational": 7321,
      "Ġeager": 7322,
      "Ġemail": 7323,
      "Ġemails": 7324,
      "__)": 7325,
      "__')": 7326,
      "__).": 7327,
      "ĠSo": 7328,
      "ĠSort": 7329,
      "ĠSho": 7330,
      "ĠSub": 7331,
      "ĠSpace": 7332,
      "ĠSom": 7333,
      "ĠSMALL": 7334,
      "ĠSDK": 7335,
      "ĠSVR": 7336,
      "ĠScanner": 7337,
      "ĠSpinner": 7338,
      "ĠSentence": 7339,
      "ĠScheke": 7340,
      "ĠAt": 7341,
      "ĠAssert": 7342,
      "ĠAri": 7343,
      "ĠAnot": 7344,
      "ĠAvailable": 7345,
      "ĠACTION": 7346,
      "ĠAudio": 7347,
      "ĠAuxiliary": 7348,
      "ĠASWBXML": 7349,
      "Ġ115": 7350,
      "Ġ190": 7351,
      "versed": 7352,
      "ups": 7353,
      "Ġofc": 7354,
      "(\"{": 7355,
      "come": 7356,
      "complet": 7357,
      "complete": 7358,
      "argmin": 7359,
      "intain": 7360,
      "Ġrespect": 7361,
      "Ġrespons": 7362,
      "Ġ#:": 7363,
      "dictions": 7364,
      "Ġlr": 7365,
      "Ġless": 7366,
      "Ġlarge": 7367,
      "\"]})": 7368,
      "tral": 7369,
      "trie": 7370,
      "ather": 7371,
      "Ġbeen": 7372,
      "apscheduler": 7373,
      "asure": 7374,
      "asarray": 7375,
      "asctime": 7376,
      "Ġask": 7377,
      "Ġstrict": 7378,
      "\")],": 7379,
      "mocker": 7380,
      "modifi": 7381,
      "tests": 7382,
      "ontentPartImageParam": 7383,
      "series": 7384,
      "Ġarchitecture": 7385,
      "alling": 7386,
      "ĠColor": 7387,
      "ĠCON": 7388,
      "ĠCFA": 7389,
      "ĠCOP": 7390,
      "ĠClear": 7391,
      "ĠCONT": 7392,
      "ĠCandlepin": 7393,
      "ĠCurr": 7394,
      "ĠCLAI": 7395,
      "ĠCNN": 7396,
      "ĠClause": 7397,
      "ĠContentPartImageParam": 7398,
      "ĠFound": 7399,
      "ĠFear": 7400,
      "ĠFile": 7401,
      "ĠFRO": 7402,
      "ĠField": 7403,
      "ĠFORMAT": 7404,
      "ĠFallback": 7405,
      "ĠFactory": 7406,
      "ĠFITNESS": 7407,
      "ĠFoot": 7408,
      "penalty": 7409,
      "strides": 7410,
      "andische": 7411,
      "Ġcost": 7412,
      "Ġcoding": 7413,
      "Ġcould": 7414,
      "Ġcoins": 7415,
      "Ġcoercions": 7416,
      "amb": 7417,
      "ambische": 7418,
      "Ġthread": 7419,
      "Ġthree": 7420,
      "Ġthickness": 7421,
      "ineAn": 7422,
      "Ġ27": 7423,
      "Ġ215": 7424,
      "Ġ240": 7425,
      "Ġ201": 7426,
      "Ġ265": 7427,
      "Ġratio": 7428,
      "ems": 7429,
      "],[": 7430,
      "')],": 7431,
      "')]),": 7432,
      "ĠRel": 7433,
      "ĠRub": 7434,
      "ĠRES": 7435,
      "ĠRaise": 7436,
      "ĠRemote": 7437,
      "ĠROUND": 7438,
      "rics": 7439,
      "lyKmeans": 7440,
      "show": 7441,
      "shuffle": 7442,
      "should": 7443,
      "abase": 7444,
      "ables": 7445,
      "003": 7446,
      "006": 7447,
      "textfont": 7448,
      "ewport": 7449,
      "classes": 7450,
      "conv": 7451,
      "Ġconci": 7452,
      "Ġconversion": 7453,
      "Ġconsum": 7454,
      "Ġconcat": 7455,
      "Ġexper": 7456,
      "ĠPang": 7457,
      "ĠPrint": 7458,
      "ĠPRO": 7459,
      "ĠPermission": 7460,
      "ĠMissing": 7461,
      "ĠMCP": 7462,
      "ĠManat": 7463,
      "Ġtexts": 7464,
      "ĠIPs": 7465,
      "icFake": 7466,
      "('\"": 7467,
      "('*'": 7468,
      "airo": 7469,
      "Changer": 7470,
      "usive": 7471,
      "Ġord": 7472,
      "ĠOmit": 7473,
      "Ġ(\"{{": 7474,
      "daxes": 7475,
      "Ġprop": 7476,
      "Ġproport": 7477,
      "Ġprogress": 7478,
      "Ġprojection": 7479,
      "))],": 7480,
      "=\"[": 7481,
      "=\"\",": 7482,
      "kwarg": 7483,
      "Ġdirt": 7484,
      "Ġdisent": 7485,
      "Ġdictionari": 7486,
      "ĠDon": 7487,
      "ĠDRO": 7488,
      "ĠDir": 7489,
      "ĠDuration": 7490,
      "ĠDOM": 7491,
      "ĠDAM": 7492,
      "ĠDOOMSDAY": 7493,
      "marked": 7494,
      "Ġlow": 7495,
      "Ġlookup": 7496,
      "Ġseasonal": 7497,
      "rowTip": 7498,
      "uba": 7499,
      "uble": 7500,
      "Ġdec": 7501,
      "Ġdev": 7502,
      "Ġdemo": 7503,
      "Ġdequeue": 7504,
      "Ġdetection": 7505,
      "angling": 7506,
      "ĠLangGraphClient": 7507,
      "ĠLGB": 7508,
      "ĠLIMIT": 7509,
      "Ġ:,": 7510,
      "Ġ:\",": 7511,
      "Ġ:],": 7512,
      "Ġ:)\"": 7513,
      "Styles": 7514,
      "Ġlists": 7515,
      "Ġfontsize": 7516,
      "versal": 7517,
      "artile": 7518,
      "notes": 7519,
      "notation": 7520,
      "lengs": 7521,
      "teWBXML": 7522,
      "Ġgo": 7523,
      "Ġgpt": 7524,
      "Ġgoogle": 7525,
      "Ġghost": 7526,
      "pector": 7527,
      "ĠVersion": 7528,
      "ĠVertical": 7529,
      "ĠVFadeOut": 7530,
      "Ġappend": 7531,
      "Ġ32": 7532,
      "oreanische": 7533,
      "ÐłÐĭ": 7534,
      "NGL": 7535,
      "Ġpyweb": 7536,
      "ators": 7537,
      "ĠEns": 7538,
      "ĠEuler": 7539,
      "ĠEXP": 7540,
      "ĠEVENT": 7541,
      "Ġenqueue": 7542,
      "Ġencode": 7543,
      "ERVED": 7544,
      "ister": 7545,
      "istic": 7546,
      "vides": 7547,
      "mentum": 7548,
      "httpx": 7549,
      "Instruct": 7550,
      "Intern": 7551,
      "clerView": 7552,
      "Ġha": 7553,
      "Ġhash": 7554,
      "Ġhandler": 7555,
      "dicts": 7556,
      "mmy": 7557,
      "ityDict": 7558,
      "Ġparsed": 7559,
      "Ġ400": 7560,
      "ariadb": 7561,
      "Ġshows": 7562,
      "Ġshown": 7563,
      "Ġuseful": 7564,
      "ORIGIN": 7565,
      "cyclerView": 7566,
      "Ġattempt": 7567,
      "nealing": 7568,
      "Ġshlex": 7569,
      "Ġ{\"--": 7570,
      "Ġ{\"*\":": 7571,
      "Ġ///": 7572,
      "Ġmoon": 7573,
      "Ġmoving": 7574,
      "Ġmomentum": 7575,
      "Ġwhat": 7576,
      "Ð²ÐĤÐİ": 7577,
      "ĠBody": 7578,
      "ĠBadMapping": 7579,
      "ĠBuilder": 7580,
      "ĠBleh": 7581,
      "ĠBarColumn": 7582,
      "compile": 7583,
      "compose": 7584,
      "compression": 7585,
      "compiled": 7586,
      "headAt": 7587,
      "headless": 7588,
      "Ġintentional": 7589,
      "viewport": 7590,
      "Ġgets": 7591,
      "mptChoice": 7592,
      "CHAT": 7593,
      "CHOO": 7594,
      "take": 7595,
      "Ġouter": 7596,
      "Ġoutside": 7597,
      "ports": 7598,
      "Ġonline": 7599,
      "ĠonContent": 7600,
      "optimal": 7601,
      "rainische": 7602,
      "ĠUSE": 7603,
      "ĠUsed": 7604,
      "ĠUUID": 7605,
      "ARRO": 7606,
      "AREST": 7607,
      "pytestmark": 7608,
      "Ġunrolled": 7609,
      "obj": 7610,
      "obs": 7611,
      "masked": 7612,
      "animate": 7613,
      "animations": 7614,
      "TypeAn": 7615,
      "Ġlinewidth": 7616,
      "Ġradius": 7617,
      "='''": 7618,
      "='{\"": 7619,
      "='.+": 7620,
      "='-|": 7621,
      "ugify": 7622,
      "ĠNew": 7623,
      "ĠNumbers": 7624,
      "ĠNote": 7625,
      "ĠNAS": 7626,
      "inputs": 7627,
      "Ġmetrics": 7628,
      "Ġcompose": 7629,
      "Ġcomputed": 7630,
      "Ġcompiles": 7631,
      "Ġcomponent": 7632,
      "Ġ]:": 7633,
      "graphing": 7634,
      "ĠWon": 7635,
      "ĠWHE": 7636,
      "ĠWhether": 7637,
      "ĠWrapper": 7638,
      "Ġtoolset": 7639,
      "DEPL": 7640,
      "DEGRE": 7641,
      "DESCR": 7642,
      "Ġ<|": 7643,
      "Ġcancel": 7644,
      "configured": 7645,
      "''')": 7646,
      "LETE": 7647,
      "Ġspecifier": 7648,
      "ULL": 7649,
      "axes": 7650,
      "acha": 7651,
      "without": 7652,
      "THOU": 7653,
      "Ġaxs": 7654,
      "fontsize": 7655,
      "})\\": 7656,
      "})\")": 7657,
      "Ġresolution": 7658,
      "([],": 7659,
      "captures": 7660,
      "ALTER": 7661,
      "ALINGS": 7662,
      "ALGOR": 7663,
      "overweight": 7664,
      "overrides": 7665,
      "']),": 7666,
      "']}\")": 7667,
      "IND": 7668,
      "INST": 7669,
      "INVAL": 7670,
      "INEAR": 7671,
      "INPUT": 7672,
      "pred": 7673,
      "prevent": 7674,
      "previous": 7675,
      "projections": 7676,
      "escribe": 7677,
      "CTOR": 7678,
      "CTRL": 7679,
      "Recurs": 7680,
      "Refusal": 7681,
      "RecyclerView": 7682,
      "ĠsetUp": 7683,
      "Ġtorchvision": 7684,
      "Constraint": 7685,
      "matplotlib": 7686,
      "matmul": 7687,
      "Ġprep": 7688,
      "Ġpreced": 7689,
      "Ġprevious": 7690,
      "Ġpredictions": 7691,
      "Ġdoing": 7692,
      "Ġdouble": 7693,
      "((-": 7694,
      "((.": 7695,
      "logbase": 7696,
      "logprobs": 7697,
      "structures": 7698,
      "ENCE": 7699,
      "FACTOR": 7700,
      "Parse": 7701,
      "Paris": 7702,
      "SETT": 7703,
      "plain": 7704,
      "Ġ600": 7705,
      "Cohere": 7706,
      "Complex": 7707,
      "Ġitemstyle": 7708,
      "InputTokenDetails": 7709,
      "EDGE": 7710,
      "Ġlearn": 7711,
      "Ġleave": 7712,
      "())[": 7713,
      "ToUrl": 7714,
      "Tommy": 7715,
      "Ġadds": 7716,
      "Ġsubsample": 7717,
      "Ġweighted": 7718,
      "based": 7719,
      "clean": 7720,
      "Ġcause": 7721,
      "Ġstarts": 7722,
      "tokenize": 7723,
      "1001": 7724,
      "dirname": 7725,
      "dirty": 7726,
      "Ġkm": 7727,
      "Ð²ÐĤÑļ": 7728,
      "Ð²ÐĤÑĽ": 7729,
      "Device": 7730,
      "condition": 7731,
      "conditional": 7732,
      "DASH": 7733,
      "Project": 7734,
      "Profile": 7735,
      "anyio": 7736,
      "directory": 7737,
      "Ġ...]": 7738,
      "120": 7739,
      "matching": 7740,
      "runs": 7741,
      "runner": 7742,
      "Ġ72": 7743,
      "Ġ75": 7744,
      "ĠTestPolygonZone": 7745,
      "ĠTestModels": 7746,
      "ĠTestOptim": 7747,
      "projects": 7748,
      "projectDir": 7749,
      "ĠCount": 7750,
      "Ġcontained": 7751,
      "Ġcontainers": 7752,
      "}\"')": 7753,
      "help": 7754,
      "ĠExit": 7755,
      "ĠExponentialBackoff": 7756,
      "Ġindexing": 7757,
      "locations": 7758,
      "ĠValidation": 7759,
      "labels": 7760,
      "BaseScanner": 7761,
      "forward": 7762,
      "ĠHow": 7763,
      "ĠHOLD": 7764,
      "ITIES": 7765,
      "[:-": 7766,
      "[::": 7767,
      "Angle": 7768,
      "LLM": 7769,
      "Ġtypedb": 7770,
      "reductions": 7771,
      "Ġplaying": 7772,
      "Ġsvr": 7773,
      "underweight": 7774,
      "Ġfilepath": 7775,
      "Select": 7776,
      "Searx": 7777,
      "ĠIndicate": 7778,
      "arrowstyle": 7779,
      "=[[": 7780,
      "submit": 7781,
      "subsample": 7782,
      "Ġmarks": 7783,
      "Ġintegration": 7784,
      "Ċĉĉĉĉĉĉĉ": 7785,
      "509": 7786,
      "Args": 7787,
      "Meta": 7788,
      "does": 7789,
      "docker": 7790,
      "Ġstatistic": 7791,
      "\"}],": 7792,
      "\"}')]),": 7793,
      "ATE": 7794,
      "ĠQuer": 7795,
      "Ġlax": 7796,
      "Ġusually": 7797,
      "Ġchecking": 7798,
      "Ġcheckpoint": 7799,
      "Ġmaximum": 7800,
      "boxstyle": 7801,
      "ĠKIND": 7802,
      "ĠAgentExecution": 7803,
      "Ġlands": 7804,
      "Ġlanguage": 7805,
      "ĠProject": 7806,
      "ĠProblem": 7807,
      "âĢľ\",": 7808,
      "ĊĠĠĠĠĠĠĠĠĠĠĠĠĠĠĠĠĠĠĠĠĠĠĠĠĠĠĠĠĠĠĠĠĠĠĠĠĠĠĠĠĠ": 7809,
      "ĊĠĠĠĠĠĠĠĠĠĠĠĠĠĠĠĠĠĠĠĠĠĠĠĠĠĠĠĠĠĠĠĠĠĠĠĠĠĠĠĠĠĠĠĠ": 7810,
      "ChatCompletionChunk": 7811,
      "optimized": 7812,
      "noend": 7813,
      "dicated": 7814,
      "httpserver": 7815,
      "Ġplatforms": 7816,
      "batches": 7817,
      "iki": 7818,
      "Â¬\",": 7819,
      "ĠTextLine": 7820,
      "ĠTextColumn": 7821,
      "ĠTextAlign": 7822,
      "ĠAsyncIter": 7823,
      "ĠBaseScanner": 7824,
      "ĠBaseRequester": 7825,
      "ĠOpenAIEmbeddings": 7826,
      "Ġstatics": 7827,
      "AND": 7828,
      "DOOMSDAY": 7829,
      "DOWN": 7830,
      "ccessResult": 7831,
      "dispose": 7832,
      "Ġfigure": 7833,
      "Ġfigsize": 7834,
      "Ġfigwidth": 7835,
      "elements": 7836,
      "Ġcallable": 7837,
      "Ġsaved": 7838,
      "Ġsafety": 7839,
      "ĠArgument": 7840,
      "ĠArchitecture": 7841,
      "ĠArrowTip": 7842,
      "ĠReference": 7843,
      "ĠReason": 7844,
      "Ġmocked": 7845,
      "ISING": 7846,
      "before": 7847,
      "okUp": 7848,
      "Ġchanged": 7849,
      "MARIAD": 7850,
      "ROBO": 7851,
      "ROKE": 7852,
      "ROOT": 7853,
      "SchemaItem": 7854,
      "Ġusername": 7855,
      "levelname": 7856,
      "Ġseries": 7857,
      "Ġserialize": 7858,
      "Ġsqlmodel": 7859,
      "ĠSchemaConst": 7860,
      "ĠItems": 7861,
      "Ġunderweight": 7862,
      "clickable": 7863,
      "GraphGL": 7864,
      "STRA": 7865,
      "STROKE": 7866,
      "splitlines": 7867,
      "Ġ\"\".": 7868,
      "Ġassigned": 7869,
      "Ġinitiate": 7870,
      "Ġanything": 7871,
      "ĠangleB": 7872,
      "internet": 7873,
      "interaction": 7874,
      "Ġ//=": 7875,
      "LineStyle": 7876,
      "LineJoint": 7877,
      "PENGL": 7878,
      "RACT": 7879,
      "culate": 7880,
      "Ġcorner": 7881,
      "Ġcols": 7882,
      "Ġvisual": 7883,
      "transforms": 7884,
      "ĠImageFile": 7885,
      "Detection": 7886,
      "English": 7887,
      "}.{}'": 7888,
      "Ġroles": 7889,
      "Ġacronym": 7890,
      "Ġaccum": 7891,
      "ĠSyncTh": 7892,
      "ĠSyncHttp": 7893,
      "ĠSyncStore": 7894,
      "ĠSyncAssistantsClient": 7895,
      "ĠSyncCronClient": 7896,
      "ĠSyncRunsClient": 7897,
      "transFig": 7898,
      "ĠResponseFunction": 7899,
      "ĠResponseContainer": 7900,
      "RequestError": 7901,
      "ĠChatResult": 7902,
      "Ġfilenames": 7903,
      "BOS": 7904,
      "BOXES": 7905,
      "green": 7906,
      "greedy": 7907,
      "pped": 7908,
      "prints": 7909,
      "Ġplaced": 7910,
      "Ġmeasure": 7911,
      "Ġmargins": 7912,
      "Ġready": 7913,
      "Ġreader": 7914,
      "ĠDelete": 7915,
      "405": 7916,
      "DataParallel": 7917,
      "RESS": 7918,
      "REFER": 7919,
      "irs": 7920,
      "ourChanger": 7921,
      "success": 7922,
      "(\"/\"": 7923,
      "ĠPydantic": 7924,
      "ĠINCLU": 7925,
      "ĠDEG": 7926,
      "ĠDEALINGS": 7927,
      "Ġseparate": 7928,
      "angleB": 7929,
      "riteria": 7930,
      "Serialize": 7931,
      "UBIC": 7932,
      "Video": 7933,
      "\\.\\.": 7934,
      "astype": 7935,
      "bytree": 7936,
      "byteWBXML": 7937,
      "oseResult": 7938,
      "packed": 7939,
      "udische": 7940,
      "ĠYELL": 7941,
      "Ġadvance": 7942,
      "Ġadjac": 7943,
      "debugger": 7944,
      "ĠAUTHORS": 7945,
      "Ġdecorator": 7946,
      "Ġjoblib": 7947,
      "018": 7948,
      "Byte": 7949,
      "PLS": 7950,
      "PLING": 7951,
      "PLIED": 7952,
      "dataloader": 7953,
      "times": 7954,
      "ĠErrorHandler": 7955,
      "encyProvider": 7956,
      "Ġsavefig": 7957,
      "Ġbackend": 7958,
      "idsch": 7959,
      "ĠSQLCompiler": 7960,
      "ĠLineParser": 7961,
      "ĠViewport": 7962,
      "ĠNoBackoff": 7963,
      "ĠNoOpCredentials": 7964,
      "ArrowStyle": 7965,
      "POINTWISE": 7966,
      "EMENT": 7967,
      "IMAGE": 7968,
      "OfSamples": 7969,
      "Scroll": 7970,
      "weaviate": 7971,
      "Ġauthent": 7972,
      "Ġbetter": 7973,
      "Ġ({'": 7974,
      "Ġ({},": 7975,
      "ĠTOOL": 7976,
      "triggering": 7977,
      "postgres": 7978,
      "ERATOR": 7979,
      "Ġhelpful": 7980,
      "ĠJSONParser": 7981,
      "ChoiceDelta": 7982,
      "Nope": 7983,
      "NoOpCredentials": 7984,
      "\\\\.[": 7985,
      "\\\\.\\\\": 7986,
      "vectorized": 7987,
      "vectorstore": 7988,
      "Ġtransport": 7989,
      "uniform": 7990,
      "Ġtopk": 7991,
      "ĠSystemMessage": 7992,
      "Ġ165": 7993,
      "ĠLLMAPI": 7994,
      "Ġgoto": 7995,
      "InvalidRequestError": 7996,
      "ĠGetCoreSchema": 7997,
      "Ġallowed": 7998,
      "Ġallownone": 7999,
      "ĠCommandTesterFactory": 8000,
      "BoxLayout": 8001,
      "(*[": 8002,
      ".$$": 8003,
      "UnderFlowError": 8004,
      "graal": 8005,
      "Ġtrailing": 8006,
      "relu": 8007,
      "Ġcenter": 8008,
      "choice": 8009,
      "lishers": 8010,
      "Ġexpression": 8011,
      "Ġdepends": 8012,
      "RecycleDataViewBehavior": 8013,
      "Configuration": 8014,
      "Ġcorrectly": 8015,
      "supported": 8016,
      "ĠSearxSearchSchema": 8017,
      "'}),": 8018,
      "'}))": 8019,
      "0301": 8020,
      "180": 8021,
      "ADP": 8022,
      "ADR": 8023,
      "IsStr": 8024,
      "IsCalled": 8025,
      "Israeli": 8026,
      "NotFound": 8027,
      "NAMES": 8028,
      "cupyx": 8029,
      "qdrant": 8030,
      "ĠNONIN": 8031,
      "lastButton": 8032,
      "ĠAND": 8033,
      "-----\\": 8034,
      "ĠPFLDInference": 8035,
      "ĠPFLDLoss": 8036,
      "ĠDoomsday": 8037,
      "ĠLicensed": 8038,
      "Ġfixed": 8039,
      "ĠBMIcalculator": 8040,
      "ĠGraphGL": 8041,
      "1111": 8042,
      "FOUND": 8043,
      "OmitTypeAn": 8044,
      "SkillAdaptor": 8045,
      "SQLCompiler": 8046,
      "VEL": 8047,
      "WARNING": 8048,
      "eaders": 8049,
      "langchain": 8050,
      "tagr": 8051,
      "recursively": 8052,
      "routines": 8053,
      "Ġfuncsigs": 8054,
      "Ġfinishing": 8055,
      "Ġinfinite": 8056,
      "Ġworks": 8057,
      "Ġanimations": 8058,
      "ĠSelect": 8059,
      "Ġexceeds": 8060,
      "ĠLogData": 8061,
      "ĠElementsType": 8062,
      "ĠUsers": 8063,
      "ĠUserMessage": 8064,
      "ĠGeminiModel": 8065,
      "predicted": 8066,
      "Ġfiltered": 8067,
      "Ġcurrently": 8068,
      "Detail": 8069,
      "AMPLING": 8070,
      "CONTEXT": 8071,
      "CONFIG": 8072,
      "CONSTRA": 8073,
      "FunctionIsCalled": 8074,
      "NECTION": 8075,
      "NEAREST": 8076,
      "OutputTokenDetails": 8077,
      "PARSABLE": 8078,
      "}}@{{": 8079,
      "Ġentry": 8080,
      "Ġqualify": 8081,
      "Ġiterate": 8082,
      "Ġiterator": 8083,
      "Ġiterations": 8084,
      "Ġskip": 8085,
      "entityOptions": 8086,
      "Ġdisplay": 8087,
      "Ġdescrib": 8088,
      "ĠFadeIn": 8089,
      "ĠFadeTransform": 8090,
      "ĠFadeOut": 8091,
      "Ġcounted": 8092,
      "ÐłÐĨÐł": 8093,
      "ĠGenerate": 8094,
      "ĠConvertMixin": 8095,
      "ĠConvertWithShape": 8096,
      "SHIFT": 8097,
      "TIP": 8098,
      "VIDEO": 8099,
      "Ġ\".\"]": 8100,
      "Ġchoices": 8101,
      "Ġfactor": 8102,
      "Ġfactorial": 8103,
      "Ġpenalty": 8104,
      "Ġpenetration": 8105,
      "Ġ''')": 8106,
      "Ġ''').": 8107,
      "Ġreduce": 8108,
      "Ġregular": 8109,
      "respond": 8110,
      "extensions": 8111,
      "Ġverbos": 8112,
      "Ġvars": 8113,
      "ĠShaw": 8114,
      "ĠSharp": 8115,
      "\")])],": 8116,
      "ĠCSGO": 8117,
      "ĠOTHERWISE": 8118,
      "âĢ¡\",": 8119,
      "ĠLIABLE": 8120,
      "Ready": 8121,
      "ProcessorType": 8122,
      "ĠCompare": 8123,
      "ĠComposeResult": 8124,
      "ĠInitOpts": 8125,
      "stractBackoff": 8126,
      "ĠQualityDict": 8127,
      "ĠRecycleLayoutManagerBehavior": 8128,
      "ĠRecycleDataViewBehavior": 8129,
      "ĠHTTPServer": 8130,
      "Ġobtained": 8131,
      "Ġseleniumb": 8132,
      "Ġclicked": 8133,
      "ĠSpeedModifierExample": 8134,
      "Abort": 8135,
      "Abbre": 8136,
      "Checkpoint": 8137,
      "Dictionary": 8138,
      "MyMapping": 8139,
      "RKL": 8140,
      "equals": 8141,
      "typedb": 8142,
      "ĠZeroDivisionError": 8143,
      "registry": 8144,
      "Ġipv": 8145,
      "Ġpresence": 8146,
      "Ġ'{}.{}'": 8147,
      "Ġ([],": 8148,
      "Ġ([('": 8149,
      "ischer": 8150,
      "ĠTimeoutTypes": 8151,
      "ĠTracebackType": 8152,
      "ĠApplyKmeans": 8153,
      "Ġbehaviors": 8154,
      "moderately": 8155,
      "ĠColumnElement": 8156,
      "ĠMySQLIdentifierPreparer": 8157,
      "ĠIdentityOptions": 8158,
      "Ġlowercase": 8159,
      "ĠLeu": 8160,
      "Ġhandles": 8161,
      "Ġhandling": 8162,
      "percentile": 8163,
      "Ġ404": 8164,
      "ĠWhen": 8165,
      "ĠWhich": 8166,
      "ĠWARRANTIES": 8167,
      "Ġhttpserver": 8168,
      "Ġprefixes": 8169,
      "AnimationBuilder": 8170,
      "ĠRequester": 8171,
      "Ġvisitors": 8172,
      "supernet": 8173,
      "Ġfetching": 8174,
      "simplefilter": 8175,
      "ĠTypeAdapter": 8176,
      "ĠModelRetryBackoffSettings": 8177,
      "QUALITY": 8178,
      "QUALITIES": 8179,
      "ĠChoiceDeltaToolCallFunction": 8180,
      "Ġsimplefilter": 8181,
      "'[{": 8182,
      "(\",\")]": 8183,
      ".+')),": 8184,
      ";\"')": 8185,
      "Collection": 8186,
      "Embed": 8187,
      "Embedding": 8188,
      "GREEN": 8189,
      "HttpException": 8190,
      "IVES": 8191,
      "IVATE": 8192,
      "Keys": 8193,
      "LANGGRAPH": 8194,
      "PROVIDED": 8195,
      "PROMPT": 8196,
      "RendererType": 8197,
      "preser": 8198,
      "ĠÐłÐĨÐł": 8199,
      "Ġ'-':": 8200,
      "Ġreceives": 8201,
      "Ġreceived": 8202,
      "Ġvariable": 8203,
      "Ġvariables": 8204,
      "ĠScalars": 8205,
      "(\"-\"*": 8206,
      "ĠContext": 8207,
      "ĠCapStyleType": 8208,
      "ĠCapStyleVariants": 8209,
      "ĠRenderOpts": 8210,
      "ĠRoboflowInferenceModel": 8211,
      "Ġconstraints": 8212,
      "ĠLayouts": 8213,
      "ĠEnglish": 8214,
      "ĠEngland": 8215,
      "ĠUpdater": 8216,
      "ĠNotImplement": 8217,
      "Ġdomains": 8218,
      "Ġalbums": 8219,
      "ĠCompletions": 8220,
      "ĠCompletionUsage": 8221,
      "ĠCohereChatRequest": 8222,
      "ĠCoNLLParser": 8223,
      "ĠExcelParser": 8224,
      "forceAtlas": 8225,
      "containers": 8226,
      "ĠTextFileParser": 8227,
      "USERNAME": 8228,
      "ĠLineJointType": 8229,
      "ĠLineJointVariants": 8230,
      "IMITIVES": 8231,
      "ĠJSONLParser": 8232,
      "ĠCSVParser": 8233,
      "GRAPHGL": 8234,
      "ĠFastTextParser": 8235,
      "ExecutionContext": 8236,
      "]*(.*?": 8237,
      "AkA": 8238,
      "BNReLU": 8239,
      "MultiheadAt": 8240,
      "Nepali": 8241,
      "Printer": 8242,
      "SYSTEM": 8243,
      "Skipped": 8244,
      "Tracker": 8245,
      "bucket": 8246,
      "clauses": 8247,
      "faiss": 8248,
      "global": 8249,
      "hkunlp": 8250,
      "publishers": 8251,
      "ustration": 8252,
      "Ġurgent": 8253,
      "Ġsignatures": 8254,
      "Ġnetaddr": 8255,
      "Ġrecursion": 8256,
      "Ġdestination": 8257,
      "Ġstdin": 8258,
      "Ġstraddling": 8259,
      "adjustment": 8260,
      "ĠSHALL": 8261,
      "ĠARISING": 8262,
      "ĠAssistantMessage": 8263,
      "Ġlittle": 8264,
      "ĠColourChanger": 8265,
      "ĠRiyal": 8266,
      "ĠRegistry": 8267,
      "abstractmethod": 8268,
      "Ġexiting": 8269,
      "ĠPRIVATE": 8270,
      "Ġdetails": 8271,
      "ĠLookUp": 8272,
      "Starting": 8273,
      "ĠAnnotated": 8274,
      "Ġattach": 8275,
      "ĠNumberLine": 8276,
      "ĠNormalizer": 8277,
      "DETECTION": 8278,
      "Ġletters": 8279,
      "Ġsubmits": 8280,
      "ĠValueTracker": 8281,
      "ĠConvBNReLU": 8282,
      "ĠKeyError": 8283,
      "ĠKwacha": 8284,
      "Ġinterquartile": 8285,
      "Ġsuccessfully": 8286,
      "Ġ994": 8287,
      "Ġassumed": 8288,
      "Ġobservation": 8289,
      "Ġreflected": 8290,
      "Ġperformed": 8291,
      "SCALE": 8292,
      "Ġkeepdims": 8293,
      "Ġ'---------------------',": 8294,
      "Ð¡ÑĻÐ²ÐĤ": 8295,
      "wbxmlBody": 8296,
      "ĠBoxLayout": 8297,
      "AGES": 8298,
      "AssertFunctionIsCalled": 8299,
      "Arien": 8300,
      "ACCEL": 8301,
      "BindProcessorType": 8302,
      "BICUBIC": 8303,
      "BinaryExpression": 8304,
      "BILINEAR": 8305,
      "BlehItem": 8306,
      "CosineAn": 8307,
      "CPython": 8308,
      "CACHE": 8309,
      "Dialect": 8310,
      "DropConstraint": 8311,
      "EEK": 8312,
      "EPILOG": 8313,
      "FLOW": 8314,
      "Franc": 8315,
      "FUNCTION": 8316,
      "Friday": 8317,
      "FLOAT": 8318,
      "FRINGEMENT": 8319,
      "ITHMS": 8320,
      "Location": 8321,
      "MDEV": 8322,
      "MonkeyPatch": 8323,
      "MClassifier": 8324,
      "Numeric": 8325,
      "OYMENT": 8326,
      "PUNCT": 8327,
      "PUBLIC": 8328,
      "RUCTIONS": 8329,
      "Rusty": 8330,
      "RESAMPLING": 8331,
      "Supports": 8332,
      "ShellToolCall": 8333,
      "SIZE": 8334,
      "Tuesday": 8335,
      "VERB": 8336,
      "affee": 8337,
      "bitrary": 8338,
      "beta": 8339,
      "einer": 8340,
      "eetsPlugin": 8341,
      "evaluation": 8342,
      "fuzzy": 8343,
      "goto": 8344,
      "guides": 8345,
      "mrkl": 8346,
      "ngerin": 8347,
      "turbo": 8348,
      "uayische": 8349,
      "walking": 8350,
      "Ġquite": 8351,
      "aticPool": 8352,
      "algorithms": 8353,
      "repeat": 8354,
      "decorators": 8355,
      "Ġillustration": 8356,
      "leaves": 8357,
      "Ġcircle": 8358,
      "Ġcircumference": 8359,
      "anonymized": 8360,
      "Ġfailed": 8361,
      "Ġfocus": 8362,
      "Ġpandas": 8363,
      "Ġpower": 8364,
      "Ġpayload": 8365,
      "Ġpressing": 8366,
      "Ġpriorities": 8367,
      "Ġpopular": 8368,
      "Ġpairs": 8369,
      "Ġpiecewise": 8370,
      "Ġspec": 8371,
      "Ġscenes": 8372,
      "Ġsmaller": 8373,
      "Ġsoftmax": 8374,
      "Ġmusic": 8375,
      "Ġmembers": 8376,
      "existing": 8377,
      "exclusive": 8378,
      "entestgpt": 8379,
      "Ġbasically": 8380,
      "Ġoperator": 8381,
      "Ġnicegui": 8382,
      "Ġwizard": 8383,
      "Ġrepresented": 8384,
      "Ġdrivers": 8385,
      "makedirs": 8386,
      "Ġstudents": 8387,
      "Ġvcrpy": 8388,
      "Ġannotators": 8389,
      "thinking": 8390,
      "ĠShould": 8391,
      "ĠSubcommand": 8392,
      "ĠSpinnerColumn": 8393,
      "ĠSentenceTransformer": 8394,
      "ĠSchekel": 8395,
      "ĠAnother": 8396,
      "ĠAudioFile": 8397,
      "ĠAuxiliaryNet": 8398,
      "completed": 8399,
      "Ġresponsible": 8400,
      "modifiers": 8401,
      "ĠCONNECTION": 8402,
      "ĠCOPYRIGHT": 8403,
      "ĠCONTRACT": 8404,
      "ĠCLAIM": 8405,
      "ĠClauseElement": 8406,
      "ĠFoundation": 8407,
      "ĠFileNotFound": 8408,
      "ĠFROM": 8409,
      "ĠFooter": 8410,
      "Ġthreading": 8411,
      "ĠRubel": 8412,
      "ĠRESERVED": 8413,
      "ĠRemoteEmbeddings": 8414,
      "Ġconsumed": 8415,
      "Ġconcatenated": 8416,
      "ĠPango": 8417,
      "ĠPROVIDED": 8418,
      "ĠMCPToolChoice": 8419,
      "icFakeChatModel": 8420,
      "Ġproportion": 8421,
      "Ġdirty": 8422,
      "Ġdisentangling": 8423,
      "Ġdictionaries": 8424,
      "ĠDROP": 8425,
      "ĠDirham": 8426,
      "ĠDAMAGES": 8427,
      "ĠLGBMClassifier": 8428,
      "ĠLIMITED": 8429,
      "ĠVerticalScroll": 8430,
      "Ġpywebio": 8431,
      "ĠEnsure": 8432,
      "ĠEXPRESS": 8433,
      "Ġencoded": 8434,
      "nealingLR": 8435,
      "ĠBlehApp": 8436,
      "CHOOSE": 8437,
      "ĠonContentReady": 8438,
      "ARROW": 8439,
      "='-|>',": 8440,
      "ĠNASConfig": 8441,
      "ĠWHETHER": 8442,
      "DEPLOYMENT": 8443,
      "DEGREES": 8444,
      "DESCRIBE": 8445,
      "THOUGHT": 8446,
      "ALGORITHMS": 8447,
      "INSTRUCTIONS": 8448,
      "INVALID": 8449,
      "preventDefault": 8450,
      "Recursively": 8451,
      "Ġprecedence": 8452,
      "SETTINGS": 8453,
      "Complexity": 8454,
      "ToUrlEvent": 8455,
      "ĠTestOptimize": 8456,
      "ĠValidationError": 8457,
      "ĠHOLDERS": 8458,
      "ĠQuery": 8459,
      "ĠAsyncIterator": 8460,
      "ĠArgumentParser": 8461,
      "ĠArchitectureCheckpoint": 8462,
      "ĠReasoning": 8463,
      "MARIADB": 8464,
      "ROBOFLOW": 8465,
      "LineJointType": 8466,
      "Ġaccumulate": 8467,
      "ĠSyncThreadsClient": 8468,
      "ĠSyncHttpClient": 8469,
      "ĠSyncStoreClient": 8470,
      "transFigure": 8471,
      "ĠResponseFunctionShellToolCall": 8472,
      "ĠResponseContainerReference": 8473,
      "REFERENCE": 8474,
      "ĠINCLUDING": 8475,
      "ĠYELLOW": 8476,
      "Ġadjacent": 8477,
      "Ġauthentic": 8478,
      "ĠGetCoreSchemaHandler": 8479,
      "Israelische": 8480,
      "ĠNONINFRINGEMENT": 8481,
      "lastButtonText": 8482,
      "OmitTypeAnnotation": 8483,
      "CONSTRAINT": 8484,
      "ĠConvertWithShapeMixin": 8485,
      "Ġverbosity": 8486,
      "Ġseleniumbase": 8487,
      "Abbreviation": 8488,
      "Ġ'{}.{}'.": 8489,
      "ĠNotImplementedError": 8490,
      "MultiheadAttention": 8491,
      "ĠLookUpTable": 8492,
      "ACCELERATOR": 8493,
      "CosineAnnealingLR": 8494
    },
    "merges": [
      "Ġ Ġ",
      "ĠĠ ĠĠ",
      "ĠĠ Ġ",
      "Ċ ĠĠĠĠ",
      "o n",
      "e r",
      "i n",
      "ĊĠĠĠĠ ĠĠĠ",
      "Ċ ĠĠĠ",
      "a t",
      "o r",
      "e s",
      "ĊĠĠĠĠ ĠĠĠĠ",
      "s e",
      "e n",
      "Ġ t",
      "Ġ =",
      "Ġ \"",
      "Ġ a",
      "s t",
      "a r",
      "a l",
      "r e",
      "d e",
      "ĠĠĠĠ ĠĠĠĠ",
      "Ġ i",
      "h e",
      "ĊĠĠĠĠĠĠĠĠ ĠĠĠ",
      "l e",
      "i on",
      "r o",
      "Ġ c",
      "a n",
      "c t",
      "Ġ f",
      "i t",
      "m p",
      "\" ,",
      "g e",
      "se l",
      "sel f",
      "Ġ p",
      "Ġ s",
      "in g",
      "u t",
      "Ġ m",
      "e x",
      "en t",
      "Ġ in",
      "o l",
      "Ġ b",
      "u r",
      "e d",
      "ĠĠĠĠ ĠĠĠ",
      "es t",
      "\" \"",
      "s s",
      "- -",
      ") :",
      "Ġ o",
      "c h",
      "m e",
      "Ġt he",
      "r a",
      "p e",
      "or t",
      "i d",
      "Ġ n",
      "Ġ w",
      "l i",
      "o t",
      "de f",
      "l a",
      "c e",
      "Ċ ĊĠĠĠ",
      "u n",
      "Ġ '",
      "( )",
      "Ġ re",
      "at e",
      "Ġ self",
      "ĊĠĠĠĠĠĠĠĠ ĠĠĠĠĠĠĠĠ",
      "on e",
      "u e",
      "u m",
      "er t",
      "r es",
      "\" :",
      "on t",
      "ĊĠĠĠĠĠĠĠĠ ĠĠĠĠĠĠĠ",
      "p t",
      "Ġ d",
      "mp ort",
      "l o",
      "Ġ (",
      "m a",
      "f i",
      "Ð ł",
      "e t",
      "Ġ st",
      "a d",
      ") ,",
      "ex t",
      "Ġ v",
      "ur n",
      "ct ion",
      "ro m",
      "c k",
      "i z",
      "u l",
      "i s",
      "Ġt o",
      "Ġi s",
      "Ġ {",
      "Ġa n",
      "o de",
      "ĉ ĉ",
      "Ġi f",
      "Ġ T",
      "Ġ def",
      "p ro",
      "N one",
      "a me",
      "Ġi mport",
      "i l",
      "Ġ [",
      "es s",
      "Ġ\" \"\"",
      "i m",
      "Ġf or",
      "c he",
      "Ġ -",
      "t h",
      "Â °",
      "at ion",
      "t urn",
      "Ċ ĊĠĠĠĠĠĠĠ",
      "Ċ Ċ",
      "Ġ e",
      "_ _",
      "Ġ S",
      "Ġ A",
      "Ġ 1",
      "a ge",
      "v er",
      "at a",
      "ss ert",
      "f rom",
      "Ġ= =",
      "i g",
      "u p",
      "Ġo f",
      "( \"",
      "c o",
      "iz e",
      "h t",
      "Ġ None",
      "Ġre turn",
      "Ð Ĵ",
      "ar g",
      "in t",
      "y pe",
      "Ġ res",
      "Ġa ssert",
      "t o",
      "it h",
      "Ġ #",
      "Ġ )",
      "se t",
      "k e",
      "ge t",
      "e ct",
      ". _",
      "d i",
      "Ġ l",
      "ode l",
      "\" ]",
      "t r",
      "Ġ 0",
      "ul t",
      "at h",
      "Ġb e",
      "' ,",
      "a p",
      "a s",
      "Â ¤",
      "q u",
      "v i",
      "p ut",
      "t er",
      "v e",
      "-- --",
      "Ġa s",
      "Ġst r",
      "v al",
      "la ss",
      "\" )",
      "an ge",
      "ĊĠĠĠĠĠĠĠĠĠĠĠĠĠĠĠĠ ĠĠĠĠĠĠĠĠ",
      "Ġ _",
      "p ar",
      "p on",
      "[ \"",
      "m o",
      "t est",
      "ont ent",
      "Ġt est",
      "s er",
      "Ġan d",
      "Ġa r",
      "al l",
      "Ġ C",
      "Ġ F",
      "arg s",
      "p en",
      "st r",
      "r or",
      "an d",
      "p y",
      "Ġc o",
      "ĊĠĠĠĠĠĠĠĠĠĠĠĠĠĠĠĠ ĠĠĠ",
      "ol or",
      "a m",
      "n ame",
      "Ġt h",
      "in e",
      "Ġ 2",
      "Ġw ith",
      "Ġ r",
      "e m",
      "ess age",
      "a se",
      "at ch",
      "> >",
      "] ,",
      "pon se",
      "or m",
      "Ġn ot",
      "li st",
      "o ut",
      "' )",
      "Ġ R",
      "\" ),",
      "r i",
      "pt ion",
      "Ġv al",
      "ke y",
      "l y",
      "p ath",
      "s h",
      "a b",
      "j ect",
      "0 0",
      "ig ht",
      "' :",
      "m ar",
      "t ext",
      "e w",
      "} ,",
      "c lass",
      "h o",
      "st an",
      "c on",
      "t ype",
      "Ġc on",
      "Ġ ex",
      "mp le",
      "c ontent",
      "\"\" \"",
      "Ġar g",
      "Ġ *",
      "che ma",
      "Ġ P",
      "er s",
      "p o",
      "p ert",
      "Ġ M",
      "r ue",
      "Ġt ext",
      "Ġ I",
      "e l",
      "i c",
      "Ġ- >",
      "( '",
      "a i",
      "C h",
      "E r",
      "u s",
      "Ġ or",
      "Ġ O",
      "Ġ( \"",
      "d a",
      "fi le",
      "u re",
      "Ġp ro",
      "f orm",
      "Ċ ĉĉ",
      "Ġd ata",
      "d er",
      "Ġ @",
      "pert y",
      "i mport",
      "Er ror",
      "â Ģ",
      ") )",
      "d ing",
      "en s",
      "j s",
      "s ize",
      "Ġi t",
      "= \"",
      "g er",
      "b ject",
      "k w",
      "m odel",
      "Ġd i",
      "i p",
      "y n",
      "Ġ D",
      "mar k",
      "i me",
      "Ġ +",
      "s chema",
      "c i",
      "d ata",
      "o w",
      "Ġ lo",
      "a ck",
      "stan ce",
      "Ġ se",
      "ro w",
      "u b",
      "Ġ de",
      "al se",
      "an g",
      "Ġ L",
      "la y",
      "fi g",
      "o d",
      "Ġ :",
      "S t",
      "Ġ list",
      "Ġf ont",
      "ver s",
      "Ġres ult",
      "p h",
      "c al",
      "i f",
      "en d",
      "ar t",
      "um b",
      "Ġres ponse",
      "Ch ange",
      "m b",
      "u se",
      "e ight",
      "ur l",
      "q ue",
      "li ent",
      "l l",
      "kw args",
      "lo at",
      "r int",
      "et s",
      "h er",
      "o f",
      "Ġc olor",
      "n ot",
      "s k",
      "or d",
      "o c",
      "p s",
      "Ġc h",
      "val id",
      "l en",
      "id th",
      "p a",
      "y le",
      "lo w",
      "Ġl en",
      "t e",
      "Ġ g",
      "en ce",
      "Ġf rom",
      "ĠA n",
      "pe ct",
      "tr y",
      "Ġ V",
      ". .",
      "Ġa p",
      "an t",
      "ĊĠĠĠĠĠĠĠĠĠĠĠĠĠĠĠĠ ĠĠĠĠĠĠĠ",
      ">> >",
      "Ð ²",
      "Ġ 3",
      "or e",
      "Ðł Ð",
      "Ġ __",
      "Ġ >>>",
      "um ent",
      "is che",
      "N G",
      "a g",
      "c olor",
      "Ġp y",
      "ot al",
      "a in",
      "c re",
      "ĠS ets",
      "Ġstr ing",
      "js on",
      "at or",
      "pro perty",
      "l se",
      "¢ Ñ",
      "Ð ¢Ñ",
      "in stance",
      "pt im",
      "Ġe lse",
      "Ð¢Ñ Ĵ",
      "Ġ E",
      "Ġ en",
      "Ġb o",
      "Ġth at",
      "e p",
      "ĠT he",
      "E R",
      "i st",
      "t n",
      "v id",
      "Ġ x",
      "it ion",
      "Ġp rint",
      "T est",
      "] )",
      "Ġ },",
      "ra ction",
      "un t",
      "qu est",
      "da pt",
      "f o",
      "m ent",
      "ĠT rue",
      "que ue",
      "Ġm odel",
      "ht t",
      "val ue",
      "I n",
      "il l",
      "c l",
      "p l",
      "Ġ h",
      "it le",
      "ra y",
      "ra ph",
      "ul d",
      "di ct",
      "l es",
      "m essage",
      "p er",
      "Ġn p",
      "la b",
      "f a",
      "m m",
      "Ġf i",
      "it y",
      "Ġp ar",
      "ĊĠĠĠĠĠĠĠĠĠĠĠĠĠĠĠĠĠĠĠĠĠĠĠĠ ĠĠĠĠĠĠĠĠ",
      "yn c",
      "umb er",
      "a y",
      "Ġ 4",
      "y p",
      "ar i",
      "ĠR et",
      "in d",
      "st ate",
      "Ġs ho",
      "pe ed",
      "vid er",
      "o s",
      "Ġ use",
      "Ġ* *",
      "O R",
      "ĊĠĠĠĠĠĠĠĠĠĠĠĠĠĠĠĠĠĠĠĠĠĠĠĠ ĠĠĠĠĠĠĠ",
      "ad d",
      "to k",
      "ap p",
      "St ate",
      "dapt or",
      "c y",
      "Ġ at",
      "ed ding",
      "Ġ |",
      "n e",
      "Ġ }",
      "Ġc ont",
      "Ġs h",
      "Ġ{ \"",
      "Ġsho uld",
      "Ð Ĥ",
      "Ġ /",
      "ĠF alse",
      "Ġth is",
      "Ċĉĉ ĉĉ",
      ". \"\"\"",
      "an s",
      "Ġm o",
      "Ġw h",
      "un ction",
      "Ġlo g",
      "Ð² ÐĤ",
      "Ġ B",
      "er ror",
      "ma in",
      "co mp",
      "in it",
      "Ġt otal",
      "he ad",
      "Ġf loat",
      "Ġin t",
      "Ġv i",
      "vi ew",
      "b o",
      "ad ow",
      "urn s",
      "i es",
      "ĊĠĠĠĠĠĠĠĠ Ġ",
      "pe ci",
      "c all",
      "Ġ ----",
      "in fo",
      "de x",
      "N O",
      "Ġ get",
      "mp t",
      "-- -",
      "sh ot",
      "ab le",
      "peci fi",
      "1 0",
      "b ack",
      "t ime",
      "Ġm essage",
      "Ġdi ct",
      "mm and",
      "= =",
      "A daptor",
      "C H",
      "t a",
      "w eight",
      "w idth",
      "Ġo ut",
      "__ (",
      "mple t",
      "pect ed",
      "ĠRet urns",
      "p ort",
      "Ġ on",
      "ar e",
      "it em",
      "ma ge",
      "Ġpy test",
      "c ess",
      "i se",
      "o ptim",
      "Ð ¡",
      "ra in",
      "a it",
      "c ase",
      "i ck",
      "Ġ U",
      "st at",
      "A R",
      "u st",
      "ar ch",
      "Ġis instance",
      "co unt",
      "py test",
      "edding s",
      "( ):",
      "c ode",
      "Ġ un",
      "or ch",
      "Ġs up",
      "il y",
      "am ily",
      "o b",
      "p q",
      "li b",
      "ma sk",
      "qu er",
      "out put",
      "T rue",
      "u es",
      "Ġ z",
      "ar d",
      "an im",
      "ĊĠĠĠĠĠĠĠĠĠĠĠĠĠĠĠĠĠĠĠĠĠĠĠĠ ĠĠĠ",
      "Ġap p",
      "T ype",
      "a pe",
      "Ġ %",
      "Ġ j",
      "le ction",
      "Ġl ine",
      "vi de",
      "ag es",
      "Test Change",
      "i al",
      "l ine",
      "Ġ ra",
      "or y",
      "es c",
      "() .",
      "pro file",
      "mplet ion",
      "= '",
      "f f",
      "p i",
      "u g",
      "Ġ N",
      "in put",
      "ar ray",
      "re ct",
      "Ġm et",
      "res s",
      "O N",
      "Ġ `",
      "Ġco mp",
      "vers ion",
      "ĠAn y",
      "cre en",
      "P I",
      "o g",
      "s um",
      "Ġ ]",
      "at ed",
      "en v",
      "Ġt ype",
      "Ġ1 0",
      "up d",
      "quer y",
      ") .",
      "g raph",
      "t on",
      "Ġ W",
      "Ġp l",
      "un d",
      "Ġto ol",
      "pen d",
      "/ /",
      "a ult",
      "i ve",
      "m in",
      "Ġ key",
      "Ġb y",
      "th on",
      "D E",
      "c s",
      "Ġ <",
      "Ġc an",
      "ot ly",
      "ame ter",
      ": //",
      "p atch",
      "Ġ G",
      "in al",
      "re try",
      "Ġs ize",
      "ol d",
      "ch ang",
      "ess ages",
      "con fig",
      "ari ant",
      "' '",
      "A NG",
      "H T",
      "a c",
      "g ent",
      "n er",
      "Ġs um",
      "Ġo pen",
      "Ġn um",
      "un k",
      "ction s",
      "ation s",
      "L E",
      "a ss",
      "a mple",
      "u ser",
      "Ġs pecifi",
      "() ,",
      "mo ve",
      "ption s",
      "S S",
      "c en",
      "vers ation",
      "Ġ---- ---",
      "U L",
      "a x",
      "a ch",
      "d d",
      "g th",
      "r on",
      "w ith",
      "Ġ y",
      "Ġ ..",
      "Ġw ill",
      "as h",
      "Ġra ise",
      ": `",
      "T H",
      "d c",
      "o pen",
      "Ġ htt",
      "Ġa x",
      "Ġs o",
      "Ġo ver",
      "pa ce",
      "* *",
      "a ct",
      "e b",
      "f ont",
      "i b",
      "n um",
      "r it",
      "y les",
      "} )",
      "en er",
      "ar n",
      "le ct",
      "li f",
      "Ġres ol",
      "Ġr un",
      "cl u",
      "State Change",
      "Ġsup er",
      "( [",
      "V al",
      "c a",
      "o m",
      "u ct",
      "le d",
      "le ment",
      "ad ata",
      "up y",
      "mo bject",
      "po s",
      "A L",
      "d im",
      "g ro",
      "o ver",
      "ing s",
      "Ġo s",
      "Ġn ame",
      "lab le",
      "chang es",
      "' ]",
      "I N",
      "e g",
      "r y",
      "st yle",
      "Ġp ath",
      "ut e",
      "res h",
      "to ol",
      "vi ce",
      "po int",
      "form at",
      "yp es",
      "CH ANG",
      "CHANG E",
      "p re",
      "t s",
      "Ċ ĉ",
      "Ġt ime",
      "Ġc lass",
      "ut ton",
      "iz er",
      "pro j",
      "row ser",
      "Ġuse d",
      "Ġat tn",
      "esc ri",
      "Ġspecifi ed",
      "C T",
      "i x",
      "q l",
      "w ait",
      "Ġa ll",
      "Ġm in",
      "il s",
      "Ġex pected",
      "Val id",
      "R e",
      "T he",
      "f er",
      "s cal",
      "u al",
      "Ġ set",
      "Ġt orch",
      "Ġw ord",
      "res ponse",
      "Ġe mb",
      "Ġcon fig",
      "valid ate",
      "Ð¢ÑĴ ÐłÐ",
      "Ġen um",
      "ne ction",
      "Ġvi ew",
      "UL T",
      "n d",
      "Ġa re",
      "re turn",
      "par am",
      "C on",
      "l er",
      "m l",
      "m at",
      "s peed",
      "s pace",
      "v o",
      "Ġ ),",
      "Ġp re",
      "Ġd o",
      "fi x",
      "Ġst ate",
      "ck er",
      "ap pend",
      "( (",
      "a ve",
      "c lient",
      "me th",
      "lo g",
      "str uct",
      "ens or",
      "her e",
      "pos ition",
      "fer ence",
      "E N",
      "F A",
      "P ar",
      "S E",
      "e e",
      "i v",
      "m it",
      "p la",
      "Ċ ĊĠĠĠĠĠĠĠĠĠĠĠ",
      "Ġ .",
      "Ġ 5",
      "Ġ 6",
      "Ġ >",
      "Ġ ):",
      "re ate",
      "Ġc upy",
      "ce ption",
      "un c",
      "set ter",
      "Ġpro perty",
      "of f",
      "Ġbo ol",
      "tok ens",
      "Ġsh adow",
      "Ġenum er",
      "A I",
      "C o",
      "C lient",
      "g on",
      "s g",
      "w ord",
      "y gon",
      "Ġ kwargs",
      "at form",
      "Ġc all",
      "Ġf amily",
      "ol ygon",
      "Ġst yle",
      "th er",
      "ĠS t",
      "as k",
      "us age",
      "Ġit em",
      "ÐłÐ ĥ",
      "In put",
      "creen shot",
      "cen e",
      "E D",
      "M essage",
      "k en",
      "s v",
      "u le",
      "Ġ q",
      "Ġ le",
      "in k",
      "es ponse",
      "Ġa l",
      "st em",
      "re quest",
      "ro le",
      "Ġc ontent",
      "Ġn umber",
      "() )",
      "Ġpro vider",
      "oc ument",
      "< /",
      "T o",
      "d escri",
      "n umber",
      "r st",
      "v ai",
      "{ \"",
      "at er",
      "Ġa dd",
      "ar k",
      "Ġs ub",
      "Ġm ay",
      "ra me",
      "Ġw eight",
      "ma x",
      "im al",
      "ĠC h",
      "Ġlog ger",
      "vai lable",
      "E x",
      "b ase",
      "c le",
      "f loat",
      "g ress",
      "i mage",
      "o bject",
      "y stem",
      "ar y",
      "Ġc a",
      "Ġ' ''",
      "Ġst art",
      "mo d",
      "py thon",
      "Ġval id",
      "ab s",
      "tok en",
      "1 00",
      "t itle",
      "he ll",
      "Ġf unction",
      "di r",
      "em b",
      "orm al",
      "ri or",
      "Ġwh i",
      "item s",
      "ameter s",
      "FA ULT",
      "Ġ k",
      "Ġin put",
      "Ġn ew",
      "li c",
      "ce pt",
      "co m",
      "ect or",
      "par ent",
      "ens ion",
      "len gth",
      "low er",
      "ans form",
      "Ð²ÐĤ Ñ",
      "optim ize",
      "clu de",
      "D e",
      "t w",
      "t ick",
      "v ert",
      "in dex",
      "Ġb rowser",
      "id get",
      "Ġe lif",
      "ho d",
      "con d",
      "el d",
      "not ator",
      "pa c",
      "ca che",
      "rior ity",
      "D A",
      "P ro",
      "a ssert",
      "g s",
      "g ing",
      "an y",
      "ge x",
      "Ġp ass",
      "Ġw idth",
      "Ġ[ ]",
      "di rect",
      "ter n",
      "ri ver",
      "ption al",
      "Ġbo x",
      "ĊĠĠĠĠĠĠĠĠĠĠĠĠĠĠĠĠĠĠĠĠĠĠĠĠĠĠĠĠĠĠĠĠ ĠĠĠ",
      "head s",
      "mpt y",
      "Ġout put",
      "Ġ.. .",
      "Ð¢ÑĴÐłÐ Ĭ",
      "ĠSt ate",
      "' s",
[...]
