{
  "version": "1.0",
  "truncation": null,
  "padding": null,
  "added_tokens": [
    {
      "id": 0,
      "content": "<PAD>",
      "single_word": false,
      "lstrip": false,
      "rstrip": false,
      "normalized": false,
      "special": true
    },
    {
      "id": 1,
      "content": "<UNK>",
      "single_word": false,
      "lstrip": false,
      "rstrip": false,
      "normalized": false,
      "special": true
    },
    {
      "id": 2,
      "content": "<BOS>",
      "single_word": false,
      "lstrip": false,
      "rstrip": false,
      "normalized": false,
      "special": true
    },
    {
      "id": 3,
      "content": "<EOS>",
      "single_word": false,
      "lstrip": false,
      "rstrip": false,
      "normalized": false,
      "special": true
    }
  ],
  "normalizer": null,
  "pre_tokenizer": {
    "type": "ByteLevel",
    "add_prefix_space": false,
    "trim_offsets": true,
    "use_regex": true
  },
  "post_processor": {
    "type": "ByteLevel",
    "add_prefix_space": true,
    "trim_offsets": false,
    "use_regex": true
  },
  "decoder": {
    "type": "ByteLevel",
    "add_prefix_space": true,
    "trim_offsets": true,
    "use_regex": true
  },
  "model": {
    "type": "BPE",
    "dropout": null,
    "unk_token": null,
    "continuing_subword_prefix": null,
    "end_of_word_suffix": null,
    "fuse_unk": false,
    "byte_fallback": false,
    "ignore_merges": false,
    "vocab": {
      "<PAD>": 0,
      "<UNK>": 1,
      "<BOS>": 2,
      "<EOS>": 3,
      "!": 4,
      "\"": 5,
      "#": 6,
      "$": 7,
      "%": 8,
      "&": 9,
      "'": 10,
      "(": 11,
      ")": 12,
      "*": 13,
      "+": 14,
      ",": 15,
      "-": 16,
      ".": 17,
      "/": 18,
      "0": 19,
      "1": 20,
      "2": 21,
      "3": 22,
      "4": 23,
      "5": 24,
      "6": 25,
      "7": 26,
      "8": 27,
      "9": 28,
      ":": 29,
      ";": 30,
      "<": 31,
      "=": 32,
      ">": 33,
      "?": 34,
      "@": 35,
      "A": 36,
      "B": 37,
      "C": 38,
      "D": 39,
      "E": 40,
      "F": 41,
      "G": 42,
      "H": 43,
      "I": 44,
      "J": 45,
      "K": 46,
      "L": 47,
      "M": 48,
      "N": 49,
      "O": 50,
      "P": 51,
      "Q": 52,
      "R": 53,
      "S": 54,
      "T": 55,
      "U": 56,
      "V": 57,
      "W": 58,
      "X": 59,
      "Y": 60,
      "Z": 61,
      "[": 62,
      "\\": 63,
      "]": 64,
      "^": 65,
      "_": 66,
      "`": 67,
      "a": 68,
      "b": 69,
      "c": 70,
      "d": 71,
      "e": 72,
      "f": 73,
      "g": 74,
      "h": 75,
      "i": 76,
      "j": 77,
      "k": 78,
      "l": 79,
      "m": 80,
      "n": 81,
      "o": 82,
      "p": 83,
      "q": 84,
      "r": 85,
      "s": 86,
      "t": 87,
      "u": 88,
      "v": 89,
      "w": 90,
      "x": 91,
      "y": 92,
      "z": 93,
      "{": 94,
      "|": 95,
      "}": 96,
      "~": 97,
      "¡": 98,
      "¢": 99,
      "£": 100,
      "¤": 101,
      "¥": 102,
      "¦": 103,
      "§": 104,
      "¨": 105,
      "©": 106,
      "ª": 107,
      "«": 108,
      "¬": 109,
      "®": 110,
      "¯": 111,
      "°": 112,
      "±": 113,
      "²": 114,
      "³": 115,
      "´": 116,
      "µ": 117,
      "¶": 118,
      "·": 119,
      "¸": 120,
      "¹": 121,
      "º": 122,
      "»": 123,
      "¼": 124,
      "½": 125,
      "¾": 126,
      "¿": 127,
      "À": 128,
      "Á": 129,
      "Â": 130,
      "Ã": 131,
      "Ä": 132,
      "Å": 133,
      "Æ": 134,
      "Ç": 135,
      "È": 136,
      "É": 137,
      "Ê": 138,
      "Ë": 139,
      "Ì": 140,
      "Í": 141,
      "Î": 142,
      "Ï": 143,
      "Ð": 144,
      "Ñ": 145,
      "Ò": 146,
      "Ó": 147,
      "Ô": 148,
      "Õ": 149,
      "Ö": 150,
      "×": 151,
      "Ø": 152,
      "Ù": 153,
      "Ú": 154,
      "Û": 155,
      "Ü": 156,
      "Ý": 157,
      "Þ": 158,
      "ß": 159,
      "à": 160,
      "á": 161,
      "â": 162,
      "ã": 163,
      "ä": 164,
      "å": 165,
      "æ": 166,
      "ç": 167,
      "è": 168,
      "é": 169,
      "ê": 170,
      "ë": 171,
      "ì": 172,
      "í": 173,
      "î": 174,
      "ï": 175,
      "ð": 176,
      "ñ": 177,
      "ò": 178,
      "ó": 179,
      "ô": 180,
      "õ": 181,
      "ö": 182,
      "÷": 183,
      "ø": 184,
      "ù": 185,
      "ú": 186,
      "û": 187,
      "ü": 188,
      "ý": 189,
      "þ": 190,
      "ÿ": 191,
      "Ā": 192,
      "ā": 193,
      "Ă": 194,
      "ă": 195,
      "Ą": 196,
      "ą": 197,
      "Ć": 198,
      "ć": 199,
      "Ĉ": 200,
      "ĉ": 201,
      "Ċ": 202,
      "ċ": 203,
      "Č": 204,
      "č": 205,
      "Ď": 206,
      "ď": 207,
      "Đ": 208,
      "đ": 209,
      "Ē": 210,
      "ē": 211,
      "Ĕ": 212,
      "ĕ": 213,
      "Ė": 214,
      "ė": 215,
      "Ę": 216,
      "ę": 217,
      "Ě": 218,
      "ě": 219,
      "Ĝ": 220,
      "ĝ": 221,
      "Ğ": 222,
      "ğ": 223,
      "Ġ": 224,
      "ġ": 225,
      "Ģ": 226,
      "ģ": 227,
      "Ĥ": 228,
      "ĥ": 229,
      "Ħ": 230,
      "ħ": 231,
      "Ĩ": 232,
      "ĩ": 233,
      "Ī": 234,
      "ī": 235,
      "Ĭ": 236,
      "ĭ": 237,
      "Į": 238,
      "į": 239,
      "İ": 240,
      "ı": 241,
      "Ĳ": 242,
      "ĳ": 243,
      "Ĵ": 244,
      "ĵ": 245,
      "Ķ": 246,
      "ķ": 247,
      "ĸ": 248,
      "Ĺ": 249,
      "ĺ": 250,
      "Ļ": 251,
      "ļ": 252,
      "Ľ": 253,
      "ľ": 254,
      "Ŀ": 255,
      "ŀ": 256,
      "Ł": 257,
      "ł": 258,
      "Ń": 259,
      "ĠĠ": 260,
      "ĠĠĠĠ": 261,
      "ĠĠĠ": 262,
      "ĊĠĠĠĠ": 263,
      "se": 264,
      "ĊĠĠĠĠĠĠĠ": 265,
      "in": 266,
      "on": 267,
      "te": 268,
      "re": 269,
      "ĊĠĠĠ": 270,
      "ĊĠĠĠĠĠĠĠĠ": 271,
      "or": 272,
      "st": 273,
      "de": 274,
      "Ġ\"": 275,
      "at": 276,
      "Ġ=": 277,
      "le": 278,
      "Ġa": 279,
      "Ġt": 280,
      "er": 281,
      "al": 282,
      "en": 283,
      "Ġi": 284,
      "ar": 285,
      "ĊĠĠĠĠĠĠĠĠĠĠĠ": 286,
      "ro": 287,
      "Ðł": 288,
      "lf": 289,
      "he": 290,
      "self": 291,
      "Ġc": 292,
      "\",": 293,
      "an": 294,
      "ĠĠĠĠĠĠĠĠ": 295,
      "ion": 296,
      "me": 297,
      "Ġf": 298,
      "mp": 299,
      "it": 300,
      "Ġp": 301,
      "ct": 302,
      "ge": 303,
      "Ġre": 304,
      "Ġs": 305,
      "ur": 306,
      "ce": 307,
      "ing": 308,
      "Ġin": 309,
      "ut": 310,
      "Ġself": 311,
      "lo": 312,
      "as": 313,
      "ra": 314,
      "li": 315,
      "pe": 316,
      "Ġn": 317,
      "ĠĠĠĠĠĠĠ": 318,
      "âĢ": 319,
      "\"\"": 320,
      "ol": 321,
      "def": 322,
      "):": 323,
      "ue": 324,
      "--": 325,
      "Ġb": 326,
      "Ġthe": 327,
      "Ġo": 328,
      "ort": 329,
      "ent": 330,
      "di": 331,
      "Ġm": 332,
      "un": 333,
      "ĊĊĠĠĠ": 334,
      "ate": 335,
      "ser": 336,
      "fi": 337,
      "Ġe": 338,
      "Ġw": 339,
      "ch": 340,
      "mport": 341,
      "Ġ(": 342,
      "str": 343,
      "one": 344,
      "ĊĠĠĠĠĠĠĠĠĠĠĠĠĠĠĠ": 345,
      "()": 346,
      "ode": 347,
      "id": 348,
      "ck": 349,
      "ame": 350,
      "ĊĠĠĠĠĠĠĠĠĠĠĠĠĠĠĠĠ": 351,
      "rom": 352,
      "\":": 353,
      "urn": 354,
      "ter": 355,
      "turn": 356,
      "um": 357,
      "Ġas": 358,
      "),": 359,
      "val": 360,
      "Ġdef": 361,
      "Ġ'": 362,
      "ot": 363,
      "Ġif": 364,
      "xt": 365,
      "None": 366,
      "ss": 367,
      "la": 368,
      "ad": 369,
      "ul": 370,
      "ÐĴ": 371,
      "pt": 372,
      "ri": 373,
      "Ġto": 374,
      "Ġimport": 375,
      "Ġd": 376,
      "Ð²": 377,
      "ĠT": 378,
      "Ġis": 379,
      "ype": 380,
      "Ġ-": 381,
      "test": 382,
      "Ġ{": 383,
      "ation": 384,
      "Ġ\"\"\"": 385,
      "Ġreturn": 386,
      "age": 387,
      "__": 388,
      "ata": 389,
      "from": 390,
      "co": 391,
      "Ġfor": 392,
      "up": 393,
      "ĊĊĠĠĠĠĠĠĠ": 394,
      "ĠNone": 395,
      "get": 396,
      "(\"": 397,
      "Â°": 398,
      "il": 399,
      "ed": 400,
      "Ġan": 401,
      "Ġ[": 402,
      "th": 403,
      "ĠA": 404,
      "name": 405,
      "iz": 406,
      "con": 407,
      "ap": 408,
      "is": 409,
      "ĊĊ": 410,
      "ver": 411,
      "text": 412,
      "ÐĤ": 413,
      "el": 414,
      "nt": 415,
      "Ð²ÐĤ": 416,
      "\")": 417,
      "Ġ#": 418,
      "sp": 419,
      "Ġ1": 420,
      "gs": 421,
      "Ð¡": 422,
      "ÐłÐ": 423,
      "to": 424,
      "der": 425,
      "._": 426,
      "set": 427,
      "Ġof": 428,
      "sert": 429,
      "ult": 430,
      "pro": 431,
      "ve": 432,
      "ble": 433,
      "ath": 434,
      "Ġstr": 435,
      "ĠS": 436,
      "ass": 437,
      "ke": 438,
      "ith": 439,
      "Ġ)": 440,
      "Ġ==": 441,
      "ht": 442,
      "ase": 443,
      "',": 444,
      "cl": 445,
      "Ġcon": 446,
      "et": 447,
      "],": 448,
      "es": 449,
      "per": 450,
      "00": 451,
      "ction": 452,
      "ĠC": 453,
      "ti": 454,
      "and": 455,
      "put": 456,
      "Ġ0": 457,
      "ma": 458,
      "sc": 459,
      "odel": 460,
      "ption": 461,
      "----": 462,
      "int": 463,
      "Ġassert": 464,
      "ig": 465,
      "qu": 466,
      "tem": 467,
      "Âł": 468,
      "vi": 469,
      "ĊĠĠĠĠĠĠĠĠĠĠĠĠĠĠĠĠĠĠĠ": 470,
      "ror": 471,
      "type": 472,
      "py": 473,
      "Ġ_": 474,
      "value": 475,
      "am": 476,
      "\"]": 477,
      "Ġand": 478,
      "Re": 479,
      "Ġnot": 480,
      "Ġbe": 481,
      "list": 482,
      "ted": 483,
      "Ġ->": 484,
      "Ġth": 485,
      "all": 486,
      "ize": 487,
      "po": 488,
      "[\"": 489,
      "=\"": 490,
      "Ġar": 491,
      "lin": 492,
      "Ġex": 493,
      "args": 494,
      "od": 495,
      "oc": 496,
      "rue": 497,
      "par": 498,
      "Ġdi": 499,
      "ĠF": 500,
      "Ġst": 501,
      "mple": 502,
      "pen": 503,
      "Ġh": 504,
      "Ġor": 505,
      "ect": 506,
      "orm": 507,
      "Ġu": 508,
      "Ġtest": 509,
      "ty": 510,
      "Ġwith": 511,
      "ack": 512,
      "class": 513,
      "om": 514,
      "out": 515,
      "ĠP": 516,
      "ĊĠĠĠĠĠĠĠĠĠĠĠĠĠĠĠĠĠĠĠĠĠĠĠĠ": 517,
      "Ġ2": 518,
      "ex": 519,
      "sh": 520,
      "ure": 521,
      "im": 522,
      "path": 523,
      "Ġ*": 524,
      "Ġ@": 525,
      "fig": 526,
      "olor": 527,
      "ow": 528,
      "Ġg": 529,
      "ly": 530,
      "ĠI": 531,
      "ssage": 532,
      "Ġr": 533,
      "ÐłÑ": 534,
      "file": 535,
      "able": 536,
      "ance": 537,
      "ic": 538,
      "\"),": 539,
      "Ġpro": 540,
      "spon": 541,
      "))": 542,
      "Ġde": 543,
      "len": 544,
      "Ġlo": 545,
      "rror": 546,
      "data": 547,
      "Ġ`": 548,
      "key": 549,
      "Ġ+": 550,
      "import": 551,
      "Error": 552,
      "bj": 553,
      "che": 554,
      "ment": 555,
      "Ġse": 556,
      "\"\"\"": 557,
      "ĠM": 558,
      "},": 559,
      "nc": 560,
      "fo": 561,
      "sponse": 562,
      "')": 563,
      "alse": 564,
      "tr": 565,
      "':": 566,
      "ile": 567,
      "ub": 568,
      "mo": 569,
      "Ġme": 570,
      "que": 571,
      "ip": 572,
      "tent": 573,
      "ain": 574,
      "('": 575,
      "stance": 576,
      "Ġ(\"": 577,
      "ken": 578,
      "ont": 579,
      "ĠD": 580,
      "ctor": 581,
      "are": 582,
      "ĉĉ": 583,
      "sult": 584,
      "âĢľ": 585,
      "us": 586,
      "Ð²ÐĤÑ": 587,
      ">>": 588,
      "ĠO": 589,
      "Â¦": 590,
      "pec": 591,
      "ag": 592,
      "..": 593,
      "ll": 594,
      "ist": 595,
      "perty": 596,
      "Ġdata": 597,
      "ang": 598,
      "ise": 599,
      "Ġx": 600,
      "Ġfrom": 601,
      "ask": 602,
      "ĠL": 603,
      "form": 604,
      "Ġy": 605,
      "Ġtext": 606,
      "lient": 607,
      "atch": 608,
      "ync": 609,
      "ark": 610,
      "Ġco": 611,
      "ĠRe": 612,
      "kw": 613,
      "ange": 614,
      "ument": 615,
      "lay": 616,
      "Ġel": 617,
      "code": 618,
      "Ġsh": 619,
      "low": 620,
      "ai": 621,
      "mb": 622,
      "Ġen": 623,
      "size": 624,
      "line": 625,
      "Ġelse": 626,
      "ĊĠĠĠĠĠĠĠĠĠĠĠĠĠĠĠĠĠĠĠĠĠĠĠ": 627,
      "kwargs": 628,
      "bo": 629,
      "ding": 630,
      "Ġpar": 631,
      "Ġlist": 632,
      "ample": 633,
      "tri": 634,
      "ault": 635,
      "ps": 636,
      "ab": 637,
      "pre": 638,
      "ew": 639,
      "model": 640,
      "com": 641,
      "ity": 642,
      "rap": 643,
      "item": 644,
      "Ġ|": 645,
      "Ġma": 646,
      "Ġarg": 647,
      "time": 648,
      "our": 649,
      "])": 650,
      "Ġ3": 651,
      "valid": 652,
      "ĠThe": 653,
      "son": 654,
      "Ġ__": 655,
      "ff": 656,
      "Ġ:": 657,
      "dex": 658,
      "date": 659,
      "Ġon": 660,
      "url": 661,
      "ill": 662,
      "ĠAn": 663,
      "quest": 664,
      "ore": 665,
      "init": 666,
      "bject": 667,
      "ool": 668,
      "reate": 669,
      "âĢļ": 670,
      "ial": 671,
      "ĠE": 672,
      "art": 673,
      "Ġvalue": 674,
      "ber": 675,
      "raise": 676,
      "ÐłÐİ": 677,
      "ds": 678,
      "lot": 679,
      "ray": 680,
      "itle": 681,
      "Ġch": 682,
      "True": 683,
      "add": 684,
      "umber": 685,
      "Ġv": 686,
      "ry": 687,
      "ator": 688,
      "ive": 689,
      "ĠB": 690,
      "ight": 691,
      "sion": 692,
      "ĠV": 693,
      "rint": 694,
      "Ġresult": 695,
      "Ġpy": 696,
      "Ġname": 697,
      "ire": 698,
      "gg": 699,
      "color": 700,
      "Ġint": 701,
      "est": 702,
      "config": 703,
      "json": 704,
      "ĠN": 705,
      "loat": 706,
      "htt": 707,
      "ource": 708,
      "arch": 709,
      "ĠTrue": 710,
      "bel": 711,
      "ok": 712,
      "Ġthat": 713,
      "sed": 714,
      "und": 715,
      "property": 716,
      "cess": 717,
      "app": 718,
      "ext": 719,
      "In": 720,
      "ys": 721,
      "Ġtype": 722,
      "Ġit": 723,
      "pp": 724,
      "Ġhe": 725,
      "if": 726,
      "ock": 727,
      "ÐłÐĨ": 728,
      "label": 729,
      "ust": 730,
      ").": 731,
      "tra": 732,
      "bu": 733,
      "content": 734,
      "mark": 735,
      "ĠFalse": 736,
      "dir": 737,
      "token": 738,
      "vent": 739,
      "Ġget": 740,
      "back": 741,
      "instance": 742,
      "ac": 743,
      "lang": 744,
      "ind": 745,
      "Ġfile": 746,
      "ader": 747,
      "ations": 748,
      "ary": 749,
      "Ġresponse": 750,
      "Ġlen": 751,
      "doc": 752,
      "op": 753,
      "ule": 754,
      "âĢĺ": 755,
      "Ġmodel": 756,
      "Ġdict": 757,
      "Ġwh": 758,
      "():": 759,
      "//": 760,
      "ener": 761,
      "arg": 762,
      "rc": 763,
      "mand": 764,
      "ten": 765,
      "Ġout": 766,
      "âĢĿ": 767,
      "ace": 768,
      "Ġraise": 769,
      "scri": 770,
      ".\"\"\"": 771,
      "yle": 772,
      "Type": 773,
      "row": 774,
      "==": 775,
      "Con": 776,
      "ifi": 777,
      "wa": 778,
      "ets": 779,
      "Ġthis": 780,
      "raph": 781,
      "__(": 782,
      "roup": 783,
      "message": 784,
      "Ġpre": 785,
      "eld": 786,
      "ari": 787,
      "dict": 788,
      "base": 789,
      "Ġ}": 790,
      "core": 791,
      "ans": 792,
      "Ġcolor": 793,
      "ec": 794,
      "ĠU": 795,
      "Ġ{\"": 796,
      "Ġ4": 797,
      "Ġset": 798,
      "min": 799,
      "Ġ<": 800,
      "Ġval": 801,
      "IN": 802,
      "='": 803,
      "read": 804,
      "ition": 805,
      "ime": 806,
      "error": 807,
      "ER": 808,
      "thod": 809,
      "Ġ**": 810,
      "Ġwe": 811,
      "Ġprint": 812,
      "Ġstring": 813,
      "Â¬": 814,
      "turns": 815,
      "lib": 816,
      "vider": 817,
      "ĊĠĠĠĠĠĠĠĠĠĠĠĠĠĠĠĠĠĠĠĠĠĠĠĠĠĠĠ": 818,
      "ne": 819,
      "we": 820,
      "://": 821,
      "not": 822,
      "temp": 823,
      "Ġ>>": 824,
      "Ġisinstance": 825,
      "quire": 826,
      "ery": 827,
      "odule": 828,
      "tes": 829,
      "ump": 830,
      "Ġitem": 831,
      "ca": 832,
      "unction": 833,
      "sche": 834,
      "Â±": 835,
      "info": 836,
      "urre": 837,
      "Ġ>>>": 838,
      "os": 839,
      "end": 840,
      "fe": 841,
      "âĢ¦": 842,
      "unt": 843,
      "Ġ5": 844,
      "format": 845,
      "10": 846,
      "array": 847,
      "ta": 848,
      "ssion": 849,
      "--------": 850,
      "ĠH": 851,
      "ated": 852,
      "ĠW": 853,
      "Ġby": 854,
      "Ġfi": 855,
      "olum": 856,
      "ord": 857,
      "client": 858,
      "ant": 859,
      "olumn": 860,
      "ren": 861,
      "ory": 862,
      "idth": 863,
      "ĠReturns": 864,
      "¿½": 865,
      "ï¿½": 866,
      "ptions": 867,
      "Ġal": 868,
      "Ġ},": 869,
      "âĢ¢": 870,
      "Ġ.": 871,
      "ON": 872,
      "Ch": 873,
      "ings": 874,
      "max": 875,
      "gent": 876,
      "Ġfont": 877,
      "ou": 878,
      "version": 879,
      "Ġ/": 880,
      "ĠR": 881,
      "load": 882,
      "Ġwill": 883,
      "alue": 884,
      "own": 885,
      "Ġun": 886,
      "output": 887,
      "mbed": 888,
      "run": 889,
      "ĠAny": 890,
      "ĠSets": 891,
      "ÐłÑĵ": 892,
      "ay": 893,
      "index": 894,
      "lic": 895,
      "EN": 896,
      "https": 897,
      "([": 898,
      "Ġk": 899,
      "Ġcl": 900,
      "izer": 901,
      "lace": 902,
      "param": 903,
      "input": 904,
      "pi": 905,
      "().": 906,
      "ign": 907,
      "query": 908,
      "update": 909,
      "ard": 910,
      "chain": 911,
      "wait": 912,
      "---": 913,
      "late": 914,
      "pos": 915,
      "ght": 916,
      "lif": 917,
      "Ġdefault": 918,
      "Ġmessage": 919,
      "iv": 920,
      "ild": 921,
      "pecifi": 922,
      "ream": 923,
      "Ċĉĉ": 924,
      "tool": 925,
      "arent": 926,
      "ters": 927,
      "stru": 928,
      "no": 929,
      "arget": 930,
      "##": 931,
      "Ġcom": 932,
      "Ġcan": 933,
      "pytest": 934,
      "with": 935,
      "uld": 936,
      "âĢļÂ¬": 937,
      "user": 938,
      "fix": 939,
      "Ġ..": 940,
      "title": 941,
      "Ġnp": 942,
      "cept": 943,
      "âĦ": 944,
      "urrent": 945,
      "Ġsc": 946,
      "ĠÐł": 947,
      "Ġbool": 948,
      "lable": 949,
      "pected": 950,
      "âĢŀ": 951,
      "ape": 952,
      "Ġtra": 953,
      "si": 954,
      "Ġsup": 955,
      "lock": 956,
      "Ð¡Ñ": 957,
      "Ġconfig": 958,
      "Ġargs": 959,
      "ptional": 960,
      "Ġdoc": 961,
      "Me": 962,
      "Ġat": 963,
      "adata": 964,
      "ers": 965,
      "mpt": 966,
      "ould": 967,
      "node": 968,
      "Âµ": 969,
      "gger": 970,
      "ĊĠĠĠĠĠĠĠĠĠĠĠĠĠĠĠĠĠĠĠĠĠĠĠĠĠĠĠĠĠĠĠĠ": 971,
      "Ġelif": 972,
      "schema": 973,
      "Ġapp": 974,
      "pend": 975,
      "AT": 976,
      "False": 977,
      "api": 978,
      "ash": 979,
      "Ġmax": 980,
      "Ġad": 981,
      "Â®": 982,
      "Ġfloat": 983,
      "arn": 984,
      "rame": 985,
      "tic": 986,
      "Ġnumber": 987,
      "gth": 988,
      "']": 989,
      "sk": 990,
      "Pro": 991,
      "red": 992,
      "ĠG": 993,
      "ĊĠĠĠĠĠĠĠĠĠ": 994,
      "Ġnew": 995,
      "aa": 996,
      "mat": 997,
      "ĊĠĠĠĠĠĠĠĠĠĠĠĠĠĠĠĠĠĠĠĠĠĠĠĠĠĠĠĠĠĠĠ": 998,
      "lotly": 999,
      "ces": 1000,
      "tadata": 1001,
      "stat": 1002,
      "Ġpath": 1003,
      "ded": 1004,
      "Ġare": 1005,
      "main": 1006,
      "Ġrun": 1007,
      "ception": 1008,
      "ast": 1009,
      "Ġasync": 1010,
      "ĊĊĠĠĠĠĠĠĠĠĠĠĠ": 1011,
      "ree": 1012,
      "ave": 1013,
      "append": 1014,
      "Ġ{}": 1015,
      "call": 1016,
      "lement": 1017,
      "Ġtime": 1018,
      "Ġ),": 1019,
      "xx": 1020,
      "gin": 1021,
      "jo": 1022,
      "inter": 1023,
      "Ġos": 1024,
      "Ġkey": 1025,
      "items": 1026,
      "da": 1027,
      "Ġle": 1028,
      "Ġoutput": 1029,
      "99": 1030,
      "Ġspecifi": 1031,
      "teg": 1032,
      "Ġpytest": 1033,
      "sub": 1034,
      "utt": 1035,
      "Ġline": 1036,
      "25": 1037,
      "comp": 1038,
      "graph": 1039,
      "``": 1040,
      "state": 1041,
      "link": 1042,
      "langchain": 1043,
      "PI": 1044,
      "Ġno": 1045,
      "unk": 1046,
      "upy": 1047,
      "async": 1048,
      "Data": 1049,
      "ES": 1050,
      "ies": 1051,
      "Ġuse": 1052,
      "place": 1053,
      "Ġall": 1054,
      "ute": 1055,
      "alueError": 1056,
      "open": 1057,
      "Ġ>": 1058,
      "Â¤": 1059,
      "fa": 1060,
      "Ġpo": 1061,
      "io": 1062,
      "port": 1063,
      "util": 1064,
      "ÐłÐĨÐ²ÐĤ": 1065,
      "so": 1066,
      "method": 1067,
      "''": 1068,
      "Ġcomp": 1069,
      "heck": 1070,
      "umpy": 1071,
      "Model": 1072,
      "['": 1073,
      "utton": 1074,
      "rst": 1075,
      "attr": 1076,
      "ackage": 1077,
      "mit": 1078,
      "]:": 1079,
      "over": 1080,
      "Base": 1081,
      "lp": 1082,
      "ft": 1083,
      "ork": 1084,
      "mbedding": 1085,
      "ther": 1086,
      "assert": 1087,
      "Ġ[\"": 1088,
      "obj": 1089,
      "Ġ%": 1090,
      "yp": 1091,
      "Ġsp": 1092,
      "âĢĵ": 1093,
      "(),": 1094,
      "Â§": 1095,
      "St": 1096,
      "Ġawait": 1097,
      "Ġ]": 1098,
      "case": 1099,
      "his": 1100,
      "Ġsub": 1101,
      "uple": 1102,
      "OR": 1103,
      "ml": 1104,
      "Ġcreate": 1105,
      "20": 1106,
      "agent": 1107,
      "gn": 1108,
      "nel": 1109,
      "result": 1110,
      "Ġtoken": 1111,
      "Ð²ÐĤÑŀ": 1112,
      "ler": 1113,
      "Ġcont": 1114,
      "Par": 1115,
      "Ġ[]": 1116,
      "old": 1117,
      "num": 1118,
      "Ġtry": 1119,
      "Ġinput": 1120,
      "bar": 1121,
      "andom": 1122,
      "point": 1123,
      "**": 1124,
      "parent": 1125,
      "idget": 1126,
      "ax": 1127,
      "source": 1128,
      "string": 1129,
      "count": 1130,
      "lit": 1131,
      "ÐłÑĸ": 1132,
      "for": 1133,
      "oo": 1134,
      "right": 1135,
      "move": 1136,
      "loc": 1137,
      "start": 1138,
      "rite": 1139,
      "Ġ----": 1140,
      "())": 1141,
      "create": 1142,
      "Ġcode": 1143,
      "default": 1144,
      "thon": 1145,
      "ĠValueError": 1146,
      "dio": 1147,
      "response": 1148,
      "Ġuser": 1149,
      "ound": 1150,
      "object": 1151,
      "use": 1152,
      "ĠSe": 1153,
      "nd": 1154,
      "server": 1155,
      "Ġnode": 1156,
      "Ġspecified": 1157,
      "style": 1158,
      "mage": 1159,
      "Ġ``": 1160,
      "Ġsource": 1161,
      "Ġ-------": 1162,
      "ĠEx": 1163,
      "group": 1164,
      "map": 1165,
      "sg": 1166,
      "scription": 1167,
      "order": 1168,
      "=[": 1169,
      "ject": 1170,
      "Ġ6": 1171,
      "Ġexcept": 1172,
      "Test": 1173,
      "qual": 1174,
      "parame": 1175,
      "ield": 1176,
      "Ġsize": 1177,
      "\"],": 1178,
      "by": 1179,
      "Ġshould": 1180,
      "ho": 1181,
      "Ġrequest": 1182,
      "shape": 1183,
      "LE": 1184,
      "aut": 1185,
      "Ġmust": 1186,
      "Message": 1187,
      "sor": 1188,
      "Ġla": 1189,
      "Ġtyp": 1190,
      "âĢł": 1191,
      "Ġexpected": 1192,
      "ctory": 1193,
      "].": 1194,
      "lect": 1195,
      "tep": 1196,
      "testing": 1197,
      "width": 1198,
      "Ġkwargs": 1199,
      "process": 1200,
      "lines": 1201,
      "ep": 1202,
      "ĠIn": 1203,
      "Lo": 1204,
      "log": 1205,
      "ses": 1206,
      "Ġpi": 1207,
      "Ġxp": 1208,
      "ĠCon": 1209,
      "Ex": 1210,
      "Ġlabel": 1211,
      "Ġdtype": 1212,
      "clu": 1213,
      "{\"": 1214,
      "AL": 1215,
      "atter": 1216,
      "Ġobject": 1217,
      "src": 1218,
      "Ġindex": 1219,
      "Ġ10": 1220,
      "check": 1221,
      "unc": 1222,
      "vector": 1223,
      "Ġsuper": 1224,
      ":`": 1225,
      "ual": 1226,
      "inal": 1227,
      "ÐłÐĬ": 1228,
      "Ġsa": 1229,
      "Ġ+=": 1230,
      "100": 1231,
      "Ġsys": 1232,
      "ctions": 1233,
      "Ġ...": 1234,
      "Ġrange": 1235,
      "Ġstyle": 1236,
      "ict": 1237,
      "ĠDe": 1238,
      "Ġmock": 1239,
      "Ġtool": 1240,
      "Ġtyping": 1241,
      "Ġinstance": 1242,
      "length": 1243,
      "'s": 1244,
      "ily": 1245,
      "ĠAr": 1246,
      "request": 1247,
      "join": 1248,
      "Ġproperty": 1249,
      "try": 1250,
      "Ġparser": 1251,
      "Ġ\"#": 1252,
      "Ġclient": 1253,
      "Ġdo": 1254,
      "Ġused": 1255,
      "ĠIf": 1256,
      "\"},": 1257,
      "ner": 1258,
      "})": 1259,
      "iter": 1260,
      "rect": 1261,
      "font": 1262,
      "ĠBase": 1263,
      "Ġagent": 1264,
      "The": 1265,
      "stream": 1266,
      "ible": 1267,
      "Ð²ÐĤÑĻ": 1268,
      "âĦĸ": 1269,
      "CT": 1270,
      "orch": 1271,
      "ze": 1272,
      "Ġcall": 1273,
      "space": 1274,
      "Ġnum": 1275,
      "shot": 1276,
      "Ġclass": 1277,
      "my": 1278,
      "root": 1279,
      "store": 1280,
      "IS": 1281,
      "be": 1282,
      "ution": 1283,
      "Ġcontent": 1284,
      "Ġadd": 1285,
      "off": 1286,
      "Ð¢": 1287,
      "Ġid": 1288,
      "}\"": 1289,
      "Se": 1290,
      "annel": 1291,
      "command": 1292,
      "reen": 1293,
      "vide": 1294,
      "box": 1295,
      "CH": 1296,
      "Ġwhe": 1297,
      "position": 1298,
      "col": 1299,
      "ide": 1300,
      "su": 1301,
      "mask": 1302,
      "copy": 1303,
      "RE": 1304,
      "Ġ7": 1305,
      "Ġli": 1306,
      "argument": 1307,
      "float": 1308,
      "Ġ],": 1309,
      "image": 1310,
      "Ġl": 1311,
      "Ġfunction": 1312,
      "amples": 1313,
      "stra": 1314,
      "antic": 1315,
      "air": 1316,
      "skip": 1317,
      "utils": 1318,
      "IT": 1319,
      "act": 1320,
      "Ġz": 1321,
      "return": 1322,
      "Ġgener": 1323,
      "foo": 1324,
      "cted": 1325,
      "nection": 1326,
      "plotly": 1327,
      "valu": 1328,
      "adow": 1329,
      "12": 1330,
      "Â¶": 1331,
      "led": 1332,
      "sum": 1333,
      "gging": 1334,
      "====": 1335,
      "ĠOptional": 1336,
      "weight": 1337,
      "template": 1338,
      "DE": 1339,
      "number": 1340,
      "Ġ{'": 1341,
      "tokens": 1342,
      "db": 1343,
      "event": 1344,
      "ach": 1345,
      "Ġhttps": 1346,
      "ING": 1347,
      "Ċĉ": 1348,
      "env": 1349,
      "Ġend": 1350,
      "ron": 1351,
      "sv": 1352,
      "parse": 1353,
      "down": 1354,
      "gro": 1355,
      "igh": 1356,
      "ref": 1357,
      "res": 1358,
      "Ġcurrent": 1359,
      "setter": 1360,
      "Ġstart": 1361,
      "frame": 1362,
      "vers": 1363,
      "http": 1364,
      "}\")": 1365,
      "ature": 1366,
      "Ġ8": 1367,
      "view": 1368,
      "dantic": 1369,
      "tings": 1370,
      "types": 1371,
      "SE": 1372,
      "split": 1373,
      "ustom": 1374,
      "spe": 1375,
      "ormal": 1376,
      "24": 1377,
      "vel": 1378,
      "lose": 1379,
      "RO": 1380,
      "sing": 1381,
      "table": 1382,
      "bin": 1383,
      "Ġ\"--": 1384,
      "metadata": 1385,
      "dis": 1386,
      "ĠThis": 1387,
      "Ġformat": 1388,
      "32": 1389,
      "target": 1390,
      "Ġcol": 1391,
      "Ġcheck": 1392,
      "pop": 1393,
      "Ġwhen": 1394,
      "ite": 1395,
      "aders": 1396,
      "Ġ\"+": 1397,
      "ĠPath": 1398,
      "exec": 1399,
      "structor": 1400,
      "UL": 1401,
      "html": 1402,
      "((": 1403,
      "Ġ!": 1404,
      "raw": 1405,
      "Ġonly": 1406,
      "Ġcupy": 1407,
      "race": 1408,
      "parser": 1409,
      "write": 1410,
      "Ġax": 1411,
      "\"{": 1412,
      "cor": 1413,
      "ized": 1414,
      "amily": 1415,
      "cur": 1416,
      "ni": 1417,
      "âĢ¡": 1418,
      "opt": 1419,
      "module": 1420,
      "validate": 1421,
      "ale": 1422,
      "ich": 1423,
      "Ġmin": 1424,
      "feren": 1425,
      "Ġbu": 1426,
      "Ġhas": 1427,
      "ÐłÑĽ": 1428,
      "task": 1429,
      "vai": 1430,
      "Ġmay": 1431,
      "quired": 1432,
      "]]": 1433,
      "Ġbase": 1434,
      "Ġ!=": 1435,
      "11": 1436,
      "AR": 1437,
      "âĢŀâĢĵ": 1438,
      "ĠArgs": 1439,
      "emp": 1440,
      "lat": 1441,
      "ns": 1442,
      "Ġtitle": 1443,
      "status": 1444,
      "ine": 1445,
      "Ġevent": 1446,
      "0000": 1447,
      "quen": 1448,
      "Ġcommand": 1449,
      "package": 1450,
      "Ġback": 1451,
      "fg": 1452,
      "nap": 1453,
      "ph": 1454,
      "ĠK": 1455,
      "org": 1456,
      "Ġover": 1457,
      "dim": 1458,
      ".__": 1459,
      "AI": 1460,
      "Ġso": 1461,
      "Ġopen": 1462,
      "termin": 1463,
      "its": 1464,
      "vice": 1465,
      "napshot": 1466,
      "âĢĻ": 1467,
      "ĠPro": 1468,
      "clude": 1469,
      "Ġtr": 1470,
      "vailable": 1471,
      "rop": 1472,
      "Ġstate": 1473,
      "\"}": 1474,
      "numpy": 1475,
      "Ġlangchain": 1476,
      "invalid": 1477,
      "ress": 1478,
      "ÐłÐī": 1479,
      "ak": 1480,
      "ci": 1481,
      "ts": 1482,
      "[:": 1483,
      "function": 1484,
      "ong": 1485,
      "eta": 1486,
      "train": 1487,
      "md": 1488,
      "Ġmatch": 1489,
      ".\",": 1490,
      "cli": 1491,
      "random": 1492,
      "word": 1493,
      "ager": 1494,
      "Ġfirst": 1495,
      "ÐĴÂµ": 1496,
      "objs": 1497,
      "ache": 1498,
      "close": 1499,
      "Ġ):": 1500,
      "Ġaut": 1501,
      "Ġtask": 1502,
      "Ġpass": 1503,
      "prompt": 1504,
      "An": 1505,
      "rid": 1506,
      "vari": 1507,
      "onent": 1508,
      "PE": 1509,
      "bs": 1510,
      "udio": 1511,
      "Ġvalues": 1512,
      "ÐłÐĨÐ²ÐĤÑŀ": 1513,
      "AN": 1514,
      "ally": 1515,
      "layer": 1516,
      "tribu": 1517,
      "ice": 1518,
      "Ġinit": 1519,
      "tex": 1520,
      "flow": 1521,
      "ql": 1522,
      "Ġone": 1523,
      "Ġmo": 1524,
      "mode": 1525,
      "tion": 1526,
      "orted": 1527,
      "asses": 1528,
      "ull": 1529,
      "Ġhand": 1530,
      "versation": 1531,
      "De": 1532,
      "ÐłÂµ": 1533,
      "values": 1534,
      "abled": 1535,
      "Ġhelp": 1536,
      "CK": 1537,
      "FA": 1538,
      "ÐłÐĥ": 1539,
      "64": 1540,
      "ix": 1541,
      "Ġtorch": 1542,
      "ĠCh": 1543,
      "ify": 1544,
      "TO": 1545,
      "ĠJ": 1546,
      "fil": 1547,
      "column": 1548,
      "lu": 1549,
      "Ġjson": 1550,
      "ameters": 1551,
      "ference": 1552,
      ".\"": 1553,
      "docs": 1554,
      "Ġinter": 1555,
      "arning": 1556,
      "ED": 1557,
      "score": 1558,
      "ĠTest": 1559,
      "Ġtarget": 1560,
      "Ġfa": 1561,
      "Ġsu": 1562,
      "Ġlog": 1563,
      "Ġweight": 1564,
      "sync": 1565,
      "Â»": 1566,
      "ĠList": 1567,
      "ansform": 1568,
      "Ġopt": 1569,
      "Ġargument": 1570,
      "API": 1571,
      "vis": 1572,
      "search": 1573,
      "document": 1574,
      "gnore": 1575,
      "messages": 1576,
      "ccess": 1577,
      "gener": 1578,
      "vo": 1579,
      "Â©": 1580,
      "mbda": 1581,
      "her": 1582,
      "Ġman": 1583,
      "Ġvari": 1584,
      "np": 1585,
      "50": 1586,
      "xy": 1587,
      "hand": 1588,
      "lected": 1589,
      "rate": 1590,
      "ared": 1591,
      "layout": 1592,
      "Ġwidth": 1593,
      "'t": 1594,
      "cache": 1595,
      "Ġup": 1596,
      "Ġignore": 1597,
      "Ġmark": 1598,
      "ĠPar": 1599,
      "HT": 1600,
      "ION": 1601,
      "sample": 1602,
      "rol": 1603,
      "man": 1604,
      "Ġerror": 1605,
      "book": 1606,
      "teger": 1607,
      "ultip": 1608,
      "Ġarray": 1609,
      "ody": 1610,
      "Co": 1611,
      "cate": 1612,
      "ĠSt": 1613,
      "Ġpad": 1614,
      "ÐłÐĭ": 1615,
      "gle": 1616,
      "viron": 1617,
      "trize": 1618,
      "models": 1619,
      "parametrize": 1620,
      "df": 1621,
      "element": 1622,
      "Ġurl": 1623,
      "Ġmodule": 1624,
      "otal": 1625,
      "mpletion": 1626,
      "Ġlogger": 1627,
      "comm": 1628,
      "Ġupdate": 1629,
      "session": 1630,
      "Ġne": 1631,
      "</": 1632,
      "print": 1633,
      "provider": 1634,
      "Ġj": 1635,
      "Ġgroup": 1636,
      "Config": 1637,
      "rable": 1638,
      "Ġres": 1639,
      "Ġprovider": 1640,
      "ST": 1641,
      "TH": 1642,
      "Ġtuple": 1643,
      "Ġper": 1644,
      "dataset": 1645,
      "current": 1646,
      "wer": 1647,
      "idx": 1648,
      "prefix": 1649,
      "TP": 1650,
      "options": 1651,
      "range": 1652,
      "xture": 1653,
      "valuator": 1654,
      "Ġimage": 1655,
      "Ġmask": 1656,
      "ĠCo": 1657,
      "imal": 1658,
      "uture": 1659,
      "rowser": 1660,
      "sys": 1661,
      "coder": 1662,
      "do": 1663,
      "lease": 1664,
      "trace": 1665,
      "aaaa": 1666,
      "ved": 1667,
      "ocab": 1668,
      "Ġitems": 1669,
      "ier": 1670,
      "istory": 1671,
      "params": 1672,
      "Client": 1673,
      "List": 1674,
      "change": 1675,
      "python": 1676,
      "ULT": 1677,
      "Ġwhich": 1678,
      "sent": 1679,
      "context": 1680,
      "State": 1681,
      "fter": 1682,
      "ose": 1683,
      "work": 1684,
      "umer": 1685,
      "quence": 1686,
      "ey": 1687,
      "func": 1688,
      "mi": 1689,
      "Ġdataset": 1690,
      "Text": 1691,
      "`.": 1692,
      "Ġver": 1693,
      "Ġquery": 1694,
      "medi": 1695,
      "Ġlogging": 1696,
      "llm": 1697,
      "âĦ¢": 1698,
      "xxxx": 1699,
      "AB": 1700,
      "Ġfield": 1701,
      "sole": 1702,
      "ib": 1703,
      "Ġannot": 1704,
      "struct": 1705,
      "Ġcontain": 1706,
      "Ð²ÐĤÑĽ": 1707,
      "gt": 1708,
      "uage": 1709,
      "Ġsum": 1710,
      "ped": 1711,
      "16": 1712,
      "cle": 1713,
      "pad": 1714,
      "alid": 1715,
      "Ġdate": 1716,
      "Ġ['": 1717,
      "Ġits": 1718,
      "ĠException": 1719,
      "mory": 1720,
      "ook": 1721,
      "Ġ9": 1722,
      "span": 1723,
      "tick": 1724,
      "Response": 1725,
      "cal": 1726,
      "Ġpoint": 1727,
      "msg": 1728,
      "Ġ\\": 1729,
      "Ġcontext": 1730,
      "rapper": 1731,
      "().__": 1732,
      "ran": 1733,
      "Ġcap": 1734,
      "Ġmetadata": 1735,
      "cs": 1736,
      "ick": 1737,
      "Ġq": 1738,
      "ids": 1739,
      "FAULT": 1740,
      "dent": 1741,
      "Parser": 1742,
      "01": 1743,
      "cre": 1744,
      "Dict": 1745,
      "men": 1746,
      "net": 1747,
      "scale": 1748,
      "Ðİ": 1749,
      "Ð²ÐĤÐİ": 1750,
      "ical": 1751,
      "Ġyou": 1752,
      "side": 1753,
      "ik": 1754,
      "ords": 1755,
      "prec": 1756,
      "rectory": 1757,
      "uration": 1758,
      "ground": 1759,
      "gra": 1760,
      "ipy": 1761,
      "ector": 1762,
      "Ċĉĉĉĉ": 1763,
      "Ġlast": 1764,
      "gh": 1765,
      "sign": 1766,
      "ization": 1767,
      "ments": 1768,
      "script": 1769,
      "----------------": 1770,
      "Ġtri": 1771,
      "ÐłÐİÐł": 1772,
      "ÐłÑĵÐł": 1773,
      "33": 1774,
      "OT": 1775,
      "button": 1776,
      "poch": 1777,
      "Ġtesting": 1778,
      "\"):": 1779,
      "Tool": 1780,
      "future": 1781,
      "of": 1782,
      "Ġversion": 1783,
      "ties": 1784,
      "Ġallow": 1785,
      "\".": 1786,
      "=(": 1787,
      "strip": 1788,
      "etry": 1789,
      "Ġmethod": 1790,
      "lication": 1791,
      "66": 1792,
      "ML": 1793,
      "embedding": 1794,
      "new": 1795,
      "block": 1796,
      "mas": 1797,
      "patch": 1798,
      "step": 1799,
      "wo": 1800,
      "Ġac": 1801,
      "\"])": 1802,
      "Ġusing": 1803,
      "lower": 1804,
      "Ġenumer": 1805,
      "description": 1806,
      "Input": 1807,
      "Ġelement": 1808,
      "mod": 1809,
      "lection": 1810,
      "ĠĠĠĠĠĠĠĠĠĠĠĠĠĠĠĠ": 1811,
      "Ġany": 1812,
      "names": 1813,
      "chema": 1814,
      "ĠOpen": 1815,
      "archy": 1816,
      "ocket": 1817,
      "Ð¡ÑŁ": 1818,
      "axis": 1819,
      "ierarchy": 1820,
      "utor": 1821,
      "Ġeach": 1822,
      "Ġdescription": 1823,
      "ultiple": 1824,
      "FF": 1825,
      "stall": 1826,
      "roll": 1827,
      "serial": 1828,
      "perties": 1829,
      "example": 1830,
      "fore": 1831,
      "15": 1832,
      "Hierarchy": 1833,
      "Ġnext": 1834,
      "Ġbut": 1835,
      "project": 1836,
      "HierarchyType": 1837,
      "SS": 1838,
      "indow": 1839,
      "Ġfound": 1840,
      "Ġoptions": 1841,
      "vert": 1842,
      "imum": 1843,
      "Ġmessages": 1844,
      "mary": 1845,
      "wit": 1846,
      "utput": 1847,
      "Ġmat": 1848,
      "Ġ100": 1849,
      "ĠHT": 1850,
      "Ġdocument": 1851,
      "ĊĠĠĠĠĠĠĠĠĠĠĠĠĠĠĠĠĠĠĠĠĠĠĠĠĠĠĠĠĠĠĠĠĠĠĠ": 1852,
      "older": 1853,
      "Ġ('": 1854,
      "Ġstat": 1855,
      "Ġmake": 1856,
      "ÐłÐİÐ²ÐĤ": 1857,
      "tokenizer": 1858,
      "du": 1859,
      "Â·": 1860,
      "head": 1861,
      "Ġexp": 1862,
      "queue": 1863,
      "LO": 1864,
      "'),": 1865,
      "Ġparam": 1866,
      "ID": 1867,
      "fault": 1868,
      "git": 1869,
      "(\"/": 1870,
      "Ġscp": 1871,
      "Path": 1872,
      "RL": 1873,
      "ake": 1874,
      "resh": 1875,
      "Ġavailable": 1876,
      "enter": 1877,
      "Ġhave": 1878,
      "Ġpydantic": 1879,
      "host": 1880,
      "={\"": 1881,
      "Item": 1882,
      "cy": 1883,
      "play": 1884,
      "lete": 1885,
      "left": 1886,
      "Ġaction": 1887,
      "Ġexist": 1888,
      "Ġyield": 1889,
      "tail": 1890,
      "ÑĴ": 1891,
      "Ġ\"-": 1892,
      "Ġplotly": 1893,
      "tring": 1894,
      "Loader": 1895,
      "Ð¢ÑĴ": 1896,
      "Ġpos": 1897,
      "unct": 1898,
      "Ġannotations": 1899,
      "LM": 1900,
      "batch": 1901,
      "dd": 1902,
      "rg": 1903,
      "classes": 1904,
      "Ġvalid": 1905,
      "Ġcli": 1906,
      "ason": 1907,
      "oly": 1908,
      "Ġoption": 1909,
      "xtra": 1910,
      "Ġfamily": 1911,
      "Ġother": 1912,
      "exist": 1913,
      "Ġload": 1914,
      "tools": 1915,
      "(_": 1916,
      ".\")": 1917,
      "can": 1918,
      "Ġlink": 1919,
      "Ġserver": 1920,
      "ollow": 1921,
      "thread": 1922,
      "elds": 1923,
      "Ġshadow": 1924,
      "={": 1925,
      "En": 1926,
      "cent": 1927,
      "mon": 1928,
      "Ġro": 1929,
      "Valid": 1930,
      "match": 1931,
      "ox": 1932,
      "ople": 1933,
      "Ġtrace": 1934,
      "SON": 1935,
      "ĠQ": 1936,
      "remove": 1937,
      "mpro": 1938,
      "Ġnumpy": 1939,
      "rix": 1940,
      "files": 1941,
      "YPE": 1942,
      "page": 1943,
      "tree": 1944,
      "cls": 1945,
      "face": 1946,
      "cupy": 1947,
      "dtype": 1948,
      "Ġ--------": 1949,
      "replace": 1950,
      "ĠType": 1951,
      "Trace": 1952,
      "Ġact": 1953,
      "ommand": 1954,
      "raises": 1955,
      "pri": 1956,
      "exten": 1957,
      "Ġshow": 1958,
      "the": 1959,
      "ĠY": 1960,
      "Ġ\"__": 1961,
      "âĢĶ": 1962,
      "cont": 1963,
      "Ġsession": 1964,
      "mobject": 1965,
      "abc": 1966,
      "Ġindi": 1967,
      "34": 1968,
      "Equal": 1969,
      "GE": 1970,
      "den": 1971,
      "openai": 1972,
      "auto": 1973,
      "CHE": 1974,
      "cc": 1975,
      "gor": 1976,
      "Ġsk": 1977,
      "Ġbrowser": 1978,
      "entry": 1979,
      "Ġmsg": 1980,
      "ched": 1981,
      "filter": 1982,
      "Un": 1983,
      "widget": 1984,
      "Ġtable": 1985,
      "Ġchunk": 1986,
      "plot": 1987,
      "Ġ'''": 1988,
      "conn": 1989,
      "\"))": 1990,
      "Ġsearch": 1991,
      "Ð²ÐĤÑľ": 1992,
      "bug": 1993,
      "gine": 1994,
      "commun": 1995,
      "Ġsample": 1996,
      "first": 1997,
      "char": 1998,
      "last": 1999,
      "ÐłÑĸÐłÑĵ": 2000,
      "annels": 2001,
      "App": 2002,
      "initial": 2003,
      "OL": 2004,
      "av": 2005,
      "Ġtemplate": 2006,
      "difi": 2007,
      "settings": 2008,
      "::": 2009,
      "ME": 2010,
      "std": 2011,
      "rou": 2012,
      "child": 2013,
      "points": 2014,
      "ful": 2015,
      "ud": 2016,
      "Ġ\".": 2017,
      "lob": 2018,
      "fixture": 2019,
      "ĠAPI": 2020,
      "iven": 2021,
      "assertEqual": 2022,
      "oogle": 2023,
      "selected": 2024,
      "height": 2025,
      "Ġinfo": 2026,
      "Ġoptional": 2027,
      "tyle": 2028,
      "Ġ20": 2029,
      "mock": 2030,
      "community": 2031,
      ")]": 2032,
      "gen": 2033,
      "chunk": 2034,
      "als": 2035,
      "logger": 2036,
      "Ġwork": 2037,
      "nn": 2038,
      "normal": 2039,
      "ous": 2040,
      "ymb": 2041,
      "ating": 2042,
      "ride": 2043,
      "Ġ200": 2044,
      "Ġgraph": 2045,
      "Ġcopy": 2046,
      "bool": 2047,
      "rcle": 2048,
      "({": 2049,
      "LI": 2050,
      "ste": 2051,
      "Ġ---": 2052,
      "keys": 2053,
      "abel": 2054,
      "TraceHierarchyType": 2055,
      "22": 2056,
      "require": 2057,
      "Ġfe": 2058,
      "Ġbatch": 2059,
      "Ġmode": 2060,
      "Ġprompt": 2061,
      "Ġtrain": 2062,
      "bytes": 2063,
      "dump": 2064,
      "inue": 2065,
      "Ġcustom": 2066,
      "ility": 2067,
      "ĠAgent": 2068,
      "Ġexec": 2069,
      "ivy": 2070,
      "ymbol": 2071,
      "14": 2072,
      "tn": 2073,
      "Ġtemp": 2074,
      "Ġroot": 2075,
      "orage": 2076,
      "Ġren": 2077,
      "Ġ<=": 2078,
      "ayload": 2079,
      "ÐłÐīÐł": 2080,
      "iki": 2081,
      "80": 2082,
      "any": 2083,
      "ĠDE": 2084,
      "itional": 2085,
      "ENT": 2086,
      "video": 2087,
      "Any": 2088,
      "ĠParameters": 2089,
      "56": 2090,
      "}}": 2091,
      "Ġstep": 2092,
      "iled": 2093,
      "extra": 2094,
      "Chain": 2095,
      "(**": 2096,
      "17": 2097,
      "bum": 2098,
      "now": 2099,
      "Ġorder": 2100,
      "history": 2101,
      "Ġlang": 2102,
      "Ġlines": 2103,
      "aml": 2104,
      "filename": 2105,
      "255": 2106,
      "Ġpilot": 2107,
      "tribute": 2108,
      "gend": 2109,
      "layers": 2110,
      "Ġresults": 2111,
      "ĠUn": 2112,
      "ui": 2113,
      "select": 2114,
      "ense": 2115,
      "Ġcache": 2116,
      "ĠModel": 2117,
      "Ġchar": 2118,
      "ndarray": 2119,
      "Ġsystem": 2120,
      "Ġword": 2121,
      "Ġlength": 2122,
      "Ġcls": 2123,
      "][": 2124,
      "body": 2125,
      "ms": 2126,
      "Ġconn": 2127,
      "exp": 2128,
      "ker": 2129,
      "save": 2130,
      "level": 2131,
      "under": 2132,
      "Ġdf": 2133,
      "Ġui": 2134,
      "expected": 2135,
      "Ð¡ÑĻ": 2136,
      "CHECK": 2137,
      "gress": 2138,
      "Ġhttp": 2139,
      "Ġ\"\\": 2140,
      "Ġcur": 2141,
      "splay": 2142,
      "Ġparse": 2143,
      "gis": 2144,
      "ĊĊĠĠĠĠĠĠĠĠĠĠĠĠĠĠĠ": 2145,
      "âĢ°": 2146,
      "coding": 2147,
      "Ġchange": 2148,
      "Ġwhile": 2149,
      "ĠDefault": 2150,
      "optim": 2151,
      "Ġ----------": 2152,
      "30": 2153,
      "QL": 2154,
      "ech": 2155,
      "upt": 2156,
      "Ġ\"/": 2157,
      "Ġap": 2158,
      "Ġcor": 2159,
      "Ġcolumn": 2160,
      "Ġfollow": 2161,
      "ĠText": 2162,
      "top": 2163,
      "scipy": 2164,
      "Provider": 2165,
      "auth": 2166,
      "Ġwhere": 2167,
      "]),": 2168,
      "ias": 2169,
      "utf": 2170,
      "Ġop": 2171,
      "ell": 2172,
      "ĠIt": 2173,
      "latform": 2174,
      "PT": 2175,
      "fra": 2176,
      "ir": 2177,
      "mt": 2178,
      "Ġrequire": 2179,
      "olve": 2180,
      "acity": 2181,
      "Ġmodels": 2182,
      "Ġ>=": 2183,
      "Ġcontinue": 2184,
      "stract": 2185,
      "ÐĴÂµÐł": 2186,
      "Ġvariant": 2187,
      "Res": 2188,
      "option": 2189,
      "var": 2190,
      "ital": 2191,
      "Ġed": 2192,
      "ĠPy": 2193,
      "Ġunder": 2194,
      "tegy": 2195,
      "Column": 2196,
      "cfg": 2197,
      "ured": 2198,
      "Ġenv": 2199,
      "Ġlambda": 2200,
      "Run": 2201,
      "ling": 2202,
      "ink": 2203,
      "dec": 2204,
      "__\":": 2205,
      "cale": 2206,
      "ĠWe": 2207,
      "local": 2208,
      "vectorstore": 2209,
      "Ġwhether": 2210,
      "Ġmarker": 2211,
      "mediate": 2212,
      "IC": 2213,
      "Ġab": 2214,
      "allable": 2215,
      "Ġfig": 2216,
      "Ġstream": 2217,
      "Ġparams": 2218,
      "AD": 2219,
      "Open": 2220,
      "cap": 2221,
      "epoch": 2222,
      "Ġpage": 2223,
      "fill": 2224,
      "\").": 2225,
      "ÐłÑĳ": 2226,
      "ÐłÐİÐłÑĵ": 2227,
      "ative": 2228,
      "Ġali": 2229,
      "Ġpackage": 2230,
      "Ġsrc": 2231,
      "Ġlock": 2232,
      "Ġheight": 2233,
      "Validation": 2234,
      "wise": 2235,
      "Ġinclude": 2236,
      "Ġrandom": 2237,
      "ĠNot": 2238,
      "Ġfiles": 2239,
      "Exception": 2240,
      "ported": 2241,
      "uid": 2242,
      "Ġwidget": 2243,
      "Ġconversation": 2244,
      "post": 2245,
      "shadow": 2246,
      "angle": 2247,
      "click": 2248,
      "lector": 2249,
      "Ġextra": 2250,
      "ĠAsync": 2251,
      "ÐłÑŁ": 2252,
      "nodes": 2253,
      "Ġdoes": 2254,
      "========": 2255,
      "60": 2256,
      "wiki": 2257,
      "lean": 2258,
      "ĠRun": 2259,
      "execute": 2260,
      "ear": 2261,
      "ÂŃ": 2262,
      "mpty": 2263,
      "Ġmain": 2264,
      "serv": 2265,
      "Ġapply": 2266,
      "Ġtokens": 2267,
      "cer": 2268,
      "}.": 2269,
      "Ġtotal": 2270,
      "dia": 2271,
      "Ġthread": 2272,
      "present": 2273,
      "sions": 2274,
      "Ċĉĉĉ": 2275,
      "Form": 2276,
      "cord": 2277,
      "iss": 2278,
      "ware": 2279,
      "âĤ": 2280,
      "Ġinto": 2281,
      "\"][\"": 2282,
      "Ġdirectory": 2283,
      "ÐłÐĬÐł": 2284,
      "ighli": 2285,
      "âĤ¬": 2286,
      "(?": 2287,
      "88": 2288,
      "90": 2289,
      "Mock": 2290,
      "cations": 2291,
      "Ġ--": 2292,
      "field": 2293,
      "Ġ###": 2294,
      "chemy": 2295,
      "ĠUser": 2296,
      "Change": 2297,
      "ÐłÐİÐłÑĵÐłÐİ": 2298,
      "200": 2299,
      "AS": 2300,
      "EX": 2301,
      "Output": 2302,
      "wh": 2303,
      "med": 2304,
      "strings": 2305,
      "riter": 2306,
      "(-": 2307,
      "apt": 2308,
      "cation": 2309,
      "card": 2310,
      "ha": 2311,
      "words": 2312,
      "alled": 2313,
      "ank": 2314,
      "assed": 2315,
      "chat": 2316,
      "marker": 2317,
      "Ġspan": 2318,
      "Ġinitial": 2319,
      "vironment": 2320,
      "seq": 2321,
      "reak": 2322,
      "ithub": 2323,
      "trans": 2324,
      "apping": 2325,
      "\"\\": 2326,
      "Sp": 2327,
      "kinter": 2328,
      "ww": 2329,
      "headers": 2330,
      "annot": 2331,
      "allback": 2332,
      "ĠID": 2333,
      "ators": 2334,
      "pha": 2335,
      "ĠJSON": 2336,
      "'.": 2337,
      "Event": 2338,
      "Ser": 2339,
      "UN": 2340,
      "amp": 2341,
      "cp": 2342,
      "find": 2343,
      "ng": 2344,
      "Ġright": 2345,
      "ĠĠĠĠĠĠ": 2346,
      "ene": 2347,
      "hel": 2348,
      "Ġrequired": 2349,
      "make": 2350,
      "question": 2351,
      "rows": 2352,
      "arnings": 2353,
      "callback": 2354,
      "ĠDEFAULT": 2355,
      "gment": 2356,
      "Ġembedding": 2357,
      "profile": 2358,
      "props": 2359,
      "ctionary": 2360,
      "Ġ*,": 2361,
      "Dataset": 2362,
      "Ġfollowing": 2363,
      "This": 2364,
      "ba": 2365,
      "Ñŀ": 2366,
      "inary": 2367,
      "Ġsql": 2368,
      "radio": 2369,
      "ision": 2370,
      "ÐłÐı": 2371,
      "Ġdis": 2372,
      "Ġsecon": 2373,
      "Ġgetattr": 2374,
      "Ġauto": 2375,
      "ÐłÐĥÐł": 2376,
      "CHECKING": 2377,
      "has": 2378,
      "nown": 2379,
      "alle": 2380,
      "anim": 2381,
      "Ġsnapshot": 2382,
      "Ġmore": 2383,
      "lugin": 2384,
      "EY": 2385,
      "IZ": 2386,
      "bserv": 2387,
      "Ġ\"_": 2388,
      "header": 2389,
      "Ġnormal": 2390,
      "ĠTYPE": 2391,
      "Ġyour": 2392,
      "datetime": 2393,
      "Chat": 2394,
      "Ar": 2395,
      "DO": 2396,
      "hash": 2397,
      "Ġqu": 2398,
      "ĊĠĠĠĠĠ": 2399,
      "ittest": 2400,
      "Ġblock": 2401,
      "ilure": 2402,
      "Request": 2403,
      "Ġgiven": 2404,
      "'''": 2405,
      "attern": 2406,
      "variable": 2407,
      "File": 2408,
      "String": 2409,
      "ait": 2410,
      "cing": 2411,
      "sl": 2412,
      "uth": 2413,
      "pect": 2414,
      "Ġexample": 2415,
      "Ġweb": 2416,
      "exists": 2417,
      "gister": 2418,
      ")),": 2419,
      "Temp": 2420,
      "equal": 2421,
      "rep": 2422,
      "Ġpri": 2423,
      "Ġ12": 2424,
      "\"].": 2425,
      "Ġshape": 2426,
      "ĠSequence": 2427,
      "Ġarguments": 2428,
      "Ġpoints": 2429,
      "40": 2430,
      "EL": 2431,
      "ffix": 2432,
      "zer": 2433,
      "ench": 2434,
      "dist": 2435,
      "timeout": 2436,
      "Ġaxis": 2437,
      "voke": 2438,
      "contain": 2439,
      "grid": 2440,
      "ili": 2441,
      "snapshot": 2442,
      "ting": 2443,
      "keep": 2444,
      "ffe": 2445,
      "IG": 2446,
      "oice": 2447,
      "penv": 2448,
      "component": 2449,
      "ÐłÐĨÐ²ÐĤÑŀÐ¡": 2450,
      "ĠChat": 2451,
      "req": 2452,
      "Ġparent": 2453,
      "Ġnon": 2454,
      "ulation": 2455,
      "screen": 2456,
      "ncy": 2457,
      "build": 2458,
      "Ġprefix": 2459,
      "Ð²ÐĤÑĻÐł": 2460,
      "sli": 2461,
      "Ġafter": 2462,
      "Ġobj": 2463,
      "una": 2464,
      "show": 2465,
      "Ġappli": 2466,
      "binary": 2467,
      "Agent": 2468,
      "Button": 2469,
      "Lay": 2470,
      "UT": 2471,
      "[-": 2472,
      "drop": 2473,
      "ji": 2474,
      "}\\": 2475,
      "Ġborder": 2476,
      "Ġdash": 2477,
      "scatter": 2478,
      "mplement": 2479,
      "Ġleft": 2480,
      "oper": 2481,
      "tag": 2482,
      "delete": 2483,
      "Ġim": 2484,
      "distance": 2485,
      "part": 2486,
      "Ġprocess": 2487,
      "most": 2488,
      "ĠDoc": 2489,
      "archive": 2490,
      "Ð²ÐĤÑŀÐł": 2491,
      "lections": 2492,
      "derr": 2493,
      "tial": 2494,
      "Ġproperties": 2495,
      "Ġdatabase": 2496,
      "og": 2497,
      "sup": 2498,
      "ards": 2499,
      "memory": 2500,
      "pear": 2501,
      "Ġempty": 2502,
      "other": 2503,
      "allclose": 2504,
      "Ġchild": 2505,
      "application": 2506,
      "shaped": 2507,
      "Result": 2508,
      "Key": 2509,
      "kit": 2510,
      "Ġapi": 2511,
      "Ġplace": 2512,
      "ĠTH": 2513,
      "tric": 2514,
      "Ð¡Ñļ": 2515,
      "Ġasyncio": 2516,
      "Ġdatetime": 2517,
      "Ġenumeration": 2518,
      "\">": 2519,
      "(__": 2520,
      "ome": 2521,
      "tuple": 2522,
      "Ġ\"\",": 2523,
      "err": 2524,
      "hell": 2525,
      "Ġfinal": 2526,
      "loop": 2527,
      "direct": 2528,
      "Ġmultiple": 2529,
      "completion": 2530,
      "prop": 2531,
      "Ġsee": 2532,
      "Ġheaders": 2533,
      "feature": 2534,
      "####": 2535,
      "Ġcompat": 2536,
      "Ġcallback": 2537,
      "Ġgeneration": 2538,
      "Ġcapital": 2539,
      "Value": 2540,
      "none": 2541,
      "warning": 2542,
      "Ġvector": 2543,
      "Ġtree": 2544,
      "role": 2545,
      "ameter": 2546,
      "ulti": 2547,
      "Ġthan": 2548,
      "apply": 2549,
      "Content": 2550,
      "empty": 2551,
      "ValidationError": 2552,
      "Set": 2553,
      "embed": 2554,
      "fn": 2555,
      "github": 2556,
      "Ġcase": 2557,
      "Ġframe": 2558,
      "Ġpassed": 2559,
      "Ġread": 2560,
      "Ġkivy": 2561,
      "EST": 2562,
      "mented": 2563,
      "'):": 2564,
      "(*": 2565,
      "Not": 2566,
      "`,": 2567,
      "action": 2568,
      "best": 2569,
      "ward": 2570,
      "inis": 2571,
      "Ġ\"\"": 2572,
      "ĠApp": 2573,
      "Ġ_,": 2574,
      "Ġstop": 2575,
      "ffect": 2576,
      "Context": 2577,
      "Ġtransform": 2578,
      "reshold": 2579,
      "Gener": 2580,
      "family": 2581,
      "¿Ñ": 2582,
      "Ðħ": 2583,
      "Ð¿Ñ": 2584,
      "ĹÐħ": 2585,
      "allow": 2586,
      "help": 2587,
      "div": 2588,
      "Ġmod": 2589,
      "Ġwas": 2590,
      "ĠMe": 2591,
      "abs": 2592,
      "ĊĠĠĠĠĠĠĠĠĠĠĠĠĠĠĠĠĠĠĠĠĠĠĠĠĠĠĠĠĠĠĠĠĠĠĠĠĠĠĠĠ": 2593,
      "ĊĠĠĠĠĠĠĠĠĠĠĠĠĠĠĠĠĠĠĠĠĠĠĠĠĠĠĠĠĠĠĠĠĠĠĠĠĠĠĠ": 2594,
      "Ġpathlib": 2595,
      "Ð¿ÑĹÐħ": 2596,
      "\\\\": 2597,
      "oken": 2598,
      "px": 2599,
      "alchemy": 2600,
      "Ġbot": 2601,
      "edro": 2602,
      "000": 2603,
      "ĠColumn": 2604,
      "Ġshared": 2605,
      "tributes": 2606,
      "system": 2607,
      "Hel": 2608,
      "ek": 2609,
      "next": 2610,
      "Òĳ": 2611,
      "ĊĠ": 2612,
      "align": 2613,
      "Ġfil": 2614,
      "ceptions": 2615,
      "olution": 2616,
      "Ġscreen": 2617,
      "ĠGener": 2618,
      "Search": 2619,
      "airseq": 2620,
      "ccessful": 2621,
      "HTTP": 2622,
      "Ġsqlalchemy": 2623,
      "ffi": 2624,
      "Ġhtml": 2625,
      "debug": 2626,
      "loss": 2627,
      "ĠTrace": 2628,
      "mplemented": 2629,
      "Ġcreated": 2630,
      "Ġlike": 2631,
      "Ġgenerate": 2632,
      "speed": 2633,
      "Hand": 2634,
      "ning": 2635,
      "xp": 2636,
      "yaml": 2637,
      "}:": 2638,
      "Ġlic": 2639,
      "retry": 2640,
      "Ġsame": 2641,
      "typ": 2642,
      "acy": 2643,
      "ÐłÑĸÐ²ÐĤ": 2644,
      "Ġneed": 2645,
      "precated": 2646,
      "stdout": 2647,
      "lobal": 2648,
      "ÐłÐİÐłÑĵÐłÐİÐłÐīÐł": 2649,
      "AM": 2650,
      "We": 2651,
      "dash": 2652,
      "dtypes": 2653,
      "}'": 2654,
      "derable": 2655,
      "pool": 2656,
      "classmethod": 2657,
      "exit": 2658,
      "Ð²ÐĤÑļ": 2659,
      "Ġvocab": 2660,
      "Ġsubprocess": 2661,
      "starts": 2662,
      "ĠSee": 2663,
      "manager": 2664,
      "edrock": 2665,
      "DB": 2666,
      "tgt": 2667,
      "}/": 2668,
      "Ġcast": 2669,
      "Ġref": 2670,
      "Ġremo": 2671,
      "ingle": 2672,
      "radi": 2673,
      "Ġbreak": 2674,
      "strib": 2675,
      "lambda": 2676,
      "tist": 2677,
      "scal": 2678,
      "Ġthen": 2679,
      "ocus": 2680,
      "formation": 2681,
      "factory": 2682,
      "BaseTraceHierarchyType": 2683,
      "rough": 2684,
      "ensor": 2685,
      "ropo": 2686,
      "Ġfunc": 2687,
      "channels": 2688,
      "sets": 2689,
      "Ġconstructor": 2690,
      "Ġtextual": 2691,
      "ĠNo": 2692,
      "Ġlabels": 2693,
      "Ġcollections": 2694,
      "visible": 2695,
      "stribution": 2696,
      "PRO": 2697,
      "UM": 2698,
      "}\",": 2699,
      "ors": 2700,
      "Ġ\"{": 2701,
      "gest": 2702,
      "limit": 2703,
      "Ġbutton": 2704,
      "fields": 2705,
      "rial": 2706,
      "comple": 2707,
      "Ġarch": 2708,
      "...": 2709,
      "ropout": 2710,
      "Group": 2711,
      "Mobject": 2712,
      "UR": 2713,
      "border": 2714,
      "lass": 2715,
      "Ġtwo": 2716,
      "Ġremove": 2717,
      "peline": 2718,
      "ĠField": 2719,
      "Ġ50": 2720,
      "parameters": 2721,
      "startswith": 2722,
      "'],": 2723,
      ")')": 2724,
      "ost": 2725,
      "pack": 2726,
      "engine": 2727,
      "lim": 2728,
      "connection": 2729,
      "conversation": 2730,
      "etch": 2731,
      "pypi": 2732,
      "Ġdist": 2733,
      "img": 2734,
      "Ġcore": 2735,
      "Ġtypes": 2736,
      "xxxxxxxx": 2737,
      "Ġstatus": 2738,
      "IM": 2739,
      "Name": 2740,
      "spec": 2741,
      "ret": 2742,
      "leep": 2743,
      "Ġtrue": 2744,
      "erge": 2745,
      "mean": 2746,
      "Ġmon": 2747,
      "iginal": 2748,
      "Ġselect": 2749,
      "opts": 2750,
      "Ð²ÐĤÐİÐł": 2751,
      "35": 2752,
      "Id": 2753,
      "Wrapper": 2754,
      "bind": 2755,
      "Ġplot": 2756,
      "Ġreplace": 2757,
      "Ġinstall": 2758,
      "Ġdec": 2759,
      "board": 2760,
      "okup": 2761,
      "Ð¡ÑĽ": 2762,
      "variant": 2763,
      "18": 2764,
      "Color": 2765,
      "Di": 2766,
      "GL": 2767,
      "UP": 2768,
      "gory": 2769,
      "ority": 2770,
      "environ": 2771,
      "Ġfill": 2772,
      "Ġscore": 2773,
      "Ġsorted": 2774,
      "77": 2775,
      "Sc": 2776,
      "Time": 2777,
      "]):": 2778,
      "custom": 2779,
      "lt": 2780,
      "zone": 2781,
      "ĠĠĠĠĠ": 2782,
      "ined": 2783,
      "rection": 2784,
      "device": 2785,
      "Ġpip": 2786,
      "lack": 2787,
      "ĠCallable": 2788,
      "transform": 2789,
      "Ð²ÐĤÑĶ": 2790,
      "ffer": 2791,
      "override": 2792,
      "Ġoptim": 2793,
      "ĠHTTP": 2794,
      "connect": 2795,
      "IL": 2796,
      "imp": 2797,
      "js": 2798,
      "nal": 2799,
      "norm": 2800,
      "stop": 2801,
      "Ġpd": 2802,
      "verse": 2803,
      "Ġconsole": 2804,
      "male": 2805,
      "ĠModule": 2806,
      "Ġmean": 2807,
      "static": 2808,
      "ropic": 2809,
      "gram": 2810,
      "stractmethod": 2811,
      "components": 2812,
      "Man": 2813,
      "bot": 2814,
      "full": 2815,
      "qa": 2816,
      "rel": 2817,
      "enabled": 2818,
      "Ġiss": 2819,
      "Ġcfg": 2820,
      "Ġrecent": 2821,
      "Ġoper": 2822,
      "scp": 2823,
      "ĠIS": 2824,
      "Ġvis": 2825,
      "9999": 2826,
      "generate": 2827,
      "requires": 2828,
      "NO": 2829,
      "ld": 2830,
      "nom": 2831,
      "pip": 2832,
      "vocab": 2833,
      "Ġfalse": 2834,
      "Ġbar": 2835,
      "ĠTool": 2836,
      "upper": 2837,
      "thropic": 2838,
      "vious": 2839,
      "Ġexception": 2840,
      "Ġstd": 2841,
      "ĠImport": 2842,
      "active": 2843,
      "spect": 2844,
      "Layout": 2845,
      "Command": 2846,
      "Up": 2847,
      "audio": 2848,
      "bg": 2849,
      "cmd": 2850,
      "Ġ._": 2851,
      "inner": 2852,
      "dered": 2853,
      "utable": 2854,
      "Ġwarnings": 2855,
      "Ġ({": 2856,
      "ĠSp": 2857,
      "').": 2858,
      "ĠResponse": 2859,
      "tries": 2860,
      "track": 2861,
      "ĠURL": 2862,
      "stats": 2863,
      "253": 2864,
      "Ġrequests": 2865,
      "ĠDefaults": 2866,
      "Fa": 2867,
      "IO": 2868,
      "gon": 2869,
      "google": 2870,
      "hen": 2871,
      "pass": 2872,
      "Ġfind": 2873,
      "Ġreference": 2874,
      "Ġthey": 2875,
      "tester": 2876,
      "Ġpoetry": 2877,
      "difications": 2878,
      "Case": 2879,
      "Font": 2880,
      "Field": 2881,
      "KEY": 2882,
      "bold": 2883,
      "ven": 2884,
      "like": 2885,
      "Ġbeta": 2886,
      "Ġdown": 2887,
      "(\"#": 2888,
      "pyright": 2889,
      "ĠFor": 2890,
      "pende": 2891,
      "Ġwithout": 2892,
      "ĠData": 2893,
      "Ġsupport": 2894,
      "location": 2895,
      "ÐłÑĽÐĴ": 2896,
      "aaaaaaaa": 2897,
      "olygon": 2898,
      "Style": 2899,
      "pare": 2900,
      "whe": 2901,
      "insert": 2902,
      "dete": 2903,
      "Ġflow": 2904,
      "Ġredis": 2905,
      "Ġbet": 2906,
      "ates": 2907,
      "ategor": 2908,
      "ĠAdd": 2909,
      "Ġoff": 2910,
      "Info": 2911,
      "acters": 2912,
      "ready": 2913,
      "ignore": 2914,
      "skill": 2915,
      "iteral": 2916,
      "Ġbuild": 2917,
      "'},": 2918,
      "310": 2919,
      "Frame": 2920,
      "}')": 2921,
      "tebook": 2922,
      "ities": 2923,
      "lip": 2924,
      "prob": 2925,
      "Ġproject": 2926,
      "agic": 2927,
      "bose": 2928,
      "trie": 2929,
      "packages": 2930,
      "padding": 2931,
      "55": 2932,
      "TR": 2933,
      "_{": 2934,
      "txt": 2935,
      "ya": 2936,
      "Ġlib": 2937,
      "Ġllm": 2938,
      "Ġpe": 2939,
      "raction": 2940,
      "ullable": 2941,
      "quare": 2942,
      "Ġbefore": 2943,
      "ability": 2944,
      "Connection": 2945,
      "render": 2946,
      "ATED": 2947,
      "astapi": 2948,
      "Ġlevel": 2949,
      "BaseModel": 2950,
      "agents": 2951,
      "ABLE": 2952,
      "ĠHTML": 2953,
      "=[\"": 2954,
      "cat": 2955,
      "final": 2956,
      "sa": 2957,
      "symbol": 2958,
      "total": 2959,
      "Ġcle": 2960,
      "meta": 2961,
      "Ġsave": 2962,
      "Ġinteger": 2963,
      "didate": 2964,
      "service": 2965,
      "ches": 2966,
      "Ġparameters": 2967,
      "ĠVector": 2968,
      "tical": 2969,
      "Prompt": 2970,
      "Ġinterval": 2971,
      "ĠTestClient": 2972,
      "ĠComp": 2973,
      "Ġcompatible": 2974,
      ")):": 2975,
      "rl": 2976,
      "yn": 2977,
      "zure": 2978,
      "Ġview": 2979,
      "Ġ\"$": 2980,
      "Ġpayload": 2981,
      "Ġschema": 2982,
      "Ġevaluator": 2983,
      "idd": 2984,
      "verted": 2985,
      "pydantic": 2986,
      "opacity": 2987,
      "Ġtools": 2988,
      "mproxy": 2989,
      "19": 2990,
      "75": 2991,
      "Get": 2992,
      "Var": 2993,
      "Vector": 2994,
      "zen": 2995,
      "rent": 2996,
      "required": 2997,
      "stamp": 2998,
      "Ġtf": 2999,
      "rich": 3000,
      "textcase": 3001,
      "Ġexamples": 3002,
      "usage": 3003,
      "Ġtextcase": 3004,
      "lineposition": 3005,
      "itemname": 3006,
      "Ġlineposition": 3007,
      "openapi": 3008,
      "tasks": 3009,
      "caps": 3010,
      "Label": 3011,
      "holder": 3012,
      "sort": 3013,
      "ux": 3014,
      "Ġent": 3015,
      "Ġ//": 3016,
      "detail": 3017,
      "lite": 3018,
      "Ġans": 3019,
      "Ġstra": 3020,
      "ontrol": 3021,
      "ĠOR": 3022,
      "ĠLiteral": 3023,
      "Ġpart": 3024,
      "Ġnamed": 3025,
      "based": 3026,
      "``,": 3027,
      "results": 3028,
      "groupt": 3029,
      "circle": 3030,
      "Ġvariable": 3031,
      "Comp": 3032,
      "ĠTraceback": 3033,
      "iddle": 3034,
      "grouptitle": 3035,
      "Doc": 3036,
      "SQL": 3037,
      "fla": 3038,
      "stderr": 3039,
      "Ġreg": 3040,
      "Ġcomple": 3041,
      "errors": 3042,
      "Ġnoqa": 3043,
      "Ġsome": 3044,
      "ĠCopyright": 3045,
      "Ġmatrix": 3046,
      "ĠQu": 3047,
      "gendgrouptitle": 3048,
      "enchmark": 3049,
      "]],": 3050,
      "cul": 3051,
      "ume": 3052,
      "Ġvi": 3053,
      "peed": 3054,
      "Ġnn": 3055,
      "Ġnullable": 3056,
      "Ġimportlib": 3057,
      "Ġdb": 3058,
      "Ġreturns": 3059,
      "vided": 3060,
      "Ġparameter": 3061,
      "Ġlimit": 3062,
      "ĠKey": 3063,
      "serialize": 3064,
      "Ġcursor": 3065,
      "havi": 3066,
      "fferent": 3067,
      "'}": 3068,
      ");": 3069,
      "QU": 3070,
      "User": 3071,
      "Vi": 3072,
      "_(": 3073,
      "sten": 3074,
      "uff": 3075,
      "invoke": 3076,
      "Ġretry": 3077,
      "uman": 3078,
      "Ġconnection": 3079,
      "mail": 3080,
      "Ġdisplay": 3081,
      "ically": 3082,
      "ĠMo": 3083,
      "Ġcount": 3084,
      "Chunk": 3085,
      "Ġpadding": 3086,
      "70": 3087,
      "78": 3088,
      "game": 3089,
      "non": 3090,
      "pair": 3091,
      "ym": 3092,
      "inf": 3093,
      "only": 3094,
      "terable": 3095,
      "ends": 3096,
      "arange": 3097,
      "rozen": 3098,
      "Ġsign": 3099,
      "unter": 3100,
      "shared": 3101,
      "ĠIN": 3102,
      "Ġenvironment": 3103,
      "Ġmaximum": 3104,
      "vectorstores": 3105,
      "Hello": 3106,
      "Widget": 3107,
      "ique": 3108,
      "pub": 3109,
      "rand": 3110,
      "uct": 3111,
      "respon": 3112,
      "atio": 3113,
      "Ġimplement": 3114,
      "Ġrepresent": 3115,
      "Ġmy": 3116,
      "chor": 3117,
      "idden": 3118,
      "izes": 3119,
      "setup": 3120,
      "ested": 3121,
      "andas": 3122,
      "paths": 3123,
      ")))": 3124,
      "Ġdest": 3125,
      "abstractmethod": 3126,
      "ATE": 3127,
      "astAPI": 3128,
      "Ġtimeout": 3129,
      "links": 3130,
      "responses": 3131,
      "events": 3132,
      "Template": 3133,
      "agicMock": 3134,
      "Auth": 3135,
      "BA": 3136,
      "Py": 3137,
      "Part": 3138,
      "sm": 3139,
      "section": 3140,
      "send": 3141,
      "Ġspec": 3142,
      "ĠAt": 3143,
      "ÐłÐģ": 3144,
      "except": 3145,
      "Ġgo": 3146,
      "ĠImage": 3147,
      "Ġlocal": 3148,
      "ĠMIT": 3149,
      "Inter": 3150,
      "Integer": 3151,
      "Ġtrack": 3152,
      "IST": 3153,
      "straint": 3154,
      "Ġbackground": 3155,
      "Ġoptuna": 3156,
      "Ġenumerate": 3157,
      "Ġelements": 3158,
      "Manager": 3159,
      "'])": 3160,
      "DF": 3161,
      "WS": 3162,
      "ian": 3163,
      "ient": 3164,
      "rt": 3165,
      "Ġtermin": 3166,
      "reason": 3167,
      "itive": 3168,
      "Ġloss": 3169,
      "Ġcombin": 3170,
      "Ġdoctest": 3171,
      "dapt": 3172,
      "CTk": 3173,
      "ĠOpenAI": 3174,
      "Ġskip": 3175,
      "steps": 3176,
      "ĠImportError": 3177,
      "'))": 3178,
      "45": 3179,
      "Check": 3180,
      "ILE": 3181,
      "PH": 3182,
      "ie": 3183,
      "sage": 3184,
      "true": 3185,
      "torch": 3186,
      "less": 3187,
      "anic": 3188,
      "Ġbinary": 3189,
      "ĠTO": 3190,
      "Ġ[-": 3191,
      "velo": 3192,
      "dataclass": 3193,
      "Ġencoding": 3194,
      "Ġhere": 3195,
      "Ġtokenizer": 3196,
      "Ġhandler": 3197,
      "-%": 3198,
      "13": 3199,
      "On": 3200,
      "Sh": 3201,
      "Sto": 3202,
      "With": 3203,
      "sive": 3204,
      "sen": 3205,
      "ÐłÒĳ": 3206,
      "Ġbox": 3207,
      "ĠAI": 3208,
      "Ġconvert": 3209,
      "database": 3210,
      "moji": 3211,
      "ĠDict": 3212,
      "ango": 3213,
      "ĠLLM": 3214,
      "matrix": 3215,
      "DEFAULT": 3216,
      "Ġmatching": 3217,
      "clear": 3218,
      "ĠUnion": 3219,
      "PU": 3220,
      "beta": 3221,
      "cu": 3222,
      "eval": 3223,
      "tmp": 3224,
      "stack": 3225,
      "dev": 3226,
      "Ġinst": 3227,
      "ĊĊĉ": 3228,
      "exceptions": 3229,
      "Ġprovided": 3230,
      "commit": 3231,
      "Ġoutputs": 3232,
      "cols": 3233,
      "summary": 3234,
      "Ġallowed": 3235,
      "Ġedge": 3236,
      "CON": 3237,
      "ia": 3238,
      "imple": 3239,
      "mk": 3240,
      "tc": 3241,
      "eries": 3242,
      "alpha": 3243,
      "asic": 3244,
      "(\"_": 3245,
      "Return": 3246,
      "Ġexten": 3247,
      "keypatch": 3248,
      "ĠVer": 3249,
      "Ġpython": 3250,
      "suffix": 3251,
      "Ġlong": 3252,
      "handler": 3253,
      "extensions": 3254,
      "mobjects": 3255,
      "Ġfeature": 3256,
      "Ġlanguage": 3257,
      "Ġhttpx": 3258,
      "ĠPython": 3259,
      "26": 3260,
      "At": 3261,
      "Adapt": 3262,
      "GEN": 3263,
      "dot": 3264,
      "lar": 3265,
      "Ġold": 3266,
      "era": 3267,
      "hes": 3268,
      "Ġcre": 3269,
      "term": 3270,
      "cope": 3271,
      "Ġ[(": 3272,
      "constructor": 3273,
      "ische": 3274,
      "etri": 3275,
      "ĠFile": 3276,
      "usion": 3277,
      "istant": 3278,
      "Ġbytes": 3279,
      "Exec": 3280,
      "Ġadditional": 3281,
      "bservation": 3282,
      "staticmethod": 3283,
      "IX": 3284,
      "Implemented": 3285,
      "dcc": 3286,
      "qlite": 3287,
      "Â«": 3288,
      "ĠX": 3289,
      "atched": 3290,
      "lex": 3291,
      "ality": 3292,
      "Ġinformation": 3293,
      "âĢ¹": 3294,
      "Ġ[{\"": 3295,
      "very": 3296,
      "ĠCommand": 3297,
      "Ġexc": 3298,
      "Ġconfiguration": 3299,
      "Param": 3300,
      "axes": 3301,
      "ĠProvider": 3302,
      "ÐłÐĨÐ²ÐĤÑŀÐ²ÐĤ": 3303,
      "ÐłÂµÐĴ": 3304,
      "Ġfigure": 3305,
      "IZE": 3306,
      "radius": 3307,
      "UTO": 3308,
      "lue": 3309,
      "uuid": 3310,
      "Ġrate": 3311,
      "Ġ\"._": 3312,
      "Ġaudio": 3313,
      "hed": 3314,
      "ansp": 3315,
      "itmproxy": 3316,
      "people": 3317,
      "Ġwrap": 3318,
      "trial": 3319,
      "urls": 3320,
      "urrency": 3321,
      "created": 3322,
      "Ġauth": 3323,
      "Ġalign": 3324,
      ")}": 3325,
      "36": 3326,
      "MO": 3327,
      "center": 3328,
      "plugin": 3329,
      "specifi": 3330,
      "wrap": 3331,
      "Ġvideo": 3332,
      "decoder": 3333,
      "les": 3334,
      "ensed": 3335,
      "ross": 3336,
      "Ġpatch": 3337,
      "confi": 3338,
      "Ġ15": 3339,
      "ĠCheck": 3340,
      "Ġhash": 3341,
      "classic": 3342,
      "Ġmeta": 3343,
      "arguments": 3344,
      "Ġhasattr": 3345,
      "Ġmanim": 3346,
      "plotlib": 3347,
      "dumps": 3348,
      "Store": 3349,
      "Create": 3350,
      "CSS": 3351,
      "Tensor": 3352,
      "VER": 3353,
      "after": 3354,
      "eg": 3355,
      "fy": 3356,
      "sim": 3357,
      "tab": 3358,
      "seed": 3359,
      "Ġfull": 3360,
      "Ġfmt": 3361,
      "Ġpair": 3362,
      "Ġscale": 3363,
      "Ġmitmproxy": 3364,
      "__)": 3365,
      "Ġdete": 3366,
      "ĠLic": 3367,
      "Ġdocs": 3368,
      "frames": 3369,
      "witter": 3370,
      "Web": 3371,
      "havior": 3372,
      "Adaptor": 3373,
      "No": 3374,
      "Node": 3375,
      "PS": 3376,
      "csv": 3377,
      "sure": 3378,
      "register": 3379,
      "ctx": 3380,
      "lookup": 3381,
      "pedia": 3382,
      "Ġbold": 3383,
      "ular": 3384,
      "illa": 3385,
      "threshold": 3386,
      "properties": 3387,
      "Ġconverted": 3388,
      "Ġlocation": 3389,
      "Ġsepar": 3390,
      "ĠLang": 3391,
      "colorbar": 3392,
      "ift": 3393,
      "Ġfilename": 3394,
      "Session": 3395,
      "[:,": 3396,
      "Ġsuch": 3397,
      "generator": 3398,
      "master": 3399,
      "Ġindicate": 3400,
      "allel": 3401,
      "ĠModuleType": 3402,
      "ImplementedError": 3403,
      "]))": 3404,
      "day": 3405,
      "focus": 3406,
      "gp": 3407,
      "platform": 3408,
      "window": 3409,
      "Ġ\",": 3410,
      "Ġport": 3411,
      "peat": 3412,
      "lain": 3413,
      "apter": 3414,
      "ves": 3415,
      "Ġdirect": 3416,
      "ĠMagicMock": 3417,
      "tention": 3418,
      "arker": 3419,
      "coded": 3420,
      "Ġalready": 3421,
      "Ġunittest": 3422,
      "asyncio": 3423,
      "embeddings": 3424,
      "ĠYou": 3425,
      "ĊĠĠĠĠĠĠĠĠĠĠĠĠĠĠĠĠĠĠĠĠĠĠĠĠĠĠĠĠĠĠĠĠĠĠĠĠĠĠĠĠĠĠĠ": 3426,
      "Mode": 3427,
      "PO": 3428,
      "To": 3429,
      "URL": 3430,
      "available": 3431,
      "two": 3432,
      "Ġ,": 3433,
      "ĠError": 3434,
      "indi": 3435,
      "Ġci": 3436,
      "Ġreason": 3437,
      "Ġthere": 3438,
      "Ġwrite": 3439,
      "Ġ\"\"\"\\": 3440,
      "ilar": 3441,
      "tom": 3442,
      "proj": 3443,
      "ĠSc": 3444,
      "Ġdifferent": 3445,
      "Ġstore": 3446,
      "Ġdel": 3447,
      "mini": 3448,
      "tach": 3449,
      "Ġkind": 3450,
      "ATA": 3451,
      "mapbox": 3452,
      "rank": 3453,
      "Ġclick": 3454,
      "Ġskill": 3455,
      "aded": 3456,
      "nable": 3457,
      "rm": 3458,
      "tl": 3459,
      "tkinter": 3460,
      "Ġlayout": 3461,
      "ination": 3462,
      "include": 3463,
      "Ġiter": 3464,
      "Ġcer": 3465,
      "Ġplay": 3466,
      "Ġpunct": 3467,
      "Ġbook": 3468,
      "Ġmath": 3469,
      "ypes": 3470,
      "[\"_": 3471,
      "ĠPre": 3472,
      "codes": 3473,
      "ystem": 3474,
      "account": 3475,
      "licit": 3476,
      "Ġcontainer": 3477,
      "duct": 3478,
      "Ġrender": 3479,
      "Ġsecond": 3480,
      "inish": 3481,
      "Ġanswer": 3482,
      "ND": 3483,
      "Tra": 3484,
      "US": 3485,
      "mar": 3486,
      "oom": 3487,
      "pk": 3488,
      "vas": 3489,
      "Ġkeep": 3490,
      "secon": 3491,
      "install": 3492,
      "storage": 3493,
      "descri": 3494,
      "Ġsv": 3495,
      "Ġsamples": 3496,
      "Ġinstructor": 3497,
      "loud": 3498,
      "directory": 3499,
      "ilder": 3500,
      "ither": 3501,
      "Ġprovide": 3502,
      "Ġselected": 3503,
      "Ġsettings": 3504,
      "ness": 3505,
      "ween": 3506,
      "ouse": 3507,
      "ESS": 3508,
      "Ġcomponent": 3509,
      "Ġspace": 3510,
      "Ġnodes": 3511,
      "--------------------------------": 3512,
      "utorial": 3513,
      "extend": 3514,
      "04": 3515,
      "44": 3516,
      "79": 3517,
      "SIZE": 3518,
      "](": 3519,
      "dns": 3520,
      "ited": 3521,
      "rer": 3522,
      "Ġfla": 3523,
      "Ġbg": 3524,
      "stri": 3525,
      "__):": 3526,
      "progress": 3527,
      "ĠOne": 3528,
      "schemas": 3529,
      "Ġclasses": 3530,
      "TestCase": 3531,
      "tickrange": 3532,
      "cret": 3533,
      "EXT": 3534,
      "Ġlicense": 3535,
      "hsv": 3536,
      "highli": 3537,
      "pol": 3538,
      "venv": 3539,
      "wrapper": 3540,
      "oriz": 3541,
      "stant": 3542,
      "ero": 3543,
      "album": 3544,
      "encoder": 3545,
      "Ġsim": 3546,
      "loy": 3547,
      "dify": 3548,
      "Ġmap": 3549,
      "river": 3550,
      "igr": 3551,
      "Ġtests": 3552,
      "colorsrc": 3553,
      "END": 3554,
      "Ġpipeline": 3555,
      "Ġdomain": 3556,
      "vision": 3557,
      "Completion": 3558,
      "rgb": 3559,
      "Ð²ÐĤÑľÐł": 3560,
      "Ġapplied": 3561,
      ",),": 3562,
      "CE": 3563,
      "ET": 3564,
      "Th": 3565,
      "dit": 3566,
      "pq": 3567,
      "pdf": 3568,
      "Ġrow": 3569,
      "ĹÐ¡": 3570,
      "tered": 3571,
      "atat": 3572,
      "roke": 3573,
      "Ġfastapi": 3574,
      "gex": 3575,
      "ummy": 3576,
      "__(\"": 3577,
      "proxy": 3578,
      "ĠStyle": 3579,
      "parts": 3580,
      "ÐłÑĹÐ¡": 3581,
      "Ġdetail": 3582,
      "ĠNumber": 3583,
      "language": 3584,
      "Â±\"),": 3585,
      "licy": 3586,
      "inputs": 3587,
      "interval": 3588,
      "999": 3589,
      "ftware": 3590,
      "Ġidx": 3591,
      "Ġtrans": 3592,
      "ranch": 3593,
      "Ġexisting": 3594,
      "Ġactual": 3595,
      "Formatter": 3596,
      "Ġimg": 3597,
      "cuda": 3598,
      "03": 3599,
      "VAL": 3600,
      "sleep": 3601,
      "Ġquestion": 3602,
      "redis": 3603,
      "release": 3604,
      "ram": 3605,
      "\"\"\")": 3606,
      "(\"\\": 3607,
      "ĠAUTO": 3608,
      "Ġbest": 3609,
      "\"\"\"\\": 3610,
      "ncies": 3611,
      "ĠAnnot": 3612,
      "ĠName": 3613,
      "ĠNOT": 3614,
      "Ġhead": 3615,
      "Ġheader": 3616,
      "background": 3617,
      "INT": 3618,
      "users": 3619,
      "Ġrunner": 3620,
      "cluding": 3621,
      "begin": 3622,
      "ÐłÑĽÐ¡": 3623,
      "Ġevents": 3624,
      "Ġcharacters": 3625,
      "veloper": 3626,
      "48": 3627,
      "Number": 3628,
      "Su": 3629,
      "[[": 3630,
      "css": 3631,
      "ĠÐłÑĸÐłÑĵ": 3632,
      "Ġabs": 3633,
      "alth": 3634,
      "ender": 3635,
      "Ġwell": 3636,
      "tern": 3637,
      "Ġ'--": 3638,
      "pth": 3639,
      "ript": 3640,
      "Ġ[],": 3641,
      "verage": 3642,
      "Ġgdb": 3643,
      "tensor": 3644,
      "Ġfields": 3645,
      "Property": 3646,
      "job": 3647,
      "factor": 3648,
      "ORM": 3649,
      "ĠConstruct": 3650,
      "Ġposition": 3651,
      "({'": 3652,
      "OpenAI": 3653,
      "ĠNotImplementedError": 3654,
      "Serial": 3655,
      "Ġmonkeypatch": 3656,
      "PromptTemplate": 3657,
      "39": 3658,
      "Le": 3659,
      "PY": 3660,
      "QA": 3661,
      "Url": 3662,
      "]])": 3663,
      "pr": 3664,
      "yper": 3665,
      "Ġ&": 3666,
      "Ġte": 3667,
      "Ġtex": 3668,
      "rest": 3669,
      "ression": 3670,
      "orld": 3671,
      "Ġnni": 3672,
      "olume": 3673,
      "Ġwait": 3674,
      "ĠFILE": 3675,
      "examples": 3676,
      "Ġdecor": 3677,
      "bound": 3678,
      "Ġargparse": 3679,
      "Ġ30": 3680,
      "buffer": 3681,
      "Ġalso": 3682,
      "Ġalbum": 3683,
      "Ġruns": 3684,
      "calls": 3685,
      "columns": 3686,
      "chunks": 3687,
      "ffici": 3688,
      "Handler": 3689,
      "Ġclear": 3690,
      "(\"\"\"\\": 3691,
      ":%": 3692,
      "Bu": 3693,
      "csp": 3694,
      "currency": 3695,
      "punct": 3696,
      "Ġlayer": 3697,
      "round": 3698,
      "hether": 3699,
      "Ġfin": 3700,
      "rag": 3701,
      "olved": 3702,
      "ategory": 3703,
      "ĠTuple": 3704,
      "__,": 3705,
      "Ġhistory": 3706,
      "Ġhook": 3707,
      "Ġdeprecated": 3708,
      "ĠLabel": 3709,
      "configure": 3710,
      "ĠUse": 3711,
      "ERATED": 3712,
      "loads": 3713,
      "pipenv": 3714,
      "Database": 3715,
      "Ġsplit": 3716,
      "hook": 3717,
      "ĠĠĠĠĠĠĠĠĠĠĠĠĠĠĠĠĠĠ": 3718,
      "Ġclip": 3719,
      "olynom": 3720,
      "Env": 3721,
      "stead": 3722,
      "Ġfilter": 3723,
      "Ġoptimizer": 3724,
      "ategorical": 3725,
      "descriptions": 3726,
      "olynomial": 3727,
      "FT": 3728,
      "`\"\"\")": 3729,
      "gu": 3730,
      "lr": 3731,
      "itial": 3732,
      "Ġsf": 3733,
      "Ġinstead": 3734,
      "Ġmerge": 3735,
      "Ġetc": 3736,
      "through": 3737,
      "Ġseed": 3738,
      "ontain": 3739,
      "Ġnames": 3740,
      "ÐłÐĨÐł": 3741,
      "tence": 3742,
      "formats": 3743,
      "Ġattn": 3744,
      "redit": 3745,
      "Stream": 3746,
      "oomed": 3747,
      "CTION": 3748,
      "2424": 3749,
      "Ġoverwit": 3750,
      "Ġopenai": 3751,
      "mprove": 3752,
      "Ġappear": 3753,
      "hello": 3754,
      "ĠTHIS": 3755,
      "basedatat": 3756,
      "ĠModifications": 3757,
      "ientation": 3758,
      "GENERATED": 3759,
      "Ġoverwitten": 3760,
      "basedatatypes": 3761,
      ")\",": 3762,
      "CA": 3763,
      "Embedding": 3764,
      "HE": 3765,
      "]]:": 3766,
      "draw": 3767,
      "evaluator": 3768,
      "gpt": 3769,
      "oint": 3770,
      "ops": 3771,
      "rit": 3772,
      "tutorial": 3773,
      "ws": 3774,
      "atal": 3775,
      "arrow": 3776,
      "Ġcmd": 3777,
      "Ġcenter": 3778,
      "Ġrel": 3779,
      "asarray": 3780,
      "Ġ[[": 3781,
      "Ġ11": 3782,
      "vec": 3783,
      "Ġwithin": 3784,
      "icro": 3785,
      "Ġdataclasses": 3786,
      "Ġprevious": 3787,
      "Ġfix": 3788,
      "Ġapplication": 3789,
      "Example": 3790,
      "ALL": 3791,
      "Ġzip": 3792,
      "foobar": 3793,
      "Ġcupyx": 3794,
      "ÐłÐĭÐł": 3795,
      "www": 3796,
      "Ġembeddings": 3797,
      "password": 3798,
      "Ġbetween": 3799,
      "Ġpeople": 3800,
      "([\"": 3801,
      "Al": 3802,
      "DI": 3803,
      "Qu": 3804,
      "Schema": 3805,
      "jango": 3806,
      "ote": 3807,
      "sql": 3808,
      "secret": 3809,
      "Ġcapt": 3810,
      "Ġreq": 3811,
      "Ġresp": 3812,
      "digit": 3813,
      "cket": 3814,
      "ssible": 3815,
      "(\"--": 3816,
      "edge": 3817,
      "Ġ16": 3818,
      "Ġstruct": 3819,
      "ĠSet": 3820,
      "Ġgrid": 3821,
      "ĠIterable": 3822,
      "ĠOn": 3823,
      "intermediate": 3824,
      "``.": 3825,
      "sume": 3826,
      "documentation": 3827,
      "ĠState": 3828,
      "orizont": 3829,
      "%,": 3830,
      "Call": 3831,
      "Cache": 3832,
      "COL": 3833,
      "DA": 3834,
      "LA": 3835,
      "Lang": 3836,
      "VMobject": 3837,
      "hing": 3838,
      "rs": 3839,
      "ving": 3840,
      "zilla": 3841,
      "reg": 3842,
      "Ġpattern": 3843,
      "Ġret": 3844,
      "Ġbody": 3845,
      "display": 3846,
      "Ġmapping": 3847,
      "Ġass": 3848,
      "Ġexact": 3849,
      "Ġdictionary": 3850,
      "ics": 3851,
      "ĠOr": 3852,
      "Ġchat": 3853,
      "labels": 3854,
      "cause": 3855,
      "compile": 3856,
      "success": 3857,
      "rawl": 3858,
      "Ġabout": 3859,
      "wikipedia": 3860,
      "issue": 3861,
      "Ġdisabled": 3862,
      "slices": 3863,
      "fficient": 3864,
      "%)')": 3865,
      "'{": 3866,
      "({\"": 3867,
      "37": 3868,
      "Async": 3869,
      "Class": 3870,
      "Pool": 3871,
      "Ver": 3872,
      "Window": 3873,
      "fer": 3874,
      "ices": 3875,
      "multiple": 3876,
      "wn": 3877,
      "Ġrich": 3878,
      "reference": 3879,
      "derer": 3880,
      "Ġtgt": 3881,
      "Ġtake": 3882,
      "altime": 3883,
      "Ġsingle": 3884,
      "Ġinvalid": 3885,
      "logging": 3886,
      "lish": 3887,
      "olute": 3888,
      "Ġbit": 3889,
      "Ġ'.": 3890,
      "Ġ{{": 3891,
      "scroll": 3892,
      "Ġoriginal": 3893,
      "Ġgot": 3894,
      "Ġdescri": 3895,
      "Ġdevice": 3896,
      "ĠMock": 3897,
      "Ġchannel": 3898,
      "Ġchannels": 3899,
      "ected": 3900,
      "weet": 3901,
      "ĠHe": 3902,
      "later": 3903,
      "Ġattribute": 3904,
      "oolean": 3905,
      "objects": 3906,
      "1111": 3907,
      "bsocket": 3908,
      "datasets": 3909,
      "miss": 3910,
      "lowercase": 3911,
      "cycle": 3912,
      "ĠTypeError": 3913,
      "Ġchunks": 3914,
      "allowed": 3915,
      "View": 3916,
      "Ġimplementation": 3917,
      "Box": 3918,
      "Lim": 3919,
      "Option": 3920,
      "cla": 3921,
      "oot": 3922,
      "Ġ$": 3923,
      "Ġentry": 3924,
      "determin": 3925,
      "encode": 3926,
      "Ġredu": 3927,
      "series": 3928,
      "ĠCreate": 3929,
      "amera": 3930,
      "shift": 3931,
      "ailo": 3932,
      "mber": 3933,
      "markdown": 3934,
      "answer": 3935,
      "Channel": 3936,
      "=[{": 3937,
      "TestChange": 3938,
      "before": 3939,
      "1234": 3940,
      "Ġminimal": 3941,
      "changes": 3942,
      "dential": 3943,
      "Settings": 3944,
      "Ġboth": 3945,
      "limiter": 3946,
      "GLVMobject": 3947,
      "pendencies": 3948,
      "orizontal": 3949,
      ")],": 3950,
      "/{": 3951,
      "Dire": 3952,
      "TE": 3953,
      "cut": 3954,
      "fetch": 3955,
      "hat": 3956,
      "kill": 3957,
      "mer": 3958,
      "replay": 3959,
      "orp": 3960,
      "Ġ\"\")": 3961,
      "Ġplatform": 3962,
      "peech": 3963,
      "âĢº": 3964,
      "Ġwarning": 3965,
      "ĠToken": 3966,
      "ely": 3967,
      "tices": 3968,
      "Ġhost": 3969,
      "Ġenabled": 3970,
      "press": 3971,
      "ÐłÐİÐ¡": 3972,
      "Ġcontrol": 3973,
      "ĠConsole": 3974,
      "Ġobjects": 3975,
      "CHAN": 3976,
      "templateitemname": 3977,
      "trained": 3978,
      "prompts": 3979,
      "ĠAnnotated": 3980,
      "ailover": 3981,
      ".,": 3982,
      "05": 3983,
      "Be": 3984,
      "Code": 3985,
      "Card": 3986,
      "Module": 3987,
      "PRE": 3988,
      "dm": 3989,
      "gits": 3990,
      "je": 3991,
      "oices": 3992,
      "pg": 3993,
      "warn": 3994,
      "alias": 3995,
      "artist": 3996,
      "ones": 3997,
      "toml": 3998,
      "Replace": 3999,
      "Ġbecause": 4000,
      "Ġdistance": 4001,
      "ĠFont": 4002,
      "imation": 4003,
      "Ġsend": 4004,
      "structions": 4005,
      "notebook": 4006,
      "sources": 4007,
      "weights": 4008,
      "mission": 4009,
      "Ð²ÐĤÑĽÐł": 4010,
      "blocks": 4011,
      "gorith": 4012,
      "Ġcustomtkinter": 4013,
      "OutputParser": 4014,
      "Array": 4015,
      "Ġvia": 4016,
      "CO": 4017,
      "Evaluator": 4018,
      "KEN": 4019,
      "Line": 4020,
      "Socket": 4021,
      "ValueError": 4022,
      "dropout": 4023,
      "tx": 4024,
      "ions": 4025,
      "Ġequal": 4026,
      "Ġtop": 4027,
      "ĠAS": 4028,
      "ĠString": 4029,
      "\"][": 4030,
      "Ġsequence": 4031,
      "transp": 4032,
      "('\\": 4033,
      "ĠRequest": 4034,
      "ĠEmbedding": 4035,
      "Ġchain": 4036,
      "Invalid": 4037,
      "Ġ</": 4038,
      "ĠHand": 4039,
      "ĠWhen": 4040,
      "Ġsupported": 4041,
      "Ġattr": 4042,
      "ĠExamples": 4043,
      "ĠInput": 4044,
      "ĠConfig": 4045,
      "Ġagents": 4046,
      "svg": 4047,
      "ROM": 4048,
      "Ġbackend": 4049,
      "Ċĉĉĉĉĉĉ": 4050,
      "candidate": 4051,
      "extract": 4052,
      "IGHT": 4053,
      "PHA": 4054,
      "AGE": 4055,
      "ger": 4056,
      "na": 4057,
      "xel": 4058,
      "record": 4059,
      "Ġsymbol": 4060,
      "Ġspeed": 4061,
      "Ġ''": 4062,
      "ĠTh": 4063,
      "tests": 4064,
      "__()": 4065,
      "come": 4066,
      "cogn": 4067,
      "ĠCSS": 4068,
      "Ġhover": 4069,
      "exception": 4070,
      "ĠOutput": 4071,
      "ĠNO": 4072,
      "tenv": 4073,
      "web": 4074,
      "Ġpaths": 4075,
      "Ġhandle": 4076,
      "void": 4077,
      "6666": 4078,
      "epochs": 4079,
      "operation": 4080,
      "ĠMessage": 4081,
      "Ġarchive": 4082,
      "Ġterminal": 4083,
      "#\",": 4084,
      "My": 4085,
      "VE": 4086,
      "go": 4087,
      "Ġvalidate": 4088,
      "del": 4089,
      "Ġcal": 4090,
      "itor": 4091,
      "Ġinsert": 4092,
      "Ġthem": 4093,
      "Ġeffect": 4094,
      "001": 4095,
      "Ġbeh": 4096,
      "Ġlower": 4097,
      "backend": 4098,
      "acter": 4099,
      "username": 4100,
      "Ġnumbers": 4101,
      "ĠGet": 4102,
      "LECT": 4103,
      "Logger": 4104,
      "ĠChart": 4105,
      "Ġ1000": 4106,
      "Enter": 4107,
      "issing": 4108,
      "ÐłÒĳÐ¡": 4109,
      "mkdir": 4110,
      "\"(?": 4111,
      ".')": 4112,
      "96": 4113,
      "AME": 4114,
      "Fi": 4115,
      "He": 4116,
      "Is": 4117,
      "Ra": 4118,
      "][\"": 4119,
      "bit": 4120,
      "evalu": 4121,
      "hist": 4122,
      "jor": 4123,
      "mult": 4124,
      "Ġerr": 4125,
      "developer": 4126,
      "erature": 4127,
      "Ġplt": 4128,
      "Ġremain": 4129,
      "Ġretrie": 4130,
      "listen": 4131,
      "Ġ{},": 4132,
      "izable": 4133,
      "ĠItem": 4134,
      "ancel": 4135,
      "Ġhex": 4136,
      "internal": 4137,
      "overload": 4138,
      "Ġinputs": 4139,
      "Ġfailed": 4140,
      "handoff": 4141,
      "ĠStudio": 4142,
      "called": 4143,
      "children": 4144,
      "decimal": 4145,
      "Ġseconds": 4146,
      "Ġstrategy": 4147,
      "Document": 4148,
      "small": 4149,
      "By": 4150,
      "Image": 4151,
      "PAT": 4152,
      "au": 4153,
      "eded": 4154,
      "ja": 4155,
      "oftware": 4156,
      "payload": 4157,
      "scope": 4158,
      "ude": 4159,
      "ush": 4160,
      "year": 4161,
      "decode": 4162,
      "Ġfairseq": 4163,
      "Ġrecord": 4164,
      "tifi": 4165,
      "linked": 4166,
      "Ġpost": 4167,
      "execution": 4168,
      "00000000": 4169,
      "clip": 4170,
      "Ġmodify": 4171,
      "Ġerrors": 4172,
      "Ġresolve": 4173,
      "Ġexists": 4174,
      "kernel": 4175,
      "zeros": 4176,
      "28": 4177,
      "Arg": 4178,
      "Back": 4179,
      "ee": 4180,
      "hone": 4181,
      "oun": 4182,
      "uit": 4183,
      "wag": 4184,
      "{{": 4185,
      "}])": 4186,
      "alic": 4187,
      "heap": 4188,
      "Ġface": 4189,
      "ĠTra": 4190,
      "tour": 4191,
      "ather": 4192,
      "Ġbeen": 4193,
      "ĠFastAPI": 4194,
      "Ġstack": 4195,
      "Ġloop": 4196,
      "ĠLo": 4197,
      "ools": 4198,
      "address": 4199,
      "ired": 4200,
      "Ġscipy": 4201,
      "soft": 4202,
      "ÐłÑĸÐ²ÐĤÑĻ": 4203,
      "parameter": 4204,
      "checkpoint": 4205,
      "Ġtasks": 4206,
      "domain": 4207,
      "Ġverbose": 4208,
      "canvas": 4209,
      "widgets": 4210,
      "Ġtraining": 4211,
      "decision": 4212,
      "scalar": 4213,
      "Ġexactly": 4214,
      "tificate": 4215,
      "Argument": 4216,
      "AG": 4217,
      "Action": 4218,
      "Eval": 4219,
      "Opt": 4220,
      "]+": 4221,
      "false": 4222,
      "player": 4223,
      "pattern": 4224,
      "rary": 4225,
      "zy": 4226,
      "zip": 4227,
      "reset": 4228,
      "repeat": 4229,
      "Ġtkinter": 4230,
      "Ġside": 4231,
      "ceive": 4232,
      "Ġthese": 4233,
      "unselected": 4234,
      "convert": 4235,
      "vertex": 4236,
      "ĠCloud": 4237,
      "ips": 4238,
      "Ġensure": 4239,
      "dings": 4240,
      "ÐłÐİÐ²ÐĤÑĻ": 4241,
      "Ġpygame": 4242,
      "ATION": 4243,
      "Ġadded": 4244,
      "submobjects": 4245,
      "Stat": 4246,
      "ĠDetermin": 4247,
      "Ġ\"#/": 4248,
      "ĠBaseTraceHierarchyType": 4249,
      "123": 4250,
      "ĠProvide": 4251,
      "Ġjust": 4252,
      "Ġcontains": 4253,
      "Ġcorrect": 4254,
      "Ġedit": 4255,
      "ĠWeb": 4256,
      "container": 4257,
      "ĠDocument": 4258,
      "Ġdecimal": 4259,
      "Ġissue": 4260,
      "ĠQuery": 4261,
      "Ax": 4262,
      "Graph": 4263,
      "OK": 4264,
      "ause": 4265,
      "fin": 4266,
      "orter": 4267,
      "Ġcv": 4268,
      "Ġreport": 4269,
      "Ġsort": 4270,
      "Ġ'{": 4271,
      "exc": 4272,
      "Ġsen": 4273,
      "mount": 4274,
      "Ġitalic": 4275,
      "way": 4276,
      "INF": 4277,
      "maxpoints": 4278,
      "Ġpipenv": 4279,
      "returncode": 4280,
      "resolve": 4281,
      "curity": 4282,
      "lative": 4283,
      "aker": 4284,
      "Ċĉĉĉĉĉ": 4285,
      "Ġdocuments": 4286,
      "LOW": 4287,
      "Ġotherwise": 4288,
      "Ð¡ÑĻÐł": 4289,
      "helper": 4290,
      "dropdown": 4291,
      "\"(?<": 4292,
      "EvalChain": 4293,
      "-{": 4294,
      "23": 4295,
      "EP": 4296,
      "Find": 4297,
      "Trial": 4298,
      "You": 4299,
      "br": 4300,
      "gl": 4301,
      "volume": 4302,
      "Ġ?": 4303,
      "Ġjoin": 4304,
      "ince": 4305,
      "orary": 4306,
      "deep": 4307,
      "Ġaren": 4308,
      "meth": 4309,
      "metric": 4310,
      "defined": 4311,
      "Ġour": 4312,
      "unit": 4313,
      "unittest": 4314,
      "Ġepoch": 4315,
      "Ġeven": 4316,
      "Ġeither": 4317,
      "Ġwant": 4318,
      "ĠTime": 4319,
      "Ġfork": 4320,
      "ĠSh": 4321,
      "igure": 4322,
      "Ġhidden": 4323,
      "omat": 4324,
      "should": 4325,
      "Ġprob": 4326,
      "ube": 4327,
      "Ġvenv": 4328,
      "ĠBu": 4329,
      "ĠVGroup": 4330,
      "Ġ40": 4331,
      "ĠWhether": 4332,
      "noise": 4333,
      "Ġscroll": 4334,
      "tegr": 4335,
      "DataFrame": 4336,
      "failure": 4337,
      "ORS": 4338,
      "groups": 4339,
      "sorted": 4340,
      "activ": 4341,
      "cords": 4342,
      "cursor": 4343,
      "ÐłÂµÐ¡": 4344,
      "Ġweights": 4345,
      "Ġmanager": 4346,
      "grad": 4347,
      "Ġlinks": 4348,
      "Ġwidgets": 4349,
      "Ġseparated": 4350,
      "stribu": 4351,
      "ontainer": 4352,
      "dentials": 4353,
      ")[": 4354,
      "98": 4355,
      ":]": 4356,
      "Per": 4357,
      "bias": 4358,
      "fr": 4359,
      "gb": 4360,
      "king": 4361,
      "known": 4362,
      "encoding": 4363,
      "Ġimp": 4364,
      "Ġsli": 4365,
      "entic": 4366,
      "diction": 4367,
      "Ġdon": 4368,
      "Ġcontra": 4369,
      "maker": 4370,
      "oci": 4371,
      "Ġselection": 4372,
      "ques": 4373,
      "Ġalpha": 4374,
      "simple": 4375,
      "Ġgenerated": 4376,
      "speech": 4377,
      "Ġpadx": 4378,
      "ghted": 4379,
      "Ġextract": 4380,
      "Ġstdout": 4381,
      "iddleware": 4382,
      "Ġcircle": 4383,
      ".\\": 4384,
      "68": 4385,
      "Ad": 4386,
      "DATA": 4387,
      "Found": 4388,
      "Mo": 4389,
      "SP": 4390,
      "UFF": 4391,
      "bb": 4392,
      "bpe": 4393,
      "nan": 4394,
      "nas": 4395,
      "nested": 4396,
      "ras": 4397,
      "ratio": 4398,
      "Ġge": 4399,
      "retries": 4400,
      "deprec": 4401,
      "let": 4402,
      "Ġtyper": 4403,
      "Ġctx": 4404,
      "Ġshell": 4405,
      "Ġnorm": 4406,
      "orth": 4407,
      "Ġembed": 4408,
      "()))": 4409,
      "getLogger": 4410,
      "ĠAl": 4411,
      "Ġhref": 4412,
      "ĠMy": 4413,
      "Ġparts": 4414,
      "fft": 4415,
      "colors": 4416,
      "Index": 4417,
      "tracing": 4418,
      "rcuit": 4419,
      "six": 4420,
      "astype": 4421,
      "Ġkeys": 4422,
      "styles": 4423,
      "numbers": 4424,
      "nik": 4425,
      "Ġperson": 4426,
      "StateChange": 4427,
      "Ð¡ÑŁÐł": 4428,
      "cert": 4429,
      "Space": 4430,
      "repr": 4431,
      "Ġapplies": 4432,
      "scaling": 4433,
      "safe": 4434,
      "ynam": 4435,
      "gorithm": 4436,
      "\"})": 4437,
      "27": 4438,
      "Ent": 4439,
      "LU": 4440,
      "Warning": 4441,
      "multi": 4442,
      "png": 4443,
      "shell": 4444,
      "win": 4445,
      "wards": 4446,
      "Ġserial": 4447,
      "Ġ\"%": 4448,
      "lev": 4449,
      "Ġtmp": 4450,
      "Ġcalled": 4451,
      "Ġfoo": 4452,
      "cture": 4453,
      "cel": 4454,
      "Ġinspect": 4455,
      "unic": 4456,
      "Ġwould": 4457,
      "Ġ'\\": 4458,
      "otion": 4459,
      "Ġ-=": 4460,
      "Ġ[])": 4461,
      "Ġhighli": 4462,
      "Ġgen": 4463,
      "('--": 4464,
      "Ġyear": 4465,
      "Ġcompletion": 4466,
      "trics": 4467,
      "Ġvar": 4468,
      "okie": 4469,
      "access": 4470,
      "acquire": 4471,
      "ought": 4472,
      "Ġcommon": 4473,
      "Ġtracing": 4474,
      "processor": 4475,
      "images": 4476,
      "Ġfailure": 4477,
      "Ġupdated": 4478,
      "Ġexplicit": 4479,
      "theme": 4480,
      "initialized": 4481,
      "optimize": 4482,
      "ÐłÑĳÐĴ": 4483,
      "================": 4484,
      "cpu": 4485,
      "bottom": 4486,
      "uppercase": 4487,
      "Update": 4488,
      "94": 4489,
      "Table": 4490,
      "azure": 4491,
      "emoji": 4492,
      "fallback": 4493,
      "hy": 4494,
      "ls": 4495,
      "pin": 4496,
      "plain": 4497,
      "rp": 4498,
      "inte": 4499,
      "inst": 4500,
      "arted": 4501,
      "route": 4502,
      "disp": 4503,
      "Ġangle": 4504,
      "ĊĊĉĉ": 4505,
      "ĠSer": 4506,
      "perim": 4507,
      "amili": 4508,
      "Ġbeing": 4509,
      "Ġprogress": 4510,
      "Ġlow": 4511,
      "('/": 4512,
      "ĠDi": 4513,
      "trials": 4514,
      "timestamp": 4515,
      "ĠEvent": 4516,
      "Ġpresent": 4517,
      "Ġfonts": 4518,
      "Ġ{})": 4519,
      "ĠExample": 4520,
      "ledge": 4521,
      "udy": 4522,
      "Ġtempfile": 4523,
      "nowledge": 4524,
      "Ġopacity": 4525,
      "zero": 4526,
      "Ð¿ÑĹÐħÐł": 4527,
      "Ð¡ÑĽÐł": 4528,
      "Ġdestination": 4529,
      "PATH": 4530,
      "periment": 4531,
      "amilies": 4532,
      "Ali": 4533,
      "Date": 4534,
      "OP": 4535,
      "Tr": 4536,
      "af": 4537,
      "oauth": 4538,
      "ping": 4539,
      "delay": 4540,
      "aller": 4541,
      "itory": 4542,
      "Ġreset": 4543,
      "urface": 4544,
      "Ġwords": 4545,
      "ĠAs": 4546,
      "assign": 4547,
      "ĠClient": 4548,
      "Ġdir": 4549,
      "short": 4550,
      "lying": 4551,
      "ĠInc": 4552,
      "Ġdelay": 4553,
      "mob": 4554,
      "Ġmemory": 4555,
      "ĠLe": 4556,
      "ysql": 4557,
      "ifier": 4558,
      "female": 4559,
      "ayment": 4560,
      "pick": 4561,
      "pository": 4562,
      "placeholder": 4563,
      "ORT": 4564,
      "ĠConnection": 4565,
      ":`~": 4566,
      "ighb": 4567,
      "tables": 4568,
      "cursive": 4569,
      "ĠProject": 4570,
      "handle": 4571,
      "Ġrenderable": 4572,
      "Ġrequires": 4573,
      "Ġdisable": 4574,
      "hashes": 4575,
      "features": 4576,
      "Ġinstalled": 4577,
      "indices": 4578,
      "Ġbehind": 4579,
      "Ġcontrast": 4580,
      "38": 4581,
      "Retri": 4582,
      "Source": 4583,
      "duration": 4584,
      "fs": 4585,
      "gree": 4586,
      "icon": 4587,
      "mis": 4588,
      "wd": 4589,
      "Ġcard": 4590,
      "asure": 4591,
      "Ġocsp": 4592,
      "ĊĠĠĠĠĠĠĠĠĠĠĠĠĠĠĠĠĠĠĠĠ": 4593,
      "terator": 4594,
      "Ġimports": 4595,
      "tocol": 4596,
      "Ġbeets": 4597,
      "Ġdimen": 4598,
      "mozilla": 4599,
      "reater": 4600,
      "okies": 4601,
      "trategy": 4602,
      "Ġsetup": 4603,
      "Ġcannot": 4604,
      "Method": 4605,
      "Ġattributes": 4606,
      "unknown": 4607,
      "fact": 4608,
      "Ġspans": 4609,
      "Log": 4610,
      "Ġwheel": 4611,
      "SELECT": 4612,
      "Ġhandoff": 4613,
      "ibility": 4614,
      "Ġcontaining": 4615,
      "Ġpositive": 4616,
      "price": 4617,
      "optimizer": 4618,
      "Ġplaces": 4619,
      "xxxxxxxxxxxxxxxx": 4620,
      "Ġcombinations": 4621,
      "Successful": 4622,
      "CHANGE": 4623,
      "07": 4624,
      "67": 4625,
      ":\\": 4626,
      "Add": 4627,
      "Edit": 4628,
      "MA": 4629,
      "Please": 4630,
      "UB": 4631,
      "cv": 4632,
      "dtickrange": 4633,
      "fd": 4634,
      "hint": 4635,
      "kits": 4636,
      "sqlite": 4637,
      "}{": 4638,
      "reet": 4639,
      "requen": 4640,
      "demo": 4641,
      "rot": 4642,
      "Ġfd": 4643,
      "Ġpool": 4644,
      "ctive": 4645,
      "Ġrelative": 4646,
      "Ġnlp": 4647,
      "ateway": 4648,
      "setattr": 4649,
      "ĠControl": 4650,
      "Required": 4651,
      "Ġdirection": 4652,
      "Ġglobal": 4653,
      "Ġprops": 4654,
      "ctors": 4655,
      "uster": 4656,
      "ĠOption": 4657,
      "prepare": 4658,
      "ways": 4659,
      "feat": 4660,
      "Ġunit": 4661,
      "ively": 4662,
      "Ġtimes": 4663,
      "Ġlegend": 4664,
      "fail": 4665,
      "Ġoverride": 4666,
      "TOKEN": 4667,
      "rollable": 4668,
      "Toolkit": 4669,
      "Ġaccept": 4670,
      "Ġexecute": 4671,
      "endswith": 4672,
      "Ġdetails": 4673,
      "ĠNOQA": 4674,
      "wagger": 4675,
      "ĠDetermines": 4676,
      "HO": 4677,
      "Hook": 4678,
      "Of": 4679,
      "Optional": 4680,
      "dup": 4681,
      "dition": 4682,
      "folder": 4683,
      "fusion": 4684,
      "hs": 4685,
      "lan": 4686,
      "long": 4687,
      "ogram": 4688,
      "uint": 4689,
      "}},": 4690,
      "Ġtag": 4691,
      "Ġident": 4692,
      "ropy": 4693,
      "anis": 4694,
      "anthropic": 4695,
      "Ġfamilies": 4696,
      "Ġ'-": 4697,
      "ĠTable": 4698,
      "namelength": 4699,
      "conv": 4700,
      "ĠCli": 4701,
      "ĠCPU": 4702,
      "Ġbegin": 4703,
      "ĠPI": 4704,
      "Ġdelete": 4705,
      "Ġyaml": 4706,
      "pred": 4707,
      "timeError": 4708,
      "Ġtypeface": 4709,
      "aries": 4710,
      "Ġker": 4711,
      "pider": 4712,
      "toolkits": 4713,
      "Ġcommas": 4714,
      "site": 4715,
      "fake": 4716,
      "Ġpossible": 4717,
      "****": 4718,
      "force": 4719,
      "Ġ60": 4720,
      "Ġstyled": 4721,
      "SET": 4722,
      "Ġminimum": 4723,
      "common": 4724,
      "Ġmatplotlib": 4725,
      "Ġexecution": 4726,
      "Ġcapitalized": 4727,
      "Ġcapitalization": 4728,
      "HTTPValidationError": 4729,
      "Ġremoved": 4730,
      "complete": 4731,
      "wheel": 4732,
      "ĠTODO": 4733,
      "Ġboldness": 4734,
      "Ġdecoration": 4735,
      "requency": 4736,
      "(\\": 4737,
      "06": 4738,
      "08": 4739,
      "500": 4740,
      "95": 4741,
      "=_": 4742,
      "DS": 4743,
      "Dis": 4744,
      "Function": 4745,
      "MPT": 4746,
      "Str": 4747,
      "cd": 4748,
      "cas": 4749,
      "global": 4750,
      "iod": 4751,
      "math": 4752,
      "used": 4753,
      "vs": 4754,
      "ynt": 4755,
      "Ġrows": 4756,
      "ĊĠĠĠĠĠĠĠĠĠĠĠĠ": 4757,
      "Ġaccess": 4758,
      "Ġavoid": 4759,
      "here": 4760,
      "Ġcy": 4761,
      "Ġbound": 4762,
      "Ġboolean": 4763,
      "Ġtheme": 4764,
      "distribution": 4765,
      "unique": 4766,
      "ĠTo": 4767,
      "conf": 4768,
      "console": 4769,
      "constant": 4770,
      "scene": 4771,
      "Ġstorage": 4772,
      "Ġseen": 4773,
      "Ġsection": 4774,
      "argin": 4775,
      "updated": 4776,
      "Ġatol": 4777,
      "Ġaxes": 4778,
      "functions": 4779,
      "documents": 4780,
      "Ġvertex": 4781,
      "media": 4782,
      "witch": 4783,
      "(\"/\")": 4784,
      "Ġactive": 4785,
      "Ġindices": 4786,
      "ĠNotRequired": 4787,
      "ÑŀÐł": 4788,
      "Distance": 4789,
      "where": 4790,
      "VectorStore": 4791,
      "uffle": 4792,
      "Executor": 4793,
      "igrations": 4794,
      "delta": 4795,
      "42": 4796,
      "CP": 4797,
      "Cre": 4798,
      "Fore": 4799,
      "What": 4800,
      "basic": 4801,
      "dt": 4802,
      "dar": 4803,
      "gre": 4804,
      "gge": 4805,
      "istr": 4806,
      "lank": 4807,
      "ole": 4808,
      "rupt": 4809,
      "tf": 4810,
      "tk": 4811,
      "tle": 4812,
      "uck": 4813,
      "infra": 4814,
      "teps": 4815,
      "oration": 4816,
      "attemp": 4817,
      "hex": 4818,
      "Ġpub": 4819,
      "Ġpandas": 4820,
      "Ġown": 4821,
      "direction": 4822,
      "Ġ'%": 4823,
      "ssl": 4824,
      "Ġdraw": 4825,
      "eds": 4826,
      "ĠCategorical": 4827,
      "Ġrgb": 4828,
      "ĠMax": 4829,
      "agi": 4830,
      "ĠLIST": 4831,
      "ĠValue": 4832,
      "until": 4833,
      "ticle": 4834,
      "256": 4835,
      "Ġuses": 4836,
      "ĠBaseModel": 4837,
      "collection": 4838,
      "refresh": 4839,
      "Ġbased": 4840,
      "Ġsuffix": 4841,
      "ĠTypeVar": 4842,
      "dified": 4843,
      "impl": 4844,
      "relation": 4845,
      "Serializer": 4846,
      "icrosoft": 4847,
      "determinate": 4848,
      "operationId": 4849,
      "Fixture": 4850,
      "120": 4851,
      "AU": 4852,
      "JSON": 4853,
      "LLM": 4854,
      "SION": 4855,
      "TEST": 4856,
      "driver": 4857,
      "efficient": 4858,
      "ien": 4859,
      "lj": 4860,
      "null": 4861,
      "square": 4862,
      "segment": 4863,
      "seek": 4864,
      "ongs": 4865,
      "legendgrouptitle": 4866,
      "Ġag": 4867,
      "Ġpolygon": 4868,
      "Ġsm": 4869,
      "Ġsound": 4870,
      "lier": 4871,
      "Ġ([": 4872,
      "Ġ'#": 4873,
      "else": 4874,
      "Ġconfi": 4875,
      "etadata": 4876,
      "ĠColor": 4877,
      "Ġhigh": 4878,
      "Ġ255": 4879,
      "Ġseth": 4880,
      "Ġselector": 4881,
      "Ġmetric": 4882,
      "ĠObject": 4883,
      "Ġdataclass": 4884,
      ").__": 4885,
      "trade": 4886,
      "uler": 4887,
      "101": 4888,
      "ĠRa": 4889,
      "Ġscript": 4890,
      "lockfile": 4891,
      "ALPHA": 4892,
      "spaces": 4893,
      "ISS": 4894,
      "strategy": 4895,
      "ITE": 4896,
      "Ġzoom": 4897,
      "Ġresolved": 4898,
      "GET": 4899,
      "Ġcorrespon": 4900,
      "ChatModel": 4901,
      "pearance": 4902,
      "...,": 4903,
      "seconds": 4904,
      "54": 4905,
      "As": 4906,
      "CR": 4907,
      "Control": 4908,
      "Do": 4909,
      "Dec": 4910,
      "ama": 4911,
      "ftime": 4912,
      "uer": 4913,
      "}[": 4914,
      "Ġjob": 4915,
      "onical": 4916,
      "Ġicon": 4917,
      "Ġclean": 4918,
      "Ġfraction": 4919,
      "Ġnow": 4920,
      "Ġbranch": 4921,
      "Ġtheir": 4922,
      "Ġeval": 4923,
      "ilt": 4924,
      "ilities": 4925,
      "appearance": 4926,
      "igin": 4927,
      "Rect": 4928,
      "Ġhow": 4929,
      "angulation": 4930,
      "ĠLIC": 4931,
      "Ġengine": 4932,
      "bove": 4933,
      "ÐłÐİÐ²ÐĤÑĻÐł": 4934,
      "ENSE": 4935,
      "([[": 4936,
      "Memory": 4937,
      "compar": 4938,
      "attrs": 4939,
      "iterable": 4940,
      "ixed": 4941,
      "HTML": 4942,
      "structure": 4943,
      "3333": 4944,
      "ĠOpenGLVMobject": 4945,
      "heads": 4946,
      "}}\",": 4947,
      "Ġdoesn": 4948,
      "support": 4949,
      "ometry": 4950,
      "NotFound": 4951,
      "flag": 4952,
      "Ġfinally": 4953,
      "deprecations": 4954,
      "Ġhighlight": 4955,
      "ĠLICENSE": 4956,
      ")\\": 4957,
      "PDF": 4958,
      "Task": 4959,
      "gui": 4960,
      "lation": 4961,
      "qdm": 4962,
      "tte": 4963,
      "}]": 4964,
      "Ġservice": 4965,
      "seth": 4966,
      "iner": 4967,
      "report": 4968,
      "resource": 4969,
      "original": 4970,
      "desc": 4971,
      "attribute": 4972,
      "attributes": 4973,
      "Ġta": 4974,
      "Ġtick": 4975,
      "ĠĠĠĠĠĠĠĠĠ": 4976,
      "ged": 4977,
      "uri": 4978,
      "inger": 4979,
      "Ġobservation": 4980,
      "Ġwindow": 4981,
      "strftime": 4982,
      "this": 4983,
      "spans": 4984,
      "ĠSQL": 4985,
      "ĠSystem": 4986,
      "ĠCode": 4987,
      "policy": 4988,
      "Ġdim": 4989,
      "agram": 4990,
      "ĠLog": 4991,
      "Ġshutil": 4992,
      "Ġparsed": 4993,
      "contents": 4994,
      "weets": 4995,
      "ĠHas": 4996,
      "outputs": 4997,
      "Ġspecific": 4998,
      "Ġcompose": 4999,
      "byte": 5000,
      "positions": 5001,
      "Ġzone": 5002,
      "parsers": 5003,
      "alette": 5004,
      "Ġmost": 5005,
      "generation": 5006,
      "workers": 5007,
      "structured": 5008,
      "blocking": 5009,
      "Ġlanggraph": 5010,
      "Ġchanges": 5011,
      "annotation": 5012,
      "slider": 5013,
      "ilarity": 5014,
      "highlighted": 5015,
      "missing": 5016,
      "47": 5017,
      ">'": 5018,
      "DT": 5019,
      "Figure": 5020,
      "GLM": 5021,
      "IF": 5022,
      "IP": 5023,
      "RG": 5024,
      "bi": 5025,
      "uk": 5026,
      "ĠZ": 5027,
      "Ġutils": 5028,
      "Ġqueue": 5029,
      "regex": 5030,
      "Ġsimple": 5031,
      "ollar": 5032,
      "Ġmissing": 5033,
      "choice": 5034,
      "()),": 5035,
      "Ġ'<": 5036,
      "Ġda": 5037,
      "Ġdur": 5038,
      "counter": 5039,
      "ilter": 5040,
      "ĠSoftware": 5041,
      "Ġhy": 5042,
      "Ġ21": 5043,
      "sha": 5044,
      "Ġsess": 5045,
      "Ġprev": 5046,
      "cay": 5047,
      "outer": 5048,
      "ouble": 5049,
      "Ġdefaults": 5050,
      "Ġscene": 5051,
      "ighted": 5052,
      "modules": 5053,
      "ÐłÑĽÐł": 5054,
      "cii": 5055,
      "variance": 5056,
      "ÐłÐĨÐ²ÐĤÑŀÐ¡Ñļ": 5057,
      "ANT": 5058,
      "Ġmove": 5059,
      "filing": 5060,
      "lush": 5061,
      "STR": 5062,
      "playlist": 5063,
      "unctools": 5064,
      "control": 5065,
      "avig": 5066,
      "Ġfeat": 5067,
      "animation": 5068,
      "archivebox": 5069,
      "supported": 5070,
      "ĠCompose": 5071,
      "pairs": 5072,
      "Status": 5073,
      "aymentCard": 5074,
      ".{": 5075,
      ">\",": 5076,
      "For": 5077,
      "If": 5078,
      "Strategy": 5079,
      "aÐł": 5080,
      "cards": 5081,
      "fc": 5082,
      "flip": 5083,
      "samples": 5084,
      "selection": 5085,
      "repo": 5086,
      "Ġplayer": 5087,
      "geo": 5088,
      "Ġsanic": 5089,
      "pet": 5090,
      "ater": 5091,
      "channel": 5092,
      "Ġassign": 5093,
      "lare": 5094,
      "Ġdump": 5095,
      "edit": 5096,
      "\")]": 5097,
      "blem": 5098,
      "esca": 5099,
      "ĠClass": 5100,
      "ĠCorp": 5101,
      "tite": 5102,
      "\"]:": 5103,
      "poetry": 5104,
      "Ġdistribution": 5105,
      "ĠFace": 5106,
      "Ġhsv": 5107,
      "Ġ24": 5108,
      "Ġ25": 5109,
      "Ġgreater": 5110,
      "Ġdetermin": 5111,
      "aging": 5112,
      "Ġ:=": 5113,
      "Ġresponses": 5114,
      "ĠUS": 5115,
      "ERE": 5116,
      "ĠWidget": 5117,
      "Process": 5118,
      "cessed": 5119,
      "interm": 5120,
      "Ġless": 5121,
      "Storage": 5122,
      "Ġusername": 5123,
      "ĠSelf": 5124,
      "ÐłÐĬar": 5125,
      "offset": 5126,
      "Ġcheckpoint": 5127,
      "ULL": 5128,
      "ART": 5129,
      "Ġopts": 5130,
      "Ġignored": 5131,
      "Ġpady": 5132,
      "doh": 5133,
      "ABC": 5134,
      "Ġsummary": 5135,
      "Ġroute": 5136,
      "dence": 5137,
      "Ġconnect": 5138,
      "ÐłÑĳÐł": 5139,
      "Span": 5140,
      "radiobutton": 5141,
      "ÐłÐıÐł": 5142,
      "Ġqueries": 5143,
      "deredDict": 5144,
      "ĠLicensed": 5145,
      "ggered": 5146,
      "ĠComposeResult": 5147,
      ">`": 5148,
      "Size": 5149,
      "TEXT": 5150,
      "WOR": 5151,
      "aler": 5152,
      "camera": 5153,
      "hu": 5154,
      "kv": 5155,
      "pandas": 5156,
      "war": 5157,
      "zh": 5158,
      "reshape": 5159,
      "redirect": 5160,
      "Ġ\"[": 5161,
      "Ġabove": 5162,
      "Ġcell": 5163,
      "Ġpk": 5164,
      "Ġrespon": 5165,
      "Ġreverse": 5166,
      "Ġsquare": 5167,
      "aster": 5168,
      "Ġob": 5169,
      "dictionary": 5170,
      "Ġwrapper": 5171,
      "strict": 5172,
      "Ġreturned": 5173,
      "Ġ[{": 5174,
      "ĠAN": 5175,
      "verbose": 5176,
      "Ð¡ÐĤ": 5177,
      "Ġstrip": 5178,
      "Ġ).": 5179,
      "=\"{": 5180,
      "Ġ```": 5181,
      "ĠMarker": 5182,
      "found": 5183,
      "moot": 5184,
      "ĠDo": 5185,
      "ĠLink": 5186,
      "ÐłÐİÐłÑĵÐł": 5187,
      "argv": 5188,
      "ĠWin": 5189,
      "ived": 5190,
      "Ġattemp": 5191,
      "numer": 5192,
      "}\".": 5193,
      "ident": 5194,
      "Ġcommands": 5195,
      "rgba": 5196,
      "Runner": 5197,
      "contains": 5198,
      "ĠNote": 5199,
      "ÐłÐģÐĴ": 5200,
      "Ġfixed": 5201,
      "Language": 5202,
      "omatically": 5203,
      "stributed": 5204,
      "rpc": 5205,
      "ingerprint": 5206,
      "GLMobject": 5207,
      "/\",": 5208,
      "300": 5209,
      "Element": 5210,
      "Foot": 5211,
      "HERE": 5212,
      "NUM": 5213,
      "NAME": 5214,
      "cum": 5215,
      "email": 5216,
      "las": 5217,
      "ned": 5218,
      "sses": 5219,
      "tweets": 5220,
      "remo": 5221,
      "orientation": 5222,
      "atches": 5223,
      "mpeg": 5224,
      "Ġsite": 5225,
      "Ġsocket": 5226,
      "Ġsolution": 5227,
      "Ġevery": 5228,
      "lama": 5229,
      "Ġtoml": 5230,
      "Ġform": 5231,
      "ĠSpider": 5232,
      "ĠPer": 5233,
      "ĠIs": 5234,
      "Ġsent": 5235,
      "arer": 5236,
      "ises": 5237,
      "Ġchoices": 5238,
      "dirs": 5239,
      "Ġprepare": 5240,
      "INE": 5241,
      "updates": 5242,
      "ski": 5243,
      "Ġpixel": 5244,
      "Ġfunctions": 5245,
      "download": 5246,
      "ressed": 5247,
      "itecture": 5248,
      "executor": 5249,
      "executable": 5250,
      "prefixes": 5251,
      "tickformat": 5252,
      "Ġqlib": 5253,
      "Ġexpand": 5254,
      "Ġpriority": 5255,
      "ĠTHE": 5256,
      "Ġlicensed": 5257,
      "PROMPT": 5258,
      "Ġoperations": 5259,
      "pipfile": 5260,
      "Ġdownload": 5261,
      "Directory": 5262,
      "Transform": 5263,
      "Ð¡ÐĤÐ¡ÑŁ": 5264,
      "ĠSpiderFoot": 5265,
      ":\",": 5266,
      "Jo": 5267,
      "Li": 5268,
      "MP": 5269,
      "Token": 5270,
      "WA": 5271,
      "browser": 5272,
      "blue": 5273,
      "fit": 5274,
      "ga": 5275,
      "green": 5276,
      "gres": 5277,
      "gative": 5278,
      "uter": 5279,
      "vate": 5280,
      "Ġtester": 5281,
      "dest": 5282,
      "Ġ\")": 5283,
      "Ġtqdm": 5284,
      "alive": 5285,
      "Ġrespect": 5286,
      "Ġsteps": 5287,
      "ĊĠĠĠĠĠĠĠĠĠĠĠĠĠĠĠĠĠĠĠĠĠĠ": 5288,
      "constraint": 5289,
      "tolist": 5290,
      "ĠCustom": 5291,
      "intro": 5292,
      "Ġlook": 5293,
      "...\")": 5294,
      "ĠLock": 5295,
      "Ġmaking": 5296,
      "backoff": 5297,
      "Ġpretrained": 5298,
      "Ġ51": 5299,
      "Ġunique": 5300,
      "states": 5301,
      "Parse": 5302,
      "home": 5303,
      "1000": 5304,
      "requests": 5305,
      "Ġland": 5306,
      "rong": 5307,
      "single": 5308,
      "etail": 5309,
      "training": 5310,
      "bookcase": 5311,
      "ickfont": 5312,
      "Ġtrial": 5313,
      "Ġstatic": 5314,
      "inking": 5315,
      "Ġalias": 5316,
      "whl": 5317,
      "variables": 5318,
      "Ġprimary": 5319,
      "Ġchildren": 5320,
      "Ð¡ÑļÐł": 5321,
      "embedded": 5322,
      "AMP": 5323,
      "Ð²ÐĤÑļÐł": 5324,
      "Ġremote": 5325,
      "Failed": 5326,
      "Ġoffset": 5327,
      "Ġcomplete": 5328,
      "culate": 5329,
      "Ġextension": 5330,
      "Ġmanimlib": 5331,
      "Ġdetections": 5332,
      "ĠLicense": 5333,
      "INTER": 5334,
      "ĠOrderedDict": 5335,
      "Opts": 5336,
      "interest": 5337,
      "ĠCorporation": 5338,
      "ĠFacebook": 5339,
      "'\",": 5340,
      "02": 5341,
      "?\",": 5342,
      "CUR": 5343,
      "Json": 5344,
      "Marker": 5345,
      "SH": 5346,
      "SV": 5347,
      "WN": 5348,
      "eos": 5349,
      "rÐł": 5350,
      "tain": 5351,
      "}],": 5352,
      "security": 5353,
      "ĊĠĠĠĠĠĠĠĠĠĠĠĠĠ": 5354,
      "orph": 5355,
      "attach": 5356,
      "leg": 5357,
      "Ġaffi": 5358,
      "Ġfree": 5359,
      "Ġfolder": 5360,
      "Ġfrozen": 5361,
      "liates": 5362,
      "Ġbenchmark": 5363,
      "entity": 5364,
      "digits": 5365,
      "adb": 5366,
      "rigin": 5367,
      "Ġ14": 5368,
      "andard": 5369,
      "ami": 5370,
      "Ġthreshold": 5371,
      "Ġartist": 5372,
      "ĠPolynomial": 5373,
      "ĊĠĠĠĠĠĠĠĠĠĠĠĠĠĠĠĠĠĠĠĠĠĠĠĠĠĠĠĠ": 5374,
      "ÐłÑŀ": 5375,
      "Ġproxy": 5376,
      "ĠDire": 5377,
      "Ġcookies": 5378,
      "trigger": 5379,
      "timezone": 5380,
      "ĠValid": 5381,
      "ires": 5382,
      "ified": 5383,
      "ariadb": 5384,
      "running": 5385,
      "some": 5386,
      "ÐłÑĸÐ²ÐĤÑĽ": 5387,
      "ĠSearch": 5388,
      "ĠInteger": 5389,
      "Ġpick": 5390,
      "Ġcontents": 5391,
      "population": 5392,
      "nsity": 5393,
      "dimen": 5394,
      "Default": 5395,
      "Ġfake": 5396,
      "hero": 5397,
      "Ġvertical": 5398,
      "ResponseInput": 5399,
      "Ġstats": 5400,
      "priority": 5401,
      "IZER": 5402,
      "typst": 5403,
      "ĠSpan": 5404,
      "umanMessage": 5405,
      "Ġsignals": 5406,
      "pubsub": 5407,
      "Ġrepresentation": 5408,
      "IXES": 5409,
      "issues": 5410,
      "Ġaffiliates": 5411,
      "ResponseInputItem": 5412,
      "(...,": 5413,
      "=-": 5414,
      ">',": 5415,
      "Enum": 5416,
      "Flow": 5417,
      "Max": 5418,
      "NING": 5419,
      "Twitter": 5420,
      "bed": 5421,
      "bedrock": 5422,
      "gments": 5423,
      "sizes": 5424,
      "}',": 5425,
      "Ġraw": 5426,
      "inel": 5427,
      "stan": 5428,
      "stroke": 5429,
      "Ġio": 5430,
      "anscript": 5431,
      "loader": 5432,
      "Ġext": 5433,
      "();": 5434,
      "coun": 5435,
      "profiling": 5436,
      "scape": 5437,
      "pends": 5438,
      "exclude": 5439,
      "exchange": 5440,
      "Ġproduct": 5441,
      "Ġsegment": 5442,
      "ĠMicrosoft": 5443,
      "ĠRedis": 5444,
      "]).": 5445,
      "ĠAnsi": 5446,
      "Initial": 5447,
      "dirname": 5448,
      "Ġwhat": 5449,
      "Constraint": 5450,
      "ĠUI": 5451,
      "Ġstrings": 5452,
      "Ġbyte": 5453,
      "Ġalgorithm": 5454,
      "Ġcommit": 5455,
      "Ġmaxpoints": 5456,
      "Ġusers": 5457,
      "lengths": 5458,
      "mypy": 5459,
      "disabled": 5460,
      "Ġformatted": 5461,
      "ferences": 5462,
      "ĠPrompt": 5463,
      "Ġsuccessful": 5464,
      "ĠStat": 5465,
      "changed": 5466,
      "existing": 5467,
      "opleth": 5468,
      "PTION": 5469,
      "Ġrequirement": 5470,
      "Ġenvs": 5471,
      "aptor": 5472,
      "callbacks": 5473,
      "special": 5474,
      "LayoutHierarchyType": 5475,
      "Ġregion": 5476,
      "ĠAttribute": 5477,
      "ĠAIMessage": 5478,
      "Ġflag": 5479,
      "Embeddings": 5480,
      "ÐłÐĨÐ²ÐĤÑŀÐ¡ÑļÐłÐĨÐ²ÐĤ": 5481,
      "!\")": 5482,
      ".*": 5483,
      "AML": 5484,
      "CC": 5485,
      "Cannot": 5486,
      "Div": 5487,
      "SO": 5488,
      "Tur": 5489,
      "VENT": 5490,
      "hsl": 5491,
      "inding": 5492,
      "onic": 5493,
      "retrie": 5494,
      "revision": 5495,
      "study": 5496,
      "dequeue": 5497,
      "Ġ\"\"),": 5498,
      "attention": 5499,
      "Ġsure": 5500,
      "Ġsleep": 5501,
      "definit": 5502,
      "Ġ'_": 5503,
      "lap": 5504,
      "Ġdjango": 5505,
      "ĠTitle": 5506,
      "Ġforward": 5507,
      "thing": 5508,
      "Ġ13": 5509,
      "proc": 5510,
      "ĠCache": 5511,
      "quote": 5512,
      "Returns": 5513,
      "Ġexpect": 5514,
      "partial": 5515,
      "Ġuuid": 5516,
      "lendar": 5517,
      "using": 5518,
      "Ġcounter": 5519,
      "ĠRealtime": 5520,
      "ÐłÐİÐłÐī": 5521,
      "ĠButton": 5522,
      "ĠBedrock": 5523,
      "esture": 5524,
      "ĠNode": 5525,
      "tences": 5526,
      "nections": 5527,
      "tags": 5528,
      "ĠRen": 5529,
      "Profile": 5530,
      "ĠGe": 5531,
      "compat": 5532,
      "failed": 5533,
      "Ġ64": 5534,
      "commands": 5535,
      "videos": 5536,
      "DEX": 5537,
      "bindings": 5538,
      "Dete": 5539,
      "voice": 5540,
      "Comple": 5541,
      "category": 5542,
      "Ġimages": 5543,
      "menu": 5544,
      "Ġtriangle": 5545,
      "Ġmethods": 5546,
      "Ð¢ÑĴÐł": 5547,
      "Ġrole": 5548,
      "ĠChatCompletion": 5549,
      "inished": 5550,
      "gesture": 5551,
      "complex": 5552,
      "Ġvisited": 5553,
      "pendency": 5554,
      "'}),": 5555,
      "Ġdisplayed": 5556,
      "wrapped": 5557,
      "Ġcertificate": 5558,
      "Ġcapture": 5559,
      "Entry": 5560,
      "yntax": 5561,
      "efficients": 5562,
      "NotFoundError": 5563,
      "87": 5564,
      ">=": 5565,
      "Com": 5566,
      "Callback": 5567,
      "Detail": 5568,
      "IME": 5569,
      "Metadata": 5570,
      "Options": 5571,
      "Pri": 5572,
      "await": 5573,
      "eu": 5574,
      "ele": 5575,
      "ever": 5576,
      "high": 5577,
      "jected": 5578,
      "ka": 5579,
      "kr": 5580,
      "kivy": 5581,
      "mysql": 5582,
      "observation": 5583,
      "socket": 5584,
      "vcs": 5585,
      "winterm": 5586,
      "Ġ])": 5587,
      "separ": 5588,
      "once": 5589,
      "dependencies": 5590,
      "Ġtrun": 5591,
      "\",),": 5592,
      "Ġfunctools": 5593,
      "Ġprag": 5594,
      "gemini": 5595,
      "Ġrest": 5596,
      "ceived": 5597,
      "loaded": 5598,
      "Ġnice": 5599,
      "Ġmigrations": 5600,
      "served": 5601,
      "Ġ'__": 5602,
      "Ġdt": 5603,
      "Ġdropout": 5604,
      "ĠTask": 5605,
      "ationChunk": 5606,
      "__.": 5607,
      "verter": 5608,
      "prox": 5609,
      "002": 5610,
      "ĠClock": 5611,
      "\"]),": 5612,
      "Ġexit": 5613,
      "ĠFROM": 5614,
      "Ġhide": 5615,
      "Ġhsl": 5616,
      "ĠPaymentCard": 5617,
      "Ġrand": 5618,
      "Ġdebug": 5619,
      "preter": 5620,
      "Ġ36": 5621,
      "ĠEn": 5622,
      "ĠBy": 5623,
      "ifest": 5624,
      "ĠUp": 5625,
      "ĠRes": 5626,
      "runtime": 5627,
      "runner": 5628,
      "toolkit": 5629,
      "ĊĠĠĠĠĠĠĠĠĠĠĠĠĠĠĠĠĠĠĠĠĠĠĠĠĠĠĠĠĠĠĠĠĠĠĠĠĠĠĠĠĠĠĠĠĠĠĠĠ": 5630,
      "Ġadj": 5631,
      "Ġleast": 5632,
      "compute": 5633,
      "assertTrue": 5634,
      "Ġsources": 5635,
      "Tests": 5636,
      "iterator": 5637,
      "streaming": 5638,
      "ideo": 5639,
      "skipif": 5640,
      "phone": 5641,
      "Ġhandling": 5642,
      "Ġurllib": 5643,
      "works": 5644,
      "signal": 5645,
      "Union": 5646,
      "character": 5647,
      "normalized": 5648,
      "LImage": 5649,
      "Ġcolumns": 5650,
      "white": 5651,
      "Ġnormalize": 5652,
      "Temporary": 5653,
      "aaaaaaaaaaaaaaaa": 5654,
      "details": 5655,
      "gpu": 5656,
      "Ġbooks": 5657,
      "hooks": 5658,
      "Ġsfp": 5659,
      "ĠStateTestChange": 5660,
      "transpose": 5661,
      "evaluation": 5662,
      "histogram": 5663,
      "Ġaccepts": 5664,
      "anisation": 5665,
      "ĠCliRunner": 5666,
      "Ġkernel": 5667,
      "Ġpragma": 5668,
      "86": 5669,
      "BO": 5670,
      "Category": 5671,
      "Container": 5672,
      "EE": 5673,
      "Float": 5674,
      "Loc": 5675,
      "Match": 5676,
      "NE": 5677,
      "PAR": 5678,
      "Speech": 5679,
      "fuck": 5680,
      "tz": 5681,
      "writer": 5682,
      "Ġlayers": 5683,
      "ĠÐłÐĨÐł": 5684,
      "ini": 5685,
      "Ġaverage": 5686,
      "metrics": 5687,
      "Ġba": 5688,
      "strument": 5689,
      "Ġ'')": 5690,
      "Ġdrop": 5691,
      "vertices": 5692,
      "sette": 5693,
      "Ġstrict": 5694,
      "period": 5695,
      "queries": 5696,
      "ĠFa": 5697,
      "Ġusage": 5698,
      "outh": 5699,
      "Ġdepth": 5700,
      "Ġmeans": 5701,
      "ĠDis": 5702,
      "usic": 5703,
      "ĠOS": 5704,
      "ĠLine": 5705,
      "ĠReturn": 5706,
      "Ġencoder": 5707,
      "linear": 5708,
      "validation": 5709,
      "ules": 5710,
      "ification": 5711,
      "tape": 5712,
      "renderable": 5713,
      "owner": 5714,
      "###": 5715,
      "Ġcandidate": 5716,
      "Ġnotebook": 5717,
      "asyncclient": 5718,
      "ÐłÑĸÐłÑĵÐł": 5719,
      "quality": 5720,
      "MessageSerializer": 5721,
      "ĠInter": 5722,
      "ĠIndex": 5723,
      "Ġsuperagi": 5724,
      "Ġcalls": 5725,
      "masked": 5726,
      "cached": 5727,
      "Ġupper": 5728,
      "Ġcontextlib": 5729,
      "ToolCall": 5730,
      "initializer": 5731,
      "anked": 5732,
      "ampling": 5733,
      "99999999": 5734,
      "Ġentity": 5735,
      "Ġvariables": 5736,
      "Ġmypy": 5737,
      "Ġedges": 5738,
      "suffixes": 5739,
      "Ġfeatures": 5740,
      "VERSION": 5741,
      "ternary": 5742,
      "mprovement": 5743,
      "Ġremaining": 5744,
      "quested": 5745,
      "cassette": 5746,
      "grees": 5747,
      ":{": 5748,
      "Bar": 5749,
      "Block": 5750,
      "Or": 5751,
      "Sound": 5752,
      "System": 5753,
      "`:": 5754,
      "eze": 5755,
      "effect": 5756,
      "fingerprint": 5757,
      "ggest": 5758,
      "how": 5759,
      "iÐł": 5760,
      "ium": 5761,
      "kd": 5762,
      "lated": 5763,
      "tre": 5764,
      "tol": 5765,
      "ua": 5766,
      "uch": 5767,
      "uix": 5768,
      "including": 5769,
      "instructions": 5770,
      "orange": 5771,
      "erflow": 5772,
      "alog": 5773,
      "enqueue": 5774,
      "anel": 5775,
      "ionError": 5776,
      "getenv": 5777,
      "Ġrelease": 5778,
      "Ġregister": 5779,
      "losed": 5780,
      "login": 5781,
      "loaders": 5782,
      "diff": 5783,
      "uno": 5784,
      "stride": 5785,
      "Ġday": 5786,
      "testmod": 5787,
      "Ġanother": 5788,
      "izing": 5789,
      "ĠSkill": 5790,
      "Reference": 5791,
      "Ġhue": 5792,
      "ĠPDF": 5793,
      "expect": 5794,
      "Ġgit": 5795,
      "ĠMark": 5796,
      "queeze": 5797,
      "bos": 5798,
      "Ġparallel": 5799,
      "validator": 5800,
      "TypeError": 5801,
      "Ġpred": 5802,
      "ariable": 5803,
      "websocket": 5804,
      "ignKey": 5805,
      "Ġscal": 5806,
      "redu": 5807,
      "ĠGraph": 5808,
      "mapper": 5809,
      "logits": 5810,
      "checkbox": 5811,
      "collect": 5812,
      "ĠKEY": 5813,
      "ANS": 5814,
      "Ġfail": 5815,
      "Ġmanage": 5816,
      "Ġupstream": 5817,
      "providers": 5818,
      "clean": 5819,
      "requirement": 5820,
      "expand": 5821,
      "frac": 5822,
      "Server": 5823,
      "Ġsnapshots": 5824,
      "Generate": 5825,
      "Timestamp": 5826,
      "ĠHTTPException": 5827,
      "bgcolor": 5828,
      "Ġdirectly": 5829,
      "123456": 5830,
      "PREC": 5831,
      "ĠWebSocket": 5832,
      "Adapter": 5833,
      "ĠAssert": 5834,
      "moothing": 5835,
      ")\"": 5836,
      "=(\"": 5837,
      ">\"": 5838,
      "FastAPI": 5839,
      "Filter": 5840,
      "Mask": 5841,
      "Plugin": 5842,
      "PORT": 5843,
      "RA": 5844,
      "Tuple": 5845,
      "Usage": 5846,
      "]\"": 5847,
      "]\",": 5848,
      "bbox": 5849,
      "bstract": 5850,
      "flat": 5851,
      "got": 5852,
      "lint": 5853,
      "ploy": 5854,
      "rant": 5855,
      "stem": 5856,
      "slot": 5857,
      "sired": 5858,
      "squeeze": 5859,
      "ually": 5860,
      "va": 5861,
      "warnings": 5862,
      "Ġra": 5863,
      "Ġserialize": 5864,
      "Ġlater": 5865,
      "integer": 5866,
      "receive": 5867,
      "Ġ\"*": 5868,
      "attn": 5869,
      "Ġflat": 5870,
      "Ġfetch": 5871,
      "Ġrecords": 5872,
      "Ġinte": 5873,
      "Ġindent": 5874,
      "asi": 5875,
      "Ġbpe": 5876,
      "Ġevalu": 5877,
      "Ġdone": 5878,
      "cookie": 5879,
      "(\"-": 5880,
      "ĠAd": 5881,
      "texts": 5882,
      "assistant": 5883,
      "ases": 5884,
      "Ġcondition": 5885,
      "Ġthrough": 5886,
      "ĠForm": 5887,
      "Ġorg": 5888,
      "omin": 5889,
      "Ġ23": 5890,
      "export": 5891,
      "Ġratio": 5892,
      "ÐłÑĺ": 5893,
      "mouse": 5894,
      "ĠDummy": 5895,
      "area": 5896,
      "Ġenable": 5897,
      "pression": 5898,
      "coming": 5899,
      "Ġ32": 5900,
      "Ġchoice": 5901,
      "Ġvs": 5902,
      "Ġhel": 5903,
      "Ġhealth": 5904,
      "buff": 5905,
      "sched": 5906,
      "renderer": 5907,
      "placement": 5908,
      "Ġcompare": 5909,
      "checked": 5910,
      "Ġnumer": 5911,
      "ITY": 5912,
      "Ġzoomed": 5913,
      "rescore": 5914,
      "Ġcollection": 5915,
      "Ġmodifications": 5916,
      "Ġneeded": 5917,
      "THER": 5918,
      "icky": 5919,
      "precation": 5920,
      "Ġround": 5921,
      "Unknown": 5922,
      "Ġ\"\\\\": 5923,
      "fraction": 5924,
      "Ġpackages": 5925,
      "ĠRuntimeError": 5926,
      "Ġ####\",": 5927,
      "translate": 5928,
      "tuples": 5929,
      "ContentPart": 5930,
      "BACK": 5931,
      "Only": 5932,
      "Ġwrapped": 5933,
      "Ġmetavar": 5934,
      "ĠLangChain": 5935,
      "hsva": 5936,
      "Query": 5937,
      "cognizer": 5938,
      "tegration": 5939,
      "Ġdimension": 5940,
      "hsla": 5941,
      "escape": 5942,
      "'\\": 5943,
      "(\",": 5944,
      ")])": 5945,
      "84": 5946,
      "Down": 5947,
      "DING": 5948,
      "EM": 5949,
      "Finish": 5950,
      "Gesture": 5951,
      "LS": 5952,
      "Mon": 5953,
      "MAR": 5954,
      "Sub": 5955,
      "cb": 5956,
      "car": 5957,
      "cated": 5958,
      "dDict": 5959,
      "em": 5960,
      "mup": 5961,
      "mariadb": 5962,
      "tabs": 5963,
      "utes": 5964,
      "}_": 5965,
      "story": 5966,
      "decay": 5967,
      "density": 5968,
      "ali": 5969,
      "Ġcrawl": 5970,
      "Ġpop": 5971,
      "petite": 5972,
      "Ġmulti": 5973,
      "Ġwind": 5974,
      "Ġway": 5975,
      "()]": 5976,
      "oder": 5977,
      "idual": 5978,
      "rites": 5979,
      "Ġdynam": 5980,
      "ĠTensor": 5981,
      "ĠAL": 5982,
      "ĠAll": 5983,
      "isted": 5984,
      "product": 5985,
      "veloc": 5986,
      "=\"\",": 5987,
      "Ġhparams": 5988,
      "Ġrtol": 5989,
      "Ġloader": 5990,
      "Ġpartial": 5991,
      "trib": 5992,
      "Ġmajor": 5993,
      "illing": 5994,
      "rypt": 5995,
      "ĠBox": 5996,
      "Ġnamelength": 5997,
      "ÐłÐĨÐ²ÐĤÑľÐł": 5998,
      "Ġwebsocket": 5999,
      "needs": 6000,
      "osition": 6001,
      "Ġalongs": 6002,
      "Ġunits": 6003,
      "ENV": 6004,
      "Ġlex": 6005,
      "tegies": 6006,
      "opengl": 6007,
      "Partial": 6008,
      "oose": 6009,
      "ĠInitial": 6010,
      "cluded": 6011,
      "Ġsafe": 6012,
      "niÐł": 6013,
      "Ġbackoff": 6014,
      "ixin": 6015,
      "filters": 6016,
      "scores": 6017,
      "signed": 6018,
      "Ġrot": 6019,
      "plots": 6020,
      "Ġtemplateitemname": 6021,
      "Ġworks": 6022,
      "localhost": 6023,
      "riteria": 6024,
      "ĠIDs": 6025,
      "ĠGenerate": 6026,
      "}/{": 6027,
      "Ġ\"{{": 6028,
      "Ġsupports": 6029,
      "Ġlonger": 6030,
      "VALID": 6031,
      "Ġassoci": 6032,
      "\"(?<=[{": 6033,
      "Ġexplicitly": 6034,
      "ISSING": 6035,
      "riginal": 6036,
      "Ġalongside": 6037,
      "400": 6038,
      "DER": 6039,
      "End": 6040,
      "It": 6041,
      "Middleware": 6042,
      "Use": 6043,
      "btn": 6044,
      "black": 6045,
      "follow": 6046,
      "ki": 6047,
      "mid": 6048,
      "optional": 6049,
      "pl": 6050,
      "ral": 6051,
      "sequence": 6052,
      "ĊĠĠĠĠĠĠĠĠĠĠ": 6053,
      "deprecated": 6054,
      "Ġai": 6055,
      "Ġcut": 6056,
      "Ġretries": 6057,
      "Ġrepr": 6058,
      "ced": 6059,
      "Ġbias": 6060,
      "Ġmargin": 6061,
      "Ġ((": 6062,
      "()[": 6063,
      "Ġanchor": 6064,
      "ĠAWS": 6065,
      "isdigit": 6066,
      "vertical": 6067,
      "Ġ17": 6068,
      "ĠSchema": 6069,
      "Ġexceptions": 6070,
      "ĠFraction": 6071,
      "Ġstderr": 6072,
      "ĠPri": 6073,
      "Ġ201": 6074,
      "share": 6075,
      "figure": 6076,
      "filepath": 6077,
      "Ġdecoder": 6078,
      "agraph": 6079,
      "Ġcovariance": 6080,
      "ĠElement": 6081,
      "ĠBe": 6082,
      "oker": 6083,
      "ĠUsed": 6084,
      "Ġcomment": 6085,
      "overlabel": 6086,
      "=[],": 6087,
      "hood": 6088,
      "âĢł\",": 6089,
      "workflow": 6090,
      "Ġaccount": 6091,
      "Ġlinked": 6092,
      "Ġtraceback": 6093,
      "Ġchanged": 6094,
      "Ġthreading": 6095,
      "Format": 6096,
      "UNCT": 6097,
      "absolute": 6098,
      "IMAGE": 6099,
      "Ð²ÐĤÑĶÐł": 6100,
      "Ġissuer": 6101,
      "7890": 6102,
      "Ġcreation": 6103,
      "plugins": 6104,
      "ĠLanguage": 6105,
      "second": 6106,
      "currencyLim": 6107,
      "HEAD": 6108,
      "Ġtakes": 6109,
      "Ġreduction": 6110,
      "facts": 6111,
      "ĠStatic": 6112,
      "velocity": 6113,
      "\"[": 6114,
      ")(": 6115,
      "21": 6116,
      "422": 6117,
      "CI": 6118,
      "Could": 6119,
      "FIG": 6120,
      "GHT": 6121,
      "ROR": 6122,
      "Tes": 6123,
      "UI": 6124,
      "ball": 6125,
      "benchmark": 6126,
      "cator": 6127,
      "iform": 6128,
      "merge": 6129,
      "mutable": 6130,
      "}),": 6131,
      "Ġuntil": 6132,
      "indiv": 6133,
      "real": 6134,
      "degree": 6135,
      "Ġ\"<": 6136,
      "Ġtab": 6137,
      "Ġids": 6138,
      "ancy": 6139,
      "Ġfit": 6140,
      "Ġfinish": 6141,
      "ctal": 6142,
      "Ġsizes": 6143,
      "Ġinf": 6144,
      "ascii": 6145,
      "lihood": 6146,
      "Ġnested": 6147,
      "serve": 6148,
      "Ġwarn": 6149,
      "Ġ'+": 6150,
      "Ġ'/": 6151,
      "Ġdouble": 6152,
      "comb": 6153,
      "getattr": 6154,
      "Ġ[(\"": 6155,
      "perf": 6156,
      "quent": 6157,
      "Ġbehavior": 6158,
      "ĠFunction": 6159,
      "Ġus": 6160,
      "imize": 6161,
      "Ġgym": 6162,
      "ĠIO": 6163,
      "Ġdev": 6164,
      "ĠMapping": 6165,
      "usr": 6166,
      "ĠOther": 6167,
      "Ġcover": 6168,
      "ĠRead": 6169,
      "Ġpartic": 6170,
      "previous": 6171,
      "ĠAnimation": 6172,
      "configuration": 6173,
      "jsonl": 6174,
      "markers": 6175,
      "Ġalways": 6176,
      "licate": 6177,
      "Ġknown": 6178,
      "without": 6179,
      "âĢļÂ¬\",": 6180,
      "BaseMessage": 6181,
      "Ġspacy": 6182,
      "Ġsubtitle": 6183,
      "defaults": 6184,
      "atterns": 6185,
      "offInput": 6186,
      "ROOT": 6187,
      "cording": 6188,
      "ÐłÂµÐ²ÐĤ": 6189,
      "Ġmany": 6190,
      "Ġmarkdown": 6191,
      "ĠStream": 6192,
      "Ġdocumentation": 6193,
      "Ġworker": 6194,
      "normalize": 6195,
      "Ġ###\",": 6196,
      "allery": 6197,
      "Ġprocessing": 6198,
      "Ġdatabases": 6199,
      "Ġframes": 6200,
      "Ġscorer": 6201,
      "ĠSpace": 6202,
      "BASE": 6203,
      "Ġauthentic": 6204,
      "specific": 6205,
      "Ġprovides": 6206,
      "ĠNamed": 6207,
      "ĠThread": 6208,
      "Bytes": 6209,
      "Axis": 6210,
      "FixtureRequest": 6211,
      "supports": 6212,
      "Ġduring": 6213,
      "1234567890": 6214,
      "59": 6215,
      "><": 6216,
      "></": 6217,
      "Ade": 6218,
      "Aut": 6219,
      "BC": 6220,
      "Col": 6221,
      "Fake": 6222,
      "PER": 6223,
      "Ren": 6224,
      "Single": 6225,
      "done": 6226,
      "fmpeg": 6227,
      "sq": 6228,
      "wy": 6229,
      "Ġlate": 6230,
      "started": 6231,
      "atol": 6232,
      "atial": 6233,
      "Ġ=>": 6234,
      "alg": 6235,
      "rome": 6236,
      "Ġfn": 6237,
      "Ġfailover": 6238,
      "Ġffmpeg": 6239,
      "itter": 6240,
      "Ġinner": 6241,
      "Ġinside": 6242,
      "Ġincluding": 6243,
      "assets": 6244,
      "light": 6245,
      "Ġnet": 6246,
      "oll": 6247,
      "Ġeq": 6248,
      "chart": 6249,
      "ulated": 6250,
      "ĠARG": 6251,
      "Ġ18": 6252,
      "ĠSanic": 6253,
      "Read": 6254,
      "Ġarrow": 6255,
      "ĠFake": 6256,
      "Ġhuman": 6257,
      "Ġorientation": 6258,
      "ĠPoint": 6259,
      "ĊĠĠĠĠĠĠĠĠĠĠĠĠĠĠĠĠĠĠĠĠĠĠĠĠĠĠĠĠĠĠ": 6260,
      "imate": 6261,
      "Ġdeep": 6262,
      "iler": 6263,
      "ĠDO": 6264,
      "usal": 6265,
      "ĠOAuth": 6266,
      "agon": 6267,
      "Ġcould": 6268,
      "mbers": 6269,
      "prev": 6270,
      "times": 6271,
      "Ġpylint": 6272,
      "bucket": 6273,
      "acc": 6274,
      "Ġoutside": 6275,
      "ĠWHERE": 6276,
      "pipeline": 6277,
      "matplotlib": 6278,
      "Ġrunning": 6279,
      "Ġ{}\"": 6280,
      "Ġcompute": 6281,
      "Ġsubq": 6282,
      "Ġlisten": 6283,
      "corner": 6284,
      "optuna": 6285,
      "ĠKH": 6286,
      "ÐłÐĥm": 6287,
      "APIWrapper": 6288,
      "Ġgroups": 6289,
      "Ġperform": 6290,
      "contextmanager": 6291,
      "StateTestChange": 6292,
      "TextWidget": 6293,
      "Ġvertices": 6294,
      "grade": 6295,
      "signature": 6296,
      "ĠYAML": 6297,
      "irbyte": 6298,
      "ÐłÑŁÐł": 6299,
      "(?=[{": 6300,
      "Ġquant": 6301,
      "snapshots": 6302,
      "operators": 6303,
      "Ġcases": 6304,
      "Ġscreenshot": 6305,
      "tracker": 6306,
      "detections": 6307,
      "detectors": 6308,
      "TRA": 6309,
      "Ġlibrary": 6310,
      "flake": 6311,
      "choropleth": 6312,
      "Python": 6313,
      "Ġspecify": 6314,
      "large": 6315,
      "confirm": 6316,
      "Ġpairs": 6317,
      "ĠPrefix": 6318,
      "storages": 6319,
      "Ġsvg": 6320,
      "Ġflags": 6321,
      "Ġabsolute": 6322,
      "region": 6323,
      "listener": 6324,
      "finite": 6325,
      "Ġprobability": 6326,
      "dispatch": 6327,
      "ĠOptionList": 6328,
      "constants": 6329,
      "ĠWinColor": 6330,
      "LanguageModel": 6331,
      "amila": 6332,
      "dimension": 6333,
      "Ġnicegui": 6334,
      "Tester": 6335,
      "->": 6336,
      "09": 6337,
      "260": 6338,
      "31": 6339,
      "57": 6340,
      ":\"": 6341,
      "ASE": 6342,
      "Har": 6343,
      "KER": 6344,
      "RU": 6345,
      "elif": 6346,
      "fname": 6347,
      "hidden": 6348,
      "iya": 6349,
      "land": 6350,
      "mut": 6351,
      "tt": 6352,
      "tsv": 6353,
      "yes": 6354,
      "}</": 6355,
      "Ġvec": 6356,
      "inv": 6357,
      "depth": 6358,
      "Ġ\"'": 6359,
      "aring": 6360,
      "Ġcredit": 6361,
      "anit": 6362,
      "olver": 6363,
      "Ġmid": 6364,
      "Ġmultip": 6365,
      "Ġescape": 6366,
      "Ġ()": 6367,
      "Ġdcc": 6368,
      "__).": 6369,
      "(\"%": 6370,
      "three": 6371,
      "ison": 6372,
      "spatial": 6373,
      "ĠSource": 6374,
      "igret": 6375,
      "=\"/": 6376,
      "Ġdigit": 6377,
      "icode": 6378,
      "imports": 6379,
      "ĠOF": 6380,
      "ĠEX": 6381,
      "ĠNORM": 6382,
      "ĠNULL": 6383,
      "acing": 6384,
      "Ġwhole": 6385,
      "endor": 6386,
      "##\",": 6387,
      "Ġ{}),": 6388,
      "subprocess": 6389,
      "ORTH": 6390,
      "collector": 6391,
      "Ġlr": 6392,
      "Ġformats": 6393,
      "curacy": 6394,
      "Ġbuff": 6395,
      "Ġbuilder": 6396,
      "\"}]": 6397,
      "circuit": 6398,
      "ANG": 6399,
      "elements": 6400,
      "medium": 6401,
      "Ġqk": 6402,
      "hosts": 6403,
      "router": 6404,
      "Ġexecutor": 6405,
      "anyOf": 6406,
      "nowflake": 6407,
      "Ġappro": 6408,
      "Ġblocking": 6409,
      "}:{": 6410,
      "typing": 6411,
      "ĠAdditional": 6412,
      "Ġspecial": 6413,
      "CONFIG": 6414,
      "configs": 6415,
      "Ġbgcolor": 6416,
      "}])\".": 6417,
      "ArgumentParser": 6418,
      "('/')": 6419,
      "ighbors": 6420,
      "Creator": 6421,
      "comparators": 6422,
      "DTYPE": 6423,
      "ĠDirect": 6424,
      "ĠAssertionError": 6425,
      "!!": 6426,
      "'})": 6427,
      "+\",": 6428,
      "180": 6429,
      "52": 6430,
      "BUFF": 6431,
      "Extra": 6432,
      "LINE": 6433,
      "PR": 6434,
      "credit": 6435,
      "hn": 6436,
      "pause": 6437,
      "vin": 6438,
      "wen": 6439,
      "zoomed": 6440,
      "ĊĊĠĠĠĠĠĠĠĠĠĠĠĠĠĠĠĠĠĠĠ": 6441,
      "Ġutil": 6442,
      "Ġvectorstore": 6443,
      "inct": 6444,
      "decor": 6445,
      "aldi": 6446,
      "environment": 6447,
      "roj": 6448,
      "Ġcallable": 6449,
      "ann": 6450,
      "itask": 6451,
      "Ġpr": 6452,
      "Ġpx": 6453,
      "Ġsince": 6454,
      "union": 6455,
      "units": 6456,
      "Ġ',": 6457,
      "upported": 6458,
      "Â°\",": 6459,
      "ĠAC": 6460,
      "ĠAli": 6461,
      "spath": 6462,
      "ĠSec": 6463,
      "ĠSimple": 6464,
      "ĠCON": 6465,
      "quant": 6466,
      "pointer": 6467,
      "ĠFloat": 6468,
      "Ġsticky": 6469,
      "ĠPlease": 6470,
      "ĠIterator": 6471,
      "Ġprogram": 6472,
      "trunc": 6473,
      "ublic": 6474,
      "('.": 6475,
      "ĠDate": 6476,
      "Ġfilepath": 6477,
      "libs": 6478,
      "ordin": 6479,
      "ĠRE": 6480,
      "Ġunless": 6481,
      "Ġtrade": 6482,
      "Ġconfigure": 6483,
      "daily": 6484,
      "Ġcodes": 6485,
      "Load": 6486,
      "ĠConvert": 6487,
      "ualization": 6488,
      "Ġstyles": 6489,
      "Ġaddition": 6490,
      "DEPREC": 6491,
      "splits": 6492,
      "popup": 6493,
      "terminal": 6494,
      "[:-": 6495,
      "AND": 6496,
      "501": 6497,
      "pady": 6498,
      "ĠOpenGLMobject": 6499,
      "={'": 6500,
      "Ġshows": 6501,
      "Ġtemperature": 6502,
      "Ġabc": 6503,
      "ÐłÑŁÐ²ÐĤ": 6504,
      "ĠRunnable": 6505,
      "riterion": 6506,
      "makedirs": 6507,
      "baz": 6508,
      "bservations": 6509,
      "########": 6510,
      "Ġrefer": 6511,
      "completed": 6512,
      "Scroll": 6513,
      "overrides": 6514,
      "pipx": 6515,
      "ategories": 6516,
      "Ġrepresenting": 6517,
      "ĠScreen": 6518,
      "wrappers": 6519,
      "ritten": 6520,
      "ĠOnly": 6521,
      "Ġassistant": 6522,
      "Behavior": 6523,
      "ĠEmbeddings": 6524,
      "INFO": 6525,
      "Ġserialized": 6526,
      "DateTime": 6527,
      "distributions": 6528,
      "DistanceEvalChain": 6529,
      "\"',": 6530,
      "29": 6531,
      ":-": 6532,
      "Batch": 6533,
      "Blue": 6534,
      "CS": 6535,
      "FROM": 6536,
      "MIN": 6537,
      "New": 6538,
      "Pass": 6539,
      "RIGHT": 6540,
      "Tk": 6541,
      "Title": 6542,
      "Work": 6543,
      "cancel": 6544,
      "east": 6545,
      "kip": 6546,
      "ming": 6547,
      "mble": 6548,
      "mass": 6549,
      "mapping": 6550,
      "nni": 6551,
      "patched": 6552,
      "swagger": 6553,
      "tube": 6554,
      "ufile": 6555,
      "yanked": 6556,
      "Ġ~": 6557,
      "orization": 6558,
      "Ġaux": 6559,
      "Ġfuture": 6560,
      "Ġfreq": 6561,
      "Ġfpq": 6562,
      "cell": 6563,
      "Ġinline": 6564,
      "Ġincre": 6565,
      "uting": 6566,
      "rain": 6567,
      "Ġbedrock": 6568,
      "entropy": 6569,
      "fire": 6570,
      "Ġepq": 6571,
      "umin": 6572,
      "adat": 6573,
      "ries": 6574,
      "Ġtoo": 6575,
      "Ġdtickrange": 6576,
      "__':": 6577,
      "ĠSub": 6578,
      "Reg": 6579,
      "Ġnotice": 6580,
      "lists": 6581,
      "Ġexclude": 6582,
      "Ġdire": 6583,
      "Ġhorizontal": 6584,
      "Ġgame": 6585,
      "Ġrnn": 6586,
      "ÐłÑļ": 6587,
      ")).": 6588,
      "Ġdependencies": 6589,
      "ĠMISSING": 6590,
      "trg": 6591,
      "Ġmeasure": 6592,
      "Ġencoded": 6593,
      "lineEdit": 6594,
      "triangle": 6595,
      "abilities": 6596,
      "âĢļ\"),": 6597,
      "ĠEnum": 6598,
      "ÐłÐİÐ²": 6599,
      "ÐłÐİÐłÐı": 6600,
      "ives": 6601,
      "Ġitself": 6602,
      "ocker": 6603,
      "built": 6604,
      "aria": 6605,
      "errorState": 6606,
      "temperature": 6607,
      "formatstop": 6608,
      "license": 6609,
      "Ġcomments": 6610,
      "ATCH": 6611,
      "Project": 6612,
      "ĠGoogle": 6613,
      "Ġcompany": 6614,
      "Ġ[\"--": 6615,
      "sumed": 6616,
      "airwise": 6617,
      "128": 6618,
      "vely": 6619,
      "Ġbuffer": 6620,
      "Ġoverwrite": 6621,
      "ÐłÐĨÐ²ÐĤÑŀÐ²ÐĤÑľ": 6622,
      "herited": 6623,
      "Ġproviders": 6624,
      "Ġtuples": 6625,
      "ickformatstop": 6626,
      "credentials": 6627,
      "Ġvalidation": 6628,
      "canonical": 6629,
      "private": 6630,
      "ILL": 6631,
      "symbols": 6632,
      "ĠVersion": 6633,
      "Execution": 6634,
      "polar": 6635,
      "DIR": 6636,
      "Ġcaptured": 6637,
      "Version": 6638,
      "Ġdescribe": 6639,
      "AGENT": 6640,
      "OPEN": 6641,
      "Ġcycle": 6642,
      "Ġagain": 6643,
      "orphic": 6644,
      "ĠAttributeError": 6645,
      "Masking": 6646,
      "Ġwindll": 6647,
      "PartialDict": 6648,
      "Ġassociated": 6649,
      "\"'": 6650,
      "#!": 6651,
      ",)": 6652,
      "49": 6653,
      ">{": 6654,
      "Api": 6655,
      "CN": 6656,
      "IB": 6657,
      "Import": 6658,
      "Long": 6659,
      "Object": 6660,
      "OUT": 6661,
      "SER": 6662,
      "Scale": 6663,
      "UID": 6664,
      "VID": 6665,
      "]}": 6666,
      "cr": 6667,
      "city": 6668,
      "crawl": 6669,
      "free": 6670,
      "hÐł": 6671,
      "kt": 6672,
      "oy": 6673,
      "qc": 6674,
      "sz": 6675,
      "tadat": 6676,
      "uted": 6677,
      "west": 6678,
      "wili": 6679,
      "{\\": 6680,
      "Ġtensor": 6681,
      "Ġseries": 6682,
      "inect": 6683,
      "Ġcub": 6684,
      "Ġclose": 6685,
      "ana": 6686,
      "utc": 6687,
      "raps": 6688,
      "lid": 6689,
      "Ġouter": 6690,
      "Ġmobject": 6691,
      "uner": 6692,
      "Ġwin": 6693,
      "Ġ((\"": 6694,
      "()}": 6695,
      "Ġask": 6696,
      "Ġdefined": 6697,
      "testclient": 6698,
      "____": 6699,
      "Ġforce": 6700,
      "upload": 6701,
      "istent": 6702,
      "\")),": 6703,
      "ĠSize": 6704,
      "Ġconst": 6705,
      "Ġbelow": 6706,
      "linalg": 6707,
      "ĠPackage": 6708,
      "Ġ22": 6709,
      "Ġrank": 6710,
      "Ġloaded": 6711,
      "Ġ`'": 6712,
      "ncoder": 6713,
      "ipant": 6714,
      "Ġyet": 6715,
      "Ġcopi": 6716,
      "Ġ31": 6717,
      "Ġ:]": 6718,
      "âĢĺ\",": 6719,
      "Ġprediction": 6720,
      "ansible": 6721,
      "Ġcolorscale": 6722,
      "endpoint": 6723,
      "ENG": 6724,
      "Ġ%{": 6725,
      "cases": 6726,
      "ORE": 6727,
      "ĠSegment": 6728,
      "Ġcurrently": 6729,
      "splitlines": 6730,
      "Ġautomatically": 6731,
      "TOOL": 6732,
      "Ġupdates": 6733,
      "mirror": 6734,
      "signals": 6735,
      "Ġtriggered": 6736,
      "Validator": 6737,
      "ĠQt": 6738,
      "Ġindiv": 6739,
      "characters": 6740,
      "ÐłÑĸÐłÑĵÐ²ÐĤ": 6741,
      "LIPS": 6742,
      "ĠPydantic": 6743,
      "ELLIPS": 6744,
      "screenshot": 6745,
      "Ġimmediate": 6746,
      "Ġcallbacks": 6747,
      "ĠDatabase": 6748,
      "Ġcompleted": 6749,
      "randint": 6750,
      "Ġstored": 6751,
      "Ġstructured": 6752,
      "AsyncClient": 6753,
      "Ġreduce": 6754,
      "missions": 6755,
      "Axes": 6756,
      "Ġslices": 6757,
      "ĠConnectionError": 6758,
      "ĠProjectType": 6759,
      "HOST": 6760,
      "AUTH": 6761,
      "Ġcorresponding": 6762,
      "avigate": 6763,
      "Ġattempt": 6764,
      "ĠUpdate": 6765,
      "tadatas": 6766,
      "*-": 6767,
      "*.": 6768,
      "+)": 6769,
      "150": 6770,
      "401": 6771,
      ":.": 6772,
      "Ap": 6773,
      "BT": 6774,
      "BU": 6775,
      "Beta": 6776,
      "Brand": 6777,
      "CLO": 6778,
      "Google": 6779,
      "Int": 6780,
      "La": 6781,
      "NOT": 6782,
      "SA": 6783,
      "SL": 6784,
      "Target": 6785,
      "_,": 6786,
      "avi": 6787,
      "ays": 6788,
      "bre": 6789,
      "bad": 6790,
      "brid": 6791,
      "fastapi": 6792,
      "hniÐł": 6793,
      "kÐł": 6794,
      "kur": 6795,
      "lÐł": 6796,
      "mtime": 6797,
      "mcp": 6798,
      "push": 6799,
      "rance": 6800,
      "same": 6801,
      "sampling": 6802,
      "ula": 6803,
      "xity": 6804,
      "zscore": 6805,
      "};": 6806,
      "Ġterm": 6807,
      "ines": 6808,
      "invar": 6809,
      "resp": 6810,
      "recogn": 6811,
      "oring": 6812,
      "leted": 6813,
      "Ġaws": 6814,
      "alk": 6815,
      "Ġcu": 6816,
      "anti": 6817,
      "itu": 6818,
      "Ġpen": 6819,
      "Ġpolynomial": 6820,
      "Ġred": 6821,
      "Ġredirect": 6822,
      "Ġrelev": 6823,
      "Ġincoming": 6824,
      "Ġincluded": 6825,
      "utdown": 6826,
      "Ġmw": 6827,
      "Ġwlist": 6828,
      "stral": 6829,
      "otonic": 6830,
      "lab": 6831,
      "adaptor": 6832,
      "ulth": 6833,
      "Ġdot": 6834,
      "Ġ-*-": 6835,
      "ilding": 6836,
      "thought": 6837,
      "thinking": 6838,
      "textfont": 6839,
      "spkr": 6840,
      "Ġ19": 6841,
      "ĠSO": 6842,
      "clar": 6843,
      "andler": 6844,
      "major": 6845,
      "scr": 6846,
      "quation": 6847,
      "vicon": 6848,
      "pytorch": 6849,
      "amo": 6850,
      "amma": 6851,
      "Ġthree": 6852,
      "Ġdigits": 6853,
      "Ġstroke": 6854,
      "pending": 6855,
      "experiment": 6856,
      "shuffle": 6857,
      "Ġdenom": 6858,
      "Ġlogs": 6859,
      "Ġsell": 6860,
      "Ġcoordin": 6861,
      "Ġonce": 6862,
      "Ġonline": 6863,
      "Ġvcs": 6864,
      "Instance": 6865,
      "Ġprevent": 6866,
      "osity": 6867,
      "osurface": 6868,
      "ĠRetry": 6869,
      "ĠRender": 6870,
      "(['": 6871,
      "updater": 6872,
      "noun": 6873,
      "'].": 6874,
      "Ġ{}'.": 6875,
      "compare": 6876,
      "compress": 6877,
      "compression": 6878,
      "ModelSpace": 6879,
      "BaseLayoutHierarchyType": 6880,
      "assertIs": 6881,
      "Start": 6882,
      "counts": 6883,
      "LETE": 6884,
      "Ġgenerator": 6885,
      "Ġ80": 6886,
      "]]]": 6887,
      "nsure": 6888,
      "\"}],": 6889,
      "Ġinternal": 6890,
      "visa": 6891,
      "caten": 6892,
      "Ġresolution": 6893,
      "Ġmasks": 6894,
      "Ġ90": 6895,
      "Ġtrigger": 6896,
      "serializable": 6897,
      "ÐłÑĸÐłÑĵÐĴ": 6898,
      "LIGHT": 6899,
      "ĠAgentFinish": 6900,
      "PTORS": 6901,
      "Ġrequirements": 6902,
      "scattergeo": 6903,
      "mplementation": 6904,
      "Ġ\"\"\",": 6905,
      "ContextWrapper": 6906,
      "Ġfiltered": 6907,
      "Ð¡ÑĽÐ²ÐĤ": 6908,
      "skills": 6909,
      "cats": 6910,
      "ĠCommandTester": 6911,
      "POS": 6912,
      "highlight": 6913,
      "Alchemy": 6914,
      "OptionList": 6915,
      "PREF": 6916,
      "Ġattrs": 6917,
      "ĠLoad": 6918,
      "ĠDictionary": 6919,
      "TOKENIZER": 6920,
      "ĠPILImage": 6921,
      "remote": 6922,
      "PTIONS": 6923,
      "CategoryFormatter": 6924,
      "MARKER": 6925,
      "ttp": 6926,
      "uminosity": 6927,
      "#!/": 6928,
      "wilio": 6929,
      "Ġcublas": 6930,
      "CLOSE": 6931,
      "ulthandler": 6932,
      "43": 6933,
      "76": 6934,
      "CY": 6935,
      "KE": 6936,
      "MIT": 6937,
      "Original": 6938,
      "Palette": 6939,
      "Sum": 6940,
      "TY": 6941,
      "Tab": 6942,
      "TResponseInputItem": 6943,
      "WIN": 6944,
      "cmin": 6945,
      "cmax": 6946,
      "hi": 6947,
      "hub": 6948,
      "jpg": 6949,
      "llama": 6950,
      "miter": 6951,
      "ob": 6952,
      "opp": 6953,
      "sy": 6954,
      "sid": 6955,
      "twitter": 6956,
      "vendor": 6957,
      "instructor": 6958,
      "ond": 6959,
      "alf": 6960,
      "enj": 6961,
      "health": 6962,
      "Ġcla": 6963,
      "anchor": 6964,
      "anische": 6965,
      "Ġfore": 6966,
      "Ġfallback": 6967,
      "Ġresource": 6968,
      "ural": 6969,
      "Ġinstructions": 6970,
      "locale": 6971,
      "asnumpy": 6972,
      "ola": 6973,
      "ueue": 6974,
      "Ġworld": 6975,
      "amed": 6976,
      "ssistant": 6977,
      "added": 6978,
      "Ġdue": 6979,
      "approx": 6980,
      "ellow": 6981,
      "protocol": 6982,
      "ĠSide": 6983,
      "esc": 6984,
      "typed": 6985,
      "Ġ_:": 6986,
      "ĠFairseq": 6987,
      "Ġprofile": 6988,
      "ĠMach": 6989,
      "four": 6990,
      "Ġydata": 6991,
      "atchpad": 6992,
      "ĠRemove": 6993,
      "Ġlists": 6994,
      "trip": 6995,
      "âĢļ\",": 6996,
      "ĠBatch": 6997,
      "Invoke": 6998,
      "Ġheap": 6999,
      "='',": 7000,
      "ERROR": 7001,
      "quirement": 7002,
      "ĠRich": 7003,
      "([])": 7004,
      "sible": 7005,
      "ĠGPU": 7006,
      "Ġ{}}},": 7007,
      "Ġkeyword": 7008,
      "Ġspecifier": 7009,
      "Ġnoise": 7010,
      "Ġsubclass": 7011,
      "Ġ``'": 7012,
      "Loss": 7013,
      "logical": 7014,
      "streamtube": 7015,
      "Ġcalling": 7016,
      "ÐłÑĽÐ²ÐĤ": 7017,
      "Ġsobel": 7018,
      "Ġmodified": 7019,
      "ÐłÂµÐł": 7020,
      "TOP": 7021,
      "Ġinterface": 7022,
      "Ġintermediate": 7023,
      "Ġlogic": 7024,
      "Ġmasked": 7025,
      "Ġqa": 7026,
      "Unable": 7027,
      "italic": 7028,
      "ĠChatPromptTemplate": 7029,
      "completions": 7030,
      "ÒĳÐ¡": 7031,
      "Ġneeds": 7032,
      "bordercolor": 7033,
      "Ġmonth": 7034,
      "Ġreplaced": 7035,
      "Ġentire": 7036,
      "QUEST": 7037,
      "uffman": 7038,
      "reasoning": 7039,
      "sentences": 7040,
      "windows": 7041,
      "Ġspaces": 7042,
      "Build": 7043,
      "Ġstructure": 7044,
      "ĠHandle": 7045,
      "ĠBuilder": 7046,
      "ĠControlType": 7047,
      "ĠRaises": 7048,
      "numerify": 7049,
      "Like": 7050,
      "Ġpickle": 7051,
      "Ġsuccessfully": 7052,
      "definition": 7053,
      "Ġcutout": 7054,
      "ollari": 7055,
      "agonal": 7056,
      "VIDER": 7057,
      "scratchpad": 7058,
      "/%": 7059,
      "735": 7060,
      "Ai": 7061,
      "All": 7062,
      "BED": 7063,
      "BOT": 7064,
      "CD": 7065,
      "Core": 7066,
      "DIS": 7067,
      "ECT": 7068,
      "Fairseq": 7069,
      "Ge": 7070,
      "Given": 7071,
      "JECT": 7072,
      "MENT": 7073,
      "Oper": 7074,
      "One": 7075,
      "Page": 7076,
      "Rate": 7077,
      "Retry": 7078,
      "Render": 7079,
      "Step": 7080,
      "TER": 7081,
      "TContext": 7082,
      "Write": 7083,
      "WAR": 7084,
      "]'": 7085,
      "dos": 7086,
      "ditional": 7087,
      "eps": 7088,
      "fp": 7089,
      "freq": 7090,
      "iet": 7091,
      "oetry": 7092,
      "ru": 7093,
      "sym": 7094,
      "tweet": 7095,
      "world": 7096,
      "}`": 7097,
      "Ġ99": 7098,
      "sell": 7099,
      "inp": 7100,
      "reader": 7101,
      "reamed": 7102,
      "origin": 7103,
      "stable": 7104,
      "lear": 7105,
      "alt": 7106,
      "Ġcategory": 7107,
      "Ġfr": 7108,
      "Ġreward": 7109,
      "Ġrequested": 7110,
      "Ġsio": 7111,
      "Ġinference": 7112,
      "aspect": 7113,
      "Ġboun": 7114,
      "uniform": 7115,
      "choose": 7116,
      "idb": 7117,
      "ssian": 7118,
      "adapter": 7119,
      "Ġdst": 7120,
      "ationError": 7121,
      "(\"[": 7122,
      "aper": 7123,
      "too": 7124,
      "proval": 7125,
      "probs": 7126,
      "ĠSync": 7127,
      "ĠSpeech": 7128,
      "Ġconstant": 7129,
      "ĠCan": 7130,
      "Ġarr": 7131,
      "Ġexport": 7132,
      "Ġorig": 7133,
      "Ġdeerflow": 7134,
      "ĠMobject": 7135,
      "('-": 7136,
      "('<": 7137,
      "Ġcoun": 7138,
      "Ġshort": 7139,
      "ÐłÐİÐ²ÐĤÑĽ": 7140,
      "ĠVocab": 7141,
      ").\"\"\"": 7142,
      "instances": 7143,
      "docstring": 7144,
      "TypedDict": 7145,
      "Ġ42": 7146,
      "Ġweak": 7147,
      "week": 7148,
      "notify": 7149,
      "ĠHumanMessage": 7150,
      "ĠWork": 7151,
      "ildcard": 7152,
      "fixed": 7153,
      "Member": 7154,
      "Ġruntime": 7155,
      "Ġleg": 7156,
      "subplots": 7157,
      "Ġuseful": 7158,
      "parents": 7159,
      "forward": 7160,
      "locations": 7161,
      "LEFT": 7162,
      "processors": 7163,
      "})\"": 7164,
      "behavior": 7165,
      "skipped": 7166,
      "actual": 7167,
      "aching": 7168,
      "Ġstarting": 7169,
      "Ġbucket": 7170,
      "ÐłÑĽÐ²": 7171,
      "Ġtrg": 7172,
      "Ġpassing": 7173,
      "Ġmarks": 7174,
      "START": 7175,
      "buttons": 7176,
      "Ġallowlist": 7177,
      "Ġmatches": 7178,
      "Ð¢ÑĴÐłÐĬÐł": 7179,
      "ĠAgentAction": 7180,
      "ĠAsyncOpenAI": 7181,
      "Ġnormalized": 7182,
      "ChatCompletion": 7183,
      "404": 7184,
      "Layer": 7185,
      "partition": 7186,
      "super": 7187,
      "UMN": 7188,
      "Scene": 7189,
      "Ġoperator": 7190,
      "Ġstdin": 7191,
      "ĠFileNotFoundError": 7192,
      "MODE": 7193,
      "simo": 7194,
      "Ġcomponents": 7195,
      "----------------------------------------------------------------": 7196,
      "Ġsimilar": 7197,
      "Legendgrouptitle": 7198,
      "24242424": 7199,
      "intermediates": 7200,
      "Ġdescribed": 7201,
      "11111111": 7202,
      "ĠConsoleMessage": 7203,
      "ĠLogger": 7204,
      "Ġeditable": 7205,
      "hypo": 7206,
      "ĠLegendgrouptitle": 7207,
      "ience": 7208,
      "ĠSQLAlchemy": 7209,
      "Ġhypo": 7210,
      "STRING": 7211,
      "Ġdetermine": 7212,
      "JsonSchema": 7213,
      "Location": 7214,
      "Ġscalar": 7215,
      "scheduler": 7216,
      "ĠARGV": 7217,
      "ĠAlign": 7218,
      "ĠMachine": 7219,
      "((\"": 7220,
      "*,": 7221,
      "93": 7222,
      "=\"\"": 7223,
      "Ac": 7224,
      "Airbyte": 7225,
      "Body": 7226,
      "Categorical": 7227,
      "Hub": 7228,
      "Iterator": 7229,
      "MT": 7230,
      "Polygon": 7231,
      "Point": 7232,
      "SK": 7233,
      "San": 7234,
      "Spec": 7235,
      "VI": 7236,
      "Zone": 7237,
      "]*": 7238,
      "`)": 7239,
      "aux": 7240,
      "branch": 7241,
      "blank": 7242,
      "dating": 7243,
      "eq": 7244,
      "fmt": 7245,
      "frozen": 7246,
      "hide": 7247,
      "ircle": 7248,
      "kind": 7249,
      "mix": 7250,
      "rb": 7251,
      "sn": 7252,
      "sun": 7253,
      "sand": 7254,
      "ssed": 7255,
      "switch": 7256,
      "ttl": 7257,
      "wers": 7258,
      "Ġjo": 7259,
      "inc": 7260,
      "tel": 7261,
      "reverse": 7262,
      "recursive": 7263,
      "ordered": 7264,
      "street": 7265,
      "learn": 7266,
      "alty": 7267,
      "arx": 7268,
      "roy": 7269,
      "Ġca": 7270,
      "Ġcnn": 7271,
      "Ġpers": 7272,
      "Ġpatched": 7273,
      "Ġreal": 7274,
      "Ġreceive": 7275,
      "Ġssl": 7276,
      "Ġinv": 7277,
      "Ġinteg": 7278,
      "lict": 7279,
      "Ġbo": 7280,
      "Ġblack": 7281,
      "Ġomit": 7282,
      "Ġoauth": 7283,
      "Ġmut": 7284,
      "Ġmult": 7285,
      "unary": 7286,
      "unpack": 7287,
      "Ġemail": 7288,
      "Ġwy": 7289,
      "choices": 7290,
      "ĊĠĠĠĠĠĠĠĠĠĠĠĠĠĠĠĠĠ": 7291,
      "ulator": 7292,
      "coords": 7293,
      "gether": 7294,
      "(\".": 7295,
      "illi": 7296,
      "edu": 7297,
      "istence": 7298,
      "isosurface": 7299,
      "ĊĊĠ": 7300,
      "profiles": 7301,
      "processed": 7302,
      "ĠSu": 7303,
      "Ġconstruct": 7304,
      "ĠCO": 7305,
      "ĠClip": 7306,
      "tice": 7307,
      "tigu": 7308,
      "linux": 7309,
      "Ġrv": 7310,
      "Ġdesc": 7311,
      "ĠMulti": 7312,
      "ĠON": 7313,
      "ĠOTHER": 7314,
      "ĠRecycle": 7315,
      "ĠRecognizer": 7316,
      "ĠEnsure": 7317,
      "Ġvoice": 7318,
      "ĠBinary": 7319,
      "ĠVect": 7320,
      "ĠVMobject": 7321,
      "colorscale": 7322,
      "backwards": 7323,
      "accept": 7324,
      "Convert": 7325,
      "Ġpredi": 7326,
      "INDEX": 7327,
      "imed": 7328,
      "cast": 7329,
      "formatter": 7330,
      "runs": 7331,
      "runnable": 7332,
      "([-": 7333,
      "Ġconfigur": 7334,
      "ATTR": 7335,
      "Ġ{}\".": 7336,
      "Ġlinear": 7337,
      "overlay": 7338,
      "201": 7339,
      "2024": 7340,
      "Exp": 7341,
      "Ġsaved": 7342,
      "10000": 7343,
      "Select": 7344,
      "Selector": 7345,
      "RED": 7346,
      "Ġ70": 7347,
      "Ġ78": 7348,
      "ĠlÐł": 7349,
      "ITH": 7350,
      "curs": 7351,
      "nsitive": 7352,
      "functional": 7353,
      "Anthropic": 7354,
      "Ġsuccess": 7355,
      "herit": 7356,
      "ÐłÐĭi": 7357,
      "sessions": 7358,
      "Ġnegative": 7359,
      "Ġperf": 7360,
      "ranges": 7361,
      "Ġmasking": 7362,
      "ABEL": 7363,
      "Ġannotated": 7364,
      "Ġqp": 7365,
      "sidebar": 7366,
      "foreground": 7367,
      "initials": 7368,
      "Ġworkflow": 7369,
      "echo": 7370,
      "mediateValue": 7371,
      "ĠAsyncMock": 7372,
      "ÐłÑŁÐłÑĵ": 7373,
      "ĠRunner": 7374,
      "Ġinitialized": 7375,
      "aitai": 7376,
      "ometric": 7377,
      "Ġcompatibility": 7378,
      "Notify": 7379,
      "AMES": 7380,
      "derableType": 7381,
      "PROVIDER": 7382,
      "Ġmeaning": 7383,
      "ĠDataset": 7384,
      "Ġviewport": 7385,
      "Ġregular": 7386,
      "ĠKeyError": 7387,
      "QUAL": 7388,
      "rtol": 7389,
      "handlers": 7390,
      "Ġcert": 7391,
      "marize": 7392,
      "progressbar": 7393,
      "claude": 7394,
      "Bearer": 7395,
      "ReplaceWindow": 7396,
      "66666666": 7397,
      "multidb": 7398,
      "Ġgear": 7399,
      "ĊĊĉĉĉ": 7400,
      "assignment": 7401,
      "ighbor": 7402,
      "Ġdaily": 7403,
      "editable": 7404,
      "warmup": 7405,
      "Ġobtain": 7406,
      "ĠLinked": 7407,
      "identity": 7408,
      "Ġtruncated": 7409,
      "ĠPaymentCardBrand": 7410,
      "carpet": 7411,
      "Ġdynamically": 7412,
      "Password": 7413,
      "Ġcopies": 7414,
      "recognize": 7415,
      "escri": 7416,
      "tiguous": 7417,
      "$\",": 7418,
      "'re": 7419,
      "'``,": 7420,
      ",))": 7421,
      "46": 7422,
      "53": 7423,
      "AV": 7424,
      "And": 7425,
      "ACTION": 7426,
      "FORM": 7427,
      "Mixin": 7428,
      "Ne": 7429,
      "Pre": 7430,
      "Play": 7431,
      "Phone": 7432,
      "Width": 7433,
      "bid": 7434,
      "hue": 7435,
      "km": 7436,
      "knowledge": 7437,
      "lc": 7438,
      "lations": 7439,
      "oid": 7440,
      "pd": 7441,
      "plt": 7442,
      "uÐł": 7443,
      "xc": 7444,
      "yÐł": 7445,
      "you": 7446,
      "zmap": 7447,
      "Ġmp": 7448,
      "see": 7449,
      "selector": 7450,
      "sensitive": 7451,
      "records": 7452,
      "studio": 7453,
      "dean": 7454,
      "lem": 7455,
      "Ġamount": 7456,
      "Ġtl": 7457,
      "Ġtur": 7458,
      "erred": 7459,
      "almost": 7460,
      "enu": 7461,
      "Ġcross": 7462,
      "mes": 7463,
      "Ġfet": 7464,
      "Ġph": 7465,
      "Ġpin": 7466,
      "Ġplugin": 7467,
      "geometry": 7468,
      "Ġsched": 7469,
      "urlo": 7470,
      "ceeded": 7471,
      "loor": 7472,
      "lovely": 7473,
      "lied": 7474,
      "livery": 7475,
      "olds": 7476,
      "Ġbtn": 7477,
      "dic": 7478,
      "Ġmass": 7479,
      "Ġwriter": 7480,
      "chive": 7481,
      "Ġ(_": 7482,
      "()):": 7483,
      "ckets": 7484,
      "urnal": 7485,
      "Ġdefinit": 7486,
      "ssrc": 7487,
      "laude": 7488,
      "Ġdollari": 7489,
      "getitem": 7490,
      "Â°\"),": 7491,
      "Ġanimation": 7492,
      "Ġ[*": 7493,
      "ĠAH": 7494,
      "ĠAction": 7495,
      "ĠADA": 7496,
      "consume": 7497,
      "connections": 7498,
      "ĠSV": 7499,
      "ĠStr": 7500,
      "-----": 7501,
      "via": 7502,
      "ĠPip": 7503,
      "Ġgm": 7504,
      "Ġgoogle": 7505,
      "Ġproc": 7506,
      "Ġprop": 7507,
      "Ġlocale": 7508,
      "ĠMa": 7509,
      "Ġmedia": 7510,
      "ĠDollar": 7511,
      "Ġtexts": 7512,
      "Ġtextfont": 7513,
      "Ġshuffle": 7514,
      "predi": 7515,
      "arts": 7516,
      "addle": 7517,
      "cessary": 7518,
      "ysfs": 7519,
      "backtest": 7520,
      "Ġraised": 7521,
      "Ġsetting": 7522,
      "Ġwere": 7523,
      "104": 7524,
      "ĠHorizontal": 7525,
      "Ġfixture": 7526,
      "pie": 7527,
      "pipe": 7528,
      "pixel": 7529,
      "Ġattach": 7530,
      "Ġadding": 7531,
      "Ġkeywords": 7532,
      "Dataclass": 7533,
      "ious": 7534,
      "Parallel": 7535,
      "bars": 7536,
      "ĠSession": 7537,
      "ĠContent": 7538,
      "ĠArg": 7539,
      "viewclass": 7540,
      "ARCH": 7541,
      "000000": 7542,
      "quences": 7543,
      "clidean": 7544,
      "Ġpassword": 7545,
      "ÐłÂµÐ²": 7546,
      "lua": 7547,
      "visualization": 7548,
      "dfs": 7549,
      "osen": 7550,
      "Ġdatasets": 7551,
      "TextParam": 7552,
      "Ġverify": 7553,
      "ABIL": 7554,
      "Ġtrim": 7555,
      "Ġtriangulation": 7556,
      "Ġacross": 7557,
      "Ġtables": 7558,
      "Ġtrainer": 7559,
      "Ġcached": 7560,
      "optimizing": 7561,
      "Ġunderlying": 7562,
      "Ġincludes": 7563,
      "certificate": 7564,
      "transfer": 7565,
      "annotators": 7566,
      "DOWN": 7567,
      "ilureDete": 7568,
      "iliary": 7569,
      "radient": 7570,
      "Ġplots": 7571,
      "transforms": 7572,
      "relations": 7573,
      "Ġvisible": 7574,
      "QUOT": 7575,
      "ĠAttributes": 7576,
      "Online": 7577,
      "sentence": 7578,
      "vester": 7579,
      "ĠScroll": 7580,
      "ĠNOTE": 7581,
      "ĠtehniÐł": 7582,
      "FTWA": 7583,
      "atalan": 7584,
      "ĠOrder": 7585,
      "evaluate": 7586,
      "Ġsentence": 7587,
      "ĠBuild": 7588,
      "ynamic": 7589,
      "Retriever": 7590,
      "xxxxxxxxxxxxxxxxxxxxxxxxxxxxxxxx": 7591,
      "ForeignKey": 7592,
      "istry": 7593,
      "Ġsmaller": 7594,
      "Rectangle": 7595,
      "ollarÐł": 7596,
      "gresql": 7597,
      "heroes": 7598,
      "retriever": 7599,
      "IMEOUT": 7600,
      "reduce": 7601,
      "HEADER": 7602,
      "ĠOptionListApp": 7603,
      "Harvester": 7604,
      "ĠSOFTWA": 7605,
      "urlopen": 7606,
      "ĠADAPTORS": 7607,
      "ilureDetector": 7608,
      "ĠSOFTWARE": 7609,
      "-####": 7610,
      ".'": 7611,
      "72": 7612,
      "73": 7613,
      ";\\": 7614,
      "Act": 7615,
      "Azure": 7616,
      "AWS": 7617,
      "Cli": 7618,
      "GRE": 7619,
      "Ident": 7620,
      "KS": 7621,
      "MY": 7622,
      "NI": 7623,
      "RES": 7624,
      "Stri": 7625,
      "SUFF": 7626,
      "Win": 7627,
      "Writer": 7628,
      "]['": 7629,
      "dst": 7630,
      "dark": 7631,
      "fund": 7632,
      "frequency": 7633,
      "href": 7634,
      "iy": 7635,
      "ied": 7636,
      "lm": 7637,
      "ograph": 7638,
      "patterns": 7639,
      "qlib": 7640,
      "rnn": 7641,
      "rink": 7642,
      "tur": 7643,
      "tid": 7644,
      "xes": 7645,
      "Ġ00": 7646,
      "information": 7647,
      "instrument": 7648,
      "orrow": 7649,
      "deploy": 7650,
      "Ġage": 7651,
      "Ġturn": 7652,
      "Ġtim": 7653,
      "enable": 7654,
      "Ġii": 7655,
      "arr": 7656,
      "roq": 7657,
      "mega": 7658,
      "Ġphone": 7659,
      "Ġsche": 7660,
      "asar": 7661,
      "asing": 7662,
      "rail": 7663,
      "peg": 7664,
      "olar": 7665,
      "Ġbasic": 7666,
      "disc": 7667,
      "unding": 7668,
      "()).": 7669,
      "adj": 7670,
      "Ġdd": 7671,
      "Ġdup": 7672,
      "ĠdollarÐł": 7673,
      "cos": 7674,
      "(\"..": 7675,
      "Ġankur": 7676,
      "ĠAuth": 7677,
      "ĠAbstract": 7678,
      "contour": 7679,
      "\")])": 7680,
      "ĠSend": 7681,
      "pers": 7682,
      "person": 7683,
      "ctionaries": 7684,
      "ĠCal": 7685,
      "ĠCom": 7686,
      "ĠCho": 7687,
      "ĠContainer": 7688,
      "tip": 7689,
      "timer": 7690,
      "Ref": 7691,
      "Ġthose": 7692,
      "Ġexperiment": 7693,
      "parallel": 7694,
      "Ġdid": 7695,
      "Ġdictionaries": 7696,
      "ĠFrance": 7697,
      "Ġstill": 7698,
      "Ġhyp": 7699,
      "ĊĠĠĠĠĠĠĠĠĠĠĠĠĠĠĠĠĠĠĠĠĠĠĠĠĠĠĠĠĠ": 7700,
      "Ġ26": 7701,
      "Ġgateway": 7702,
      "Ġproper": 7703,
      "ĠMake": 7704,
      "ĠDB": 7705,
      "Ġshare": 7706,
      "abe": 7707,
      "ewee": 7708,
      "comment": 7709,
      "ĠExtra": 7710,
      "ĠBack": 7711,
      "Ġwhl": 7712,
      "Ġoutcome": 7713,
      "Conn": 7714,
      "calendar": 7715,
      "ĠWS": 7716,
      "Choice": 7717,
      "maxsize": 7718,
      "ough": 7719,
      "loading": 7720,
      "sio": 7721,
      "sider": 7722,
      "sites": 7723,
      "xxx": 7724,
      "company": 7725,
      "Ġnotes": 7726,
      "Ġcodec": 7727,
      "Ġindexes": 7728,
      ":`.": 7729,
      "ĠBaseLanguageModel": 7730,
      "ITION": 7731,
      "resolved": 7732,
      "Ġoverlay": 7733,
      "Ġoverload": 7734,
      "AIL": 7735,
      "Ġtransp": 7736,
      "Ġfactor": 7737,
      "sampler": 7738,
      "samplers": 7739,
      "traceback": 7740,
      "workspace": 7741,
      "creator": 7742,
      "Ġloading": 7743,
      "Engine": 7744,
      "Ġactiv": 7745,
      "avg": 7746,
      "Ġrenderer": 7747,
      "gistered": 7748,
      "frastructure": 7749,
      "declare": 7750,
      "OpenGLVMobject": 7751,
      "ÐłÑĳÐ¡": 7752,
      "8888": 7753,
      "what": 7754,
      "reaker": 7755,
      "bservability": 7756,
      "operations": 7757,
      "Ġplacement": 7758,
      "Ġvectors": 7759,
      "ESTAMP": 7760,
      "IMESTAMP": 7761,
      "Ġpipx": 7762,
      "Ġoperation": 7763,
      "detection": 7764,
      "responsive": 7765,
      "Ġtracks": 7766,
      "Ġterminated": 7767,
      "tmpdir": 7768,
      "etric": 7769,
      "ĠCommandPalette": 7770,
      "lookups": 7771,
      "gpf": 7772,
      "igration": 7773,
      "Thread": 7774,
      "factors": 7775,
      "csproj": 7776,
      "riting": 7777,
      "DICT": 7778,
      "COLUMN": 7779,
      "ÐłÑĸÐ²ÐĤÑĻÐ²ÐĤ": 7780,
      "ĠShould": 7781,
      "SPANS": 7782,
      "misc": 7783,
      "Ġidentifier": 7784,
      "Ġboundary": 7785,
      "ĠSystemMessage": 7786,
      "SpanData": 7787,
      "Initialize": 7788,
      "compatible": 7789,
      "Complexity": 7790,
      "Ġtriangles": 7791,
      "Comments": 7792,
      "TemporaryDirectory": 7793,
      "Ġcandidates": 7794,
      "Ġintera": 7795,
      "ĠFormat": 7796,
      "ĠSchemaValidator": 7797,
      "ĠDirectUrl": 7798,
      "builtin": 7799,
      "TOOLS": 7800,
      "Ġintegers": 7801,
      "112": 7802,
      "81": 7803,
      "82": 7804,
      "AX": 7805,
      "Binary": 7806,
      "CB": 7807,
      "CV": 7808,
      "Called": 7809,
      "LD": 7810,
      "Light": 7811,
      "LANG": 7812,
      "LENG": 7813,
      "Meta": 7814,
      "Patch": 7815,
      "SR": 7816,
      "Some": 7817,
      "Tickfont": 7818,
      "XX": 7819,
      "cnt": 7820,
      "ef": 7821,
      "emb": 7822,
      "egg": 7823,
      "eager": 7824,
      "equation": 7825,
      "fun": 7826,
      "flush": 7827,
      "ij": 7828,
      "ibo": 7829,
      "ju": 7830,
      "mÐł": 7831,
      "wap": 7832,
      "wind": 7833,
      "xaxis": 7834,
      "za": 7835,
      "zon": 7836,
      "zoom": 7837,
      "ĠÐ¡ÐĤÐ¡ÑŁ": 7838,
      "Ġ----------------------------------------------------------------": 7839,
      "sec": 7840,
      "returns": 7841,
      "decess": 7842,
      "dependency": 7843,
      "ency": 7844,
      "Ġimprove": 7845,
      "roid": 7846,
      "Ġcaching": 7847,
      "ane": 7848,
      "members": 7849,
      "Ġfocus": 7850,
      "Ġfrequency": 7851,
      "Ġscope": 7852,
      "urpo": 7853,
      "Ġinp": 7854,
      "asÐł": 7855,
      "Ġnone": 7856,
      "Ġocc": 7857,
      "dies": 7858,
      "unch": 7859,
      "Ġemit": 7860,
      "Ġemoji": 7861,
      "Ġwrong": 7862,
      "cker": 7863,
      "Ġ')": 7864,
      "ulate": 7865,
      "Ġdomin": 7866,
      "ĠTr": 7867,
      "ĠTemp": 7868,
      "ĠTEXT": 7869,
      "ĠTickfont": 7870,
      "ages": 7871,
      "coverage": 7872,
      "upstream": 7873,
      "ish": 7874,
      "isfile": 7875,
      "setdefault": 7876,
      "','": 7877,
      "ĠCOL": 7878,
      "ĠCTk": 7879,
      "maid": 7880,
      "scrollable": 7881,
      "quo": 7882,
      "quad": 7883,
      "vices": 7884,
      "ams": 7885,
      "Remove": 7886,
      "Ġdistributed": 7887,
      "ĠFin": 7888,
      "Ġstandard": 7889,
      "Ġorigin": 7890,
      "ĠPoetry": 7891,
      "Ġ*=": 7892,
      "ower": 7893,
      "Ġdecoded": 7894,
      "Ġdegrees": 7895,
      "Ġ`{": 7896,
      "ĠDash": 7897,
      "istic": 7898,
      "istics": 7899,
      "anging": 7900,
      "angling": 7901,
      "ĠLI": 7902,
      "ĠLay": 7903,
      "ĠRelease": 7904,
      "Ġargv": 7905,
      "ĠAnthropic": 7906,
      "ĠEvaluator": 7907,
      "additional": 7908,
      "ggle": 7909,
      "ĠNew": 7910,
      "ÐłÐĨÐ¡": 7911,
      "labeling": 7912,
      "buy": 7913,
      "Ġwhose": 7914,
      "ConcurrencyLim": 7915,
      "Ġprec": 7916,
      "Ġpreds": 7917,
      "Ġ45": 7918,
      "Ġ400": 7919,
      "tempfile": 7920,
      "scheme": 7921,
      "Â±\",": 7922,
      "untu": 7923,
      "1024": 7924,
      "maximum": 7925,
      "waitable": 7926,
      "Ġconfigured": 7927,
      "Media": 7928,
      "ticipant": 7929,
      "subquery": 7930,
      "252": 7931,
      "favicon": 7932,
      "uses": 7933,
      "logprob": 7934,
      "Ġmocker": 7935,
      "ĠArray": 7936,
      "Ġlimiter": 7937,
      "Ġlar": 7938,
      "Ġluminosity": 7939,
      "Ġzero": 7940,
      "Ġformatting": 7941,
      "Ġminor": 7942,
      "Ġtitlecase": 7943,
      "Ġbackends": 7944,
      "Ġtranscript": 7945,
      "[:]": 7946,
      "onential": 7947,
      "bsz": 7948,
      "xyz": 7949,
      "manifest": 7950,
      "mistral": 7951,
      "crete": 7952,
      "scripts": 7953,
      "Ġacquired": 7954,
      "pages": 7955,
      "Ġapps": 7956,
      "clicks": 7957,
      "ÐłÑŁÐ²ÐĤÑĽ": 7958,
      "âĤ¬\",": 7959,
      "Ġquick": 7960,
      "scattermapbox": 7961,
      "archiveresult": 7962,
      "Ġplaced": 7963,
      "Generator": 7964,
      "Ġboto": 7965,
      "Ġrefresh": 7966,
      "packaging": 7967,
      "Distribution": 7968,
      "Factory": 7969,
      "likelihood": 7970,
      "Ġoffsets": 7971,
      "Ġstrategies": 7972,
      "Ġcombination": 7973,
      "ĠLLMChain": 7974,
      "ĠVertical": 7975,
      "specifier": 7976,
      "confidence": 7977,
      "NDArray": 7978,
      "USER": 7979,
      "loye": 7980,
      "Ġrelated": 7981,
      "candidates": 7982,
      "ĠOutputParser": 7983,
      "Ġcalcul": 7984,
      "Backoff": 7985,
      "Arguments": 7986,
      "vertexai": 7987,
      "\"(?<=[": 7988,
      "attempts": 7989,
      "ĠMaximum": 7990,
      "Processor": 7991,
      "Ġlandmark": 7992,
      "ĊĠĠĠĠĠĠĠĠĠĠĠĠĠĠĠĠĠĠĠĠĠĠĠĠĠĠĠĠĠĠĠĠĠĠĠĠĠĠĠĠĠĠĠĠĠĠĠĠĠĠĠĠĠĠĠĠĠĠĠĠĠĠĠĠ": 7993,
      "Ġadjac": 7994,
      "ĠOSError": 7995,
      "Ġconditions": 7996,
      "precationWarning": 7997,
      "ContentPartTextParam": 7998,
      "ĠPriority": 7999,
      "Ġ'+'": 8000,
      "aviate": 8001,
      "amount": 8002,
      "DISABLE": 8003,
      "PolygonZone": 8004,
      "Ġfetched": 8005,
      "ABILITY": 8006,
      "LENGTH": 8007,
      "\"<": 8008,
      "\".\"": 8009,
      "(\"\"": 8010,
      ")'": 8011,
      "224": 8012,
      "600": 8013,
      "Arial": 8014,
      "Cor": 8015,
      "Can": 8016,
      "CLA": 8017,
      "CUB": 8018,
      "Dark": 8019,
      "GP": 8020,
      "GAT": 8021,
      "GUI": 8022,
      "Gallery": 8023,
      "Http": 8024,
      "Mal": 8025,
      "NN": 8026,
      "Net": 8027,
      "Out": 8028,
      "SOR": 8029,
      "Skill": 8030,
      "Video": 8031,
      "Your": 8032,
      "_.": 8033,
      "_=\"": 8034,
      "bur": 8035,
      "catch": 8036,
      "dk": 8037,
      "dur": 8038,
      "gateway": 8039,
      "ites": 8040,
      "implementation": 8041,
      "lask": 8042,
      "middle": 8043,
      "ndim": 8044,
      "pas": 8045,
      "ration": 8046,
      "rstrip": 8047,
      "sDict": 8048,
      "south": 8049,
      "wich": 8050,
      "{}": 8051,
      "Ġutt": 8052,
      "inar": 8053,
      "indent": 8054,
      "resources": 8055,
      "relev": 8056,
      "Ġ\"(": 8057,
      "Ġ\"..": 8058,
      "legend": 8059,
      "Ġtk": 8060,
      "Ġts": 8061,
      "ermin": 8062,
      "ending": 8063,
      "Ġimpro": 8064,
      "Ġput": 8065,
      "Ġplease": 8066,
      "Ġrepo": 8067,
      "Ġrerank": 8068,
      "Ġrecursive": 8069,
      "Ġreceived": 8070,
      "Ġsstore": 8071,
      "celer": 8072,
      "Ġinfer": 8073,
      "utine": 8074,
      "rase": 8075,
      "peated": 8076,
      "olated": 8077,
      "Ġball": 8078,
      "unds": 8079,
      "serted": 8080,
      "Ġwx": 8081,
      "Ġwar": 8082,
      "cho": 8083,
      "()._": 8084,
      "Ġdefine": 8085,
      "ptr": 8086,
      "copg": 8087,
      "concat": 8088,
      "contrib": 8089,
      "appen": 8090,
      "verify": 8091,
      "\")[": 8092,
      "\")],": 8093,
      "sprite": 8094,
      "ĠCallback": 8095,
      "amb": 8096,
      "\"]]": 8097,
      "Redis": 8098,
      "Ġart": 8099,
      "Ġdisc": 8100,
      "Ġstmt": 8101,
      "outlier": 8102,
      "ĠPRO": 8103,
      "ĠPEP": 8104,
      "Ġgu": 8105,
      "Ġgap": 8106,
      "Ġdecode": 8107,
      "Ġdealer": 8108,
      "Ġdesired": 8109,
      "lenium": 8110,
      "Ġlookup": 8111,
      "Ġloops": 8112,
      "Ġlosses": 8113,
      "ĠOp": 8114,
      "ĠListed": 8115,
      "Ġcoefficients": 8116,
      "Ġenum": 8117,
      "triangulation": 8118,
      "pretrained": 8119,
      "Ġmade": 8120,
      "Ġ::": 8121,
      "addr": 8122,
      "ĠVcs": 8123,
      "Ġpytester": 8124,
      "scribe": 8125,
      "===": 8126,
      "Ġ})": 8127,
      "ĠsetUp": 8128,
      "ERAL": 8129,
      "Ġweighted": 8130,
      "neighbors": 8131,
      "Ġ55": 8132,
      "ĠWith": 8133,
      "ĠWindow": 8134,
      "ouch": 8135,
      "ENS": 8136,
      "([(\"": 8137,
      "fixes": 8138,
      "ĠÐłÂµ": 8139,
      "Ġattention": 8140,
      "']['": 8141,
      "redraw": 8142,
      "Ġnewest": 8143,
      "matting": 8144,
      "calling": 8145,
      "interpreter": 8146,
      "Ġlet": 8147,
      "Ġlearning": 8148,
      "Ġcompressed": 8149,
      "Ġsubset": 8150,
      "Paris": 8151,
      "ÐłÑĸÐł": 8152,
      "ĠSelect": 8153,
      "processing": 8154,
      "ĠInfo": 8155,
      "Ġ1024": 8156,
      "offsets": 8157,
      "Section": 8158,
      "ITS": 8159,
      "ggingface": 8160,
      "Ġendpoint": 8161,
      "249": 8162,
      "Ġcollect": 8163,
      "Ġchecking": 8164,
      "correct": 8165,
      "ARR": 8166,
      "phab": 8167,
      "ongo": 8168,
      "ĠChange": 8169,
      "Ġmarkers": 8170,
      "many": 8171,
      "manage": 8172,
      "Ġmodules": 8173,
      "Ġpermission": 8174,
      "Ġcaps": 8175,
      "Ġacquire": 8176,
      "modality": 8177,
      "LOOK": 8178,
      "IDTH": 8179,
      "month": 8180,
      "priate": 8181,
      "extension": 8182,
      "abcd": 8183,
      "denAi": 8184,
      "Unstructured": 8185,
      "Ġcharacter": 8186,
      "exporter": 8187,
      "Ġcorner": 8188,
      "ird": 8189,
      "Ġstreaming": 8190,
      "Ġpages": 8191,
      "ÐłÑŁÐ²ÐĤÑĻ": 8192,
      "Events": 8193,
      "ĠChatInvoke": 8194,
      "scatterternary": 8195,
      "Ġtransforms": 8196,
      "ĠGenerationChunk": 8197,
      "Namespace": 8198,
      "retch": 8199,
      "7777": 8200,
      "Timeout": 8201,
      "importer": 8202,
      "ĠToolMessage": 8203,
      "tracks": 8204,
      "Ġcomplex": 8205,
      "Authorization": 8206,
      "databases": 8207,
      "Ġauthor": 8208,
      "Ġalignment": 8209,
      "similarity": 8210,
      "indicator": 8211,
      "polate": 8212,
      "ĠNumberContainer": 8213,
      "ternative": 8214,
      "Ġmerged": 8215,
      "COLOR": 8216,
      "jection": 8217,
      "Linear": 8218,
      "ĠTrainer": 8219,
      "]+)": 8220,
      "front": 8221,
      "quester": 8222,
      "otionEvent": 8223,
      "pinned": 8224,
      "ĠServer": 8225,
      "Align": 8226,
      "mismatch": 8227,
      "attempt": 8228,
      "Ġtags": 8229,
      "Ġtaken": 8230,
      "WORDS": 8231,
      "Ġ[{'": 8232,
      "Ġtomlkit": 8233,
      "CURSOR": 8234,
      "Ġextras": 8235,
      "Turtle": 8236,
      "lapsed": 8237,
      "Ġcounterpart": 8238,
      "ĠRename": 8239,
      "euro": 8240,
      "slots": 8241,
      "ryptograph": 8242,
      "ĠOtherwise": 8243,
      "BytesIO": 8244,
      "Ġlatest": 8245,
      "choroplethmap": 8246,
      "Ġappropriate": 8247,
      "DEPRECATED": 8248,
      "rainz": 8249,
      "ariaDB": 8250,
      "ScaleType": 8251,
      "Ġcoordinates": 8252,
      "POSITION": 8253,
      "ĠSpeechTo": 8254,
      "escription": 8255,
      "LOOKUP": 8256,
      "ryptography": 8257,
      "!\"": 8258,
      ".)": 8259,
      "/.": 8260,
      "51": 8261,
      "89": 8262,
      ":\")": 8263,
      "After": 8264,
      "CF": 8265,
      "Custom": 8266,
      "Callable": 8267,
      "Dummy": 8268,
      "FIN": 8269,
      "GS": 8270,
      "Gen": 8271,
      "Green": 8272,
      "GPT": 8273,
      "LR": 8274,
      "LAS": 8275,
      "LABEL": 8276,
      "MESS": 8277,
      "NS": 8278,
      "Normal": 8279,
      "NAMES": 8280,
      "Po": 8281,
      "Player": 8282,
      "Snapshot": 8283,
      "Speed": 8284,
      "VIS": 8285,
      "WM": 8286,
      "YD": 8287,
      "]\\": 8288,
      "]},": 8289,
      "big": 8290,
      "cial": 8291,
      "clock": 8292,
      "dT": 8293,
      "dge": 8294,
      "django": 8295,
      "docker": 8296,
      "emon": 8297,
      "fall": 8298,
      "grpc": 8299,
      "jpeg": 8300,
      "luster": 8301,
      "nit": 8302,
      "ood": 8303,
      "olean": 8304,
      "polygon": 8305,
      "sf": 8306,
      "smoothing": 8307,
      "ton": 8308,
      "tar": 8309,
      "who": 8310,
      "}\"),": 8311,
      "ĊĊĊĠĠĠ": 8312,
      "ongest": 8313,
      "stplayer": 8314,
      "dele": 8315,
      "Ġ\"\").": 8316,
      "atis": 8317,
      "atmap": 8318,
      "Ġav": 8319,
      "Ġtxt": 8320,
      "alind": 8321,
      "Ġcent": 8322,
      "Ġcsv": 8323,
      "Ġcwd": 8324,
      "Ġfbind": 8325,
      "Ġfrank": 8326,
      "Ġflush": 8327,
      "mpling": 8328,
      "Ġrepeat": 8329,
      "urity": 8330,
      "losses": 8331,
      "asite": 8332,
      "Ġnargs": 8333,
      "Ġbin": 8334,
      "Ġbsz": 8335,
      "Ġobs": 8336,
      "disk": 8337,
      "teration": 8338,
      "Ġaspect": 8339,
      "Ġ'',": 8340,
      "lared": 8341,
      "lazy": 8342,
      "admin": 8343,
      "ulative": 8344,
      "Ġdriver": 8345,
      "Ġisn": 8346,
      "coefficients": 8347,
      "getvalue": 8348,
      "(\".\")": 8349,
      "ising": 8350,
      "versed": 8351,
      "texture": 8352,
      "ĠStrip": 8353,
      "Ġcons": 8354,
      "percent": 8355,
      "ĠCurrent": 8356,
      "pyproject": 8357,
      "=\"_": 8358,
      "ocial": 8359,
      "parsed": 8360,
      "Ġdiagram": 8361,
      "ĠFixed": 8362,
      "Ġhero": 8363,
      "outube": 8364,
      "shutdown": 8365,
      "importance": 8366,
      "Ġsecurity": 8367,
      "ĠMat": 8368,
      "ĠMCP": 8369,
      "transcript": 8370,
      "Ġmetrics": 8371,
      "ipal": 8372,
      "ĠDec": 8373,
      "ĠOver": 8374,
      "codec": 8375,
      "codex": 8376,
      "boolean": 8377,
      "prediction": 8378,
      "Ġ35": 8379,
      "ĠEND": 8380,
      "ĠEdit": 8381,
      "ĠBrowser": 8382,
      "ĠNNI": 8383,
      "extras": 8384,
      "Instructor": 8385,
      "backends": 8386,
      "acceler": 8387,
      "ifiers": 8388,
      "Ġ54": 8389,
      "ĠRel": 8390,
      "indexes": 8391,
      "Ġknowledge": 8392,
      "Ġcluster": 8393,
      "ATERAL": 8394,
      "Probe": 8395,
      "Proxy": 8396,
      "internet": 8397,
      "subtitle": 8398,
      "compose": 8399,
      "Ġnote": 8400,
      "Ġpolicy": 8401,
      "methods": 8402,
      "Ġ%(": 8403,
      "nums": 8404,
      "Ġ``\"": 8405,
      "logy": 8406,
      "Expected": 8407,
      "vectors": 8408,
      "Ġsampling": 8409,
      "positional": 8410,
      "REATE": 8411,
      "REQUEST": 8412,
      "Ġfunctionality": 8413,
      "parseApi": 8414,
      "Ġcols": 8415,
      "Ġbuilt": 8416,
      "organisation": 8417,
      "trainer": 8418,
      "modes": 8419,
      "Decode": 8420,
      "6467": 8421,
      "TOL": 8422,
      "ĠJo": 8423,
      "Ġlogits": 8424,
      "Configuration": 8425,
      "ghter": 8426,
      "Ġallows": 8427,
      "FFFF": 8428,
      "queued": 8429,
      "Unselected": 8430,
      "ava": 8431,
      "stdin": 8432,
      "genai": 8433,
      "ĠUnselected": 8434,
      "vars": 8435,
      "ĠJSONResponse": 8436,
      "Ġblocks": 8437,
      "ELL": 8438,
      "ĠGeneric": 8439,
      "PROP": 8440,
      "Ġoptimize": 8441,
      "rendercv": 8442,
      "Ġanswers": 8443,
      "SQLITE": 8444,
      "ViÐł": 8445,
      "infer": 8446,
      "public": 8447,
      "Attribute": 8448,
      "Ġpairwise": 8449,
      "WebSocket": 8450,
      "POINT": 8451,
      "Ġskills": 8452,
      "Ġitertools": 8453,
      "Ġsimilarity": 8454,
      "Ġhooks": 8455,
      "edges": 8456,
      "orpho": 8457,
      "COMP": 8458,
      "ImageParam": 8459,
      "Ġstacklevel": 8460,
      "Ġissues": 8461,
      "helpers": 8462,
      "activate": 8463,
      "DATASET": 8464,
      "Alias": 8465,
      "basicConfig": 8466,
      "ĠObjectId": 8467,
      "CRI": 8468,
      "Ġcleaned": 8469,
      "ĠClassVar": 8470,
      "ĠANY": 8471,
      "Transformer": 8472,
      "destroy": 8473,
      "INTERVAL": 8474,
      "Ġfreeze": 8475,
      "CCESS": 8476,
      "ĠIndexError": 8477,
      "ĠKEYS": 8478,
      "buffers": 8479,
      "BACKEND": 8480,
      "offInputData": 8481,
      "Ġauthentication": 8482,
      "Ġmeasurement": 8483,
      "ÐłÐĨÐ²ÐĤÑŀÐ²ÐĤÑľÐłÐĨÐ²ÐĤÑŀÐ¡": 8484,
      "Approval": 8485,
      "RateLim": 8486,
      "Ġlegacy": 8487,
      "ĠSVG": 8488,
      "Click": 8489,
      "ĠOutputParserException": 8490,
      "MESSAGE": 8491,
      "parseApiResponse": 8492,
      "%(": 8493,
      ")}\")": 8494,
      "*\\": 8495,
      "*\",": 8496,
      "/\")": 8497,
      ">\\": 8498,
      "Benchmark": 8499,
      "DES": 8500,
      "EVENT": 8501,
      "Fe": 8502,
      "FILE": 8503,
      "Grid": 8504,
      "Hero": 8505,
      "MD": 8506,
      "Map": 8507,
      "Mark": 8508,
      "MED": 8509,
      "Mapping": 8510,
      "NG": 8511,
      "Norm": 8512,
      "Ncandidate": 8513,
      "PES": 8514,
      "Position": 8515,
      "Sa": 8516,
      "Skip": 8517,
      "Tri": 8518,
      "Tree": 8519,
      "Variable": 8520,
      "Wait": 8521,
      "]{": 8522,
      "actions": 8523,
      "ban": 8524,
      "bet": 8525,
      "bument": 8526,
      "bash": 8527,
      "bits": 8528,
      "cf": 8529,
      "dpi": 8530,
      "ev": 8531,
      "epy": 8532,
      "eys": 8533,
      "emit": 8534,
      "finished": 8535,
      "hparams": 8536,
      "iloc": 8537,
      "jet": 8538,
      "lash": 8539,
      "mute": 8540,
      "middleware": 8541,
      "nh": 8542,
      "nce": 8543,
      "nbest": 8544,
      "north": 8545,
      "rat": 8546,
      "sdist": 8547,
      "td": 8548,
      "uation": 8549,
      "vance": 8550,
      "yo": 8551,
      "}-{": 8552,
      "ĠÐłÐİÐł": 8553,
      "sep": 8554,
      "sess": 8555,
      "semble": 8556,
      "ins": 8557,
      "ons": 8558,
      "relu": 8559,
      "deDec": 8560,
      "Ġ\":": 8561,
      "Ġ\"\".": 8562,
      "Ġaround": 8563,
      "also": 8564,
      "Ġimplemented": 8565,
      "means": 8566,
      "Ġfw": 8567,
      "Ġpes": 8568,
      "Ġrecomm": 8569,
      "Ġsun": 8570,
      "Ġsitu": 8571,
      "ceed": 8572,
      "logs": 8573,
      "litem": 8574,
      "Ġobservations": 8575,
      "Ġms": 8576,
      "Ġmis": 8577,
      "Ġmiddle": 8578,
      "Ġmouse": 8579,
      "chors": 8580,
      "ametre": 8581,
      "ĊĠĠĠĠĠĠĠĠĠĠĠĠĠĠĠĠĠĠ": 8582,
      "vals": 8583,
      "Ġ'[": 8584,
      "Ġds": 8585,
      "Ġdns": 8586,
      "Ġduration": 8587,
      "ĠTABLE": 8588,
      "__}": 8589,
      "cov": 8590,
      "upgrade": 8591,
      "(\"{": 8592,
      "Ġansible": 8593,
      "Ġ[`": 8594,
      "ĠABC": 8595,
      "converse": 8596,
      "textual": 8597,
      "textvariable": 8598,
      "Ġ##": 8599,
      "Ġ10000": 8600,
      "produ": 8601,
      "Ġstride": 8602,
      "ĠSE": 8603,
      "ĠStop": 8604,
      "Ġconcurrent": 8605,
      "ĠCore": 8606,
      "ĠCLI": 8607,
      "ĠCREATE": 8608,
      "Ġexchange": 8609,
      "parsing": 8610,
      "Ġstarted": 8611,
      "Ġstreet": 8612,
      "mplements": 8613,
      "penalty": 8614,
      "Ġhold": 8615,
      "Ġhappen": 8616,
      "Ġord": 8617,
      "Ġordered": 8618,
      "ĠPIL": 8619,
      "Ġ28": 8620,
      "Ġ29": 8621,
      "Ġgl": 8622,
      "Ġgpt": 8623,
      "Ġgradient": 8624,
      "Ġdeal": 8625,
      "ĠMY": 8626,
      "ĠMust": 8627,
      "modified": 8628,
      "Ġmetadatas": 8629,
      "('[": 8630,
      "ĠDynamic": 8631,
      "mbic": 8632,
      "trim": 8633,
      "pret": 8634,
      "ĠEng": 8635,
      "ĠVideo": 8636,
      "ĠVariable": 8637,
      "Infrastructure": 8638,
      "Ġoutlier": 8639,
      "TypeAdapter": 8640,
      "Console": 8641,
      "Ġsets": 8642,
      "negative": 8643,
      "caut": 8644,
      "ĠHE": 8645,
      "ĠHow": 8646,
      "ĠWait": 8647,
      "Ġalong": 8648,
      "rune": 8649,
      "licity": 8650,
      "lify": 8651,
      "Ġcanonical": 8652,
      "Ġdocstring": 8653,
      "ĊĠĠĠĠĠĠĠĠĠĠĠĠĠĠĠĠĠĠĠĠĠĠĠĠĠĠĠĠĠĠĠĠĠ": 8654,
      "Ġadapter": 8655,
      "dedup": 8656,
      "Ġleave": 8657,
      "subq": 8658,
      "subset": 8659,
      "subarray": 8660,
      "Ġ[\".": 8661,
      "ĠInvalid": 8662,
      "Look": 8663,
      "ĠContext": 8664,
      "ĠDebug": 8665,
      "ĠDepends": 8666,
      "ĠBasePromptTemplate": 8667,
      "successful": 8668,
      "REAM": 8669,
      "Ġlive": 8670,
      "Ġzones": 8671,
      "Ġ81": 8672,
      "views": 8673,
      "ROBOT": 8674,
      "Ġformatter": 8675,
      "nique": 8676,
      "iceGUI": 8677,
      "Ġjsonify": 8678,
      "Ġfaulthandler": 8679,
      "Ġnecessary": 8680,
      "Ġjs": 8681,
      "Ġresolver": 8682,
      "mited": 8683,
      "Ġsummarize": 8684,
      "Ġcapsys": 8685,
      "precision": 8686,
      "Ð¡ÑŁÐłÐİÐł": 8687,
      "SSL": 8688,
      "maryKey": 8689,
      "Ġ\"-\",": 8690,
      "={},": 8691,
      "primit": 8692,
      "initialize": 8693,
      "fixtures": 8694,
      "Ġ--->": 8695,
      "keras": 8696,
      "RunContextWrapper": 8697,
      "ĠUserError": 8698,
      "while": 8699,
      "Ġinitialize": 8700,
      "Spinner": 8701,
      "Ġrights": 8702,
      "ÐłÐıÐłÐĨÐ¡": 8703,
      "GenerationChunk": 8704,
      "Ġbuttons": 8705,
      "engineer": 8706,
      "Ġdecision": 8707,
      "Ġoperators": 8708,
      "ĠTools": 8709,
      "Component": 8710,
      "789": 8711,
      "nonbinary": 8712,
      "Ġsignal": 8713,
      "Interface": 8714,
      "sented": 8715,
      "CONT": 8716,
      "ĠVerify": 8717,
      "Ġindicates": 8718,
      "Ġdelta": 8719,
      "Ġplayed": 8720,
      "TradeDec": 8721,
      "Ġdecorator": 8722,
      "Builder": 8723,
      "Ġ[[{": 8724,
      "claw": 8725,
      "Radio": 8726,
      "Ġjoined": 8727,
      "simplefilter": 8728,
      "================================": 8729,
      "ĠSerial": 8730,
      "Ġdimensions": 8731,
      "Methods": 8732,
      "ANTIC": 8733,
      "StatusError": 8734,
      "huggingface": 8735,
      "Ġresponder": 8736,
      "Ġstripped": 8737,
      "ÐłÑŀÐ²ÐĤ": 8738,
      "Ġbytestring": 8739,
      ".*?": 8740,
      "Ġnumeric": 8741,
      "ĠALPHA": 8742,
      "ĠElements": 8743,
      "quential": 8744,
      "Auto": 8745,
      "brevi": 8746,
      "TYPES": 8747,
      "cursively": 8748,
      "QUOTES": 8749,
      "Ġoccurre": 8750,
      "Ġprecision": 8751,
      "loyees": 8752,
      "ĠListedCategoryFormatter": 8753,
      "bumentations": 8754,
      "maryKeyConstraint": 8755,
      "TradeDecision": 8756,
      "'<": 8757,
      ".',": 8758,
      "456": 8759,
      "65": 8760,
      "Age": 8761,
      "ASS": 8762,
      "Active": 8763,
      "CENT": 8764,
      "EF": 8765,
      "Foo": 8766,
      "Failover": 8767,
      "GB": 8768,
      "Kw": 8769,
      "MALL": 8770,
      "NET": 8771,
      "Ninvar": 8772,
      "OC": 8773,
      "Ov": 8774,
      "PUT": 8775,
      "RUN": 8776,
      "SC": 8777,
      "SY": 8778,
      "Send": 8779,
      "Software": 8780,
      "Touch": 8781,
      "Za": 8782,
      "\\/": 8783,
      "_:": 8784,
      "az": 8785,
      "alect": 8786,
      "aws": 8787,
      "bing": 8788,
      "but": 8789,
      "blob": 8790,
      "cwd": 8791,
      "implemented": 8792,
      "ko": 8793,
      "lus": 8794,
      "mate": 8795,
      "ny": 8796,
      "qp": 8797,
      "rtype": 8798,
      "surface": 8799,
      "tot": 8800,
      "xml": 8801,
      "yellow": 8802,
      "}_{": 8803,
      "ÒĲ": 8804,
      "ĠÐłÑĸÐłÑĵÐł": 8805,
      "ina": 8806,
      "inline": 8807,
      "inja": 8808,
      "react": 8809,
      "rected": 8810,
      "recycle": 8811,
      "repository": 8812,
      "lec": 8813,
      "lembic": 8814,
      "Ġttk": 8815,
      "Ġip": 8816,
      "arse": 8817,
      "Ġcancel": 8818,
      "member": 8819,
      "Ġfg": 8820,
      "Ġfname": 8821,
      "Ġflex": 8822,
      "gel": 8823,
      "ges": 8824,
      "Ġresume": 8825,
      "Ġslot": 8826,
      "Ġsock": 8827,
      "asr": 8828,
      "lik": 8829,
      "Ġnpt": 8830,
      "uest": 8831,
      "Ġtheta": 8832,
      "dium": 8833,
      "dialog": 8834,
      "Ġmight": 8835,
      "unsqueeze": 8836,
      "Ġeps": 8837,
      "Ġeos": 8838,
      "Ġwrites": 8839,
      "chs": 8840,
      "chine": 8841,
      "Ġ(-": 8842,
      "laÐł": 8843,
      "ada": 8844,
      "Ġdri": 8845,
      "__))": 8846,
      "__.__": 8847,
      "Ġanon": 8848,
      "Ġ[[\"": 8849,
      "ĠAzure": 8850,
      "ĠAxes": 8851,
      "apStyle": 8852,
      "elta": 8853,
      "proto": 8854,
      "ĠST": 8855,
      "ĠSpecifi": 8856,
      "ĠSnapshot": 8857,
      "Ġ===": 8858,
      "ased": 8859,
      "ĠCol": 8860,
      "\"]))": 8861,
      "Report": 8862,
      "Ġthai": 8863,
      "ocolor": 8864,
      "ĠFore": 8865,
      "ĠFOR": 8866,
      "ĠPolygon": 8867,
      "Ġ256": 8868,
      "imizer": 8869,
      "Ġgive": 8870,
      "Ġproblem": 8871,
      "dataclasses": 8872,
      "ilest": 8873,
      "triggered": 8874,
      "abspath": 8875,
      "prefetch": 8876,
      "Ġ33": 8877,
      "ĠEnd": 8878,
      "ĠBar": 8879,
      "ĠNe": 8880,
      "architecture": 8881,
      "ventory": 8882,
      "rowse": 8883,
      "Conv": 8884,
      "Ġpredecess": 8885,
      "Ġvals": 8886,
      "ĠWARR": 8887,
      "Ġknow": 8888,
      "Ġdefaultdict": 8889,
      "Ġtrading": 8890,
      "locked": 8891,
      "Ġmaxsize": 8892,
      "']:": 8893,
      "ĠGame": 8894,
      "9914": 8895,
      "compressed": 8896,
      "Ġcompar": 8897,
      "Ġspinner": 8898,
      "useless": 8899,
      "ĠExp": 8900,
      "jectory": 8901,
      "ĠDef": 8902,
      "REG": 8903,
      "Ġlife": 8904,
      "templates": 8905,
      "DED": 8906,
      "refusal": 8907,
      "resolution": 8908,
      "versations": 8909,
      "httpx": 8910,
      "disable": 8911,
      "Ġbackwards": 8912,
      "Ġiniti": 8913,
      "Decoder": 8914,
      "ÐłÂµÐłÐĬ": 8915,
      "Ġinterrupt": 8916,
      "Ġsuggest": 8917,
      "ÐłÐĭten": 8918,
      "Ġneighbor": 8919,
      "TPL": 8920,
      "dog": 8921,
      "sentinel": 8922,
      "umeric": 8923,
      "Ġcapability": 8924,
      "signs": 8925,
      "LOG": 8926,
      "monic": 8927,
      "primary": 8928,
      "Ġshowarrow": 8929,
      "Unexpected": 8930,
      "Ġfear": 8931,
      "underlying": 8932,
      "Ġappend": 8933,
      "Ġabbrevi": 8934,
      "fillna": 8935,
      "Ġlocked": 8936,
      "translated": 8937,
      "animate": 8938,
      "Ġquote": 8939,
      "showarrow": 8940,
      "Ġbordercolor": 8941,
      "Ġbordercolorsrc": 8942,
      "Generation": 8943,
      "Generic": 8944,
      "alignsrc": 8945,
      "yamls": 8946,
      "Ġarchitecture": 8947,
      "bordercolorsrc": 8948,
      "IMIT": 8949,
      "Named": 8950,
      "transformers": 8951,
      "fullname": 8952,
      "Ġvisit": 8953,
      "bgcolorsrc": 8954,
      "Ġcleo": 8955,
      "Ġentries": 8956,
      "publish": 8957,
      "uctured": 8958,
      "Ġrepresents": 8959,
      "Ġgoes": 8960,
      "Interrupt": 8961,
      "Show": 8962,
      "ĠFilesDict": 8963,
      "Ġalignsrc": 8964,
      "specifications": 8965,
      "rmtree": 8966,
      "Tracker": 8967,
      "Ġbgcolorsrc": 8968,
      "loyee": 8969,
      "gexMatch": 8970,
      "VALU": 8971,
      "ĠÐłÑĸÐłÑĵÐĴ": 8972,
      "atalo": 8973,
      "ĠHeap": 8974,
      "ĠTokenizer": 8975,
      "ĠStringProperty": 8976,
      "Ġcalculate": 8977,
      "Ġlowercase": 8978,
      "ĠItems": 8979,
      "Mozilla": 8980,
      "unicase": 8981,
      "shortcut": 8982,
      "MAX": 8983,
      "duplicate": 8984,
      "namelengthsrc": 8985,
      "convolve": 8986,
      "Ġpublish": 8987,
      "Ġconfigs": 8988,
      "ĠObjectProperty": 8989,
      "Assets": 8990,
      "ControlType": 8991,
      "Ġfeats": 8992,
      "legal": 8993,
      "legacy": 8994,
      "excludes": 8995,
      "ĠAnsiBack": 8996,
      "ĠAnsiFore": 8997,
      "Ġflaglist": 8998,
      "Ġorgan": 8999,
      "Ġnamelengthsrc": 9000,
      "ĠInitialize": 9001,
      "ĠSecurity": 9002,
      "ÐłÑļÐł": 9003,
      "freeze": 9004,
      "pushButton": 9005,
      "Ġrelevant": 9006,
      "catenate": 9007,
      "73532": 9008,
      "ĠRecycleView": 9009,
      "ĠArgument": 9010,
      "turbo": 9011,
      "ĠChoice": 9012,
      "ĠExtract": 9013,
      "Ġcalculated": 9014,
      "2246467": 9015,
      "whole": 9016,
      "deletion": 9017,
      "DecodeError": 9018,
      "Ġpesos": 9019,
      "litems": 9020,
      "ĠMYPY": 9021,
      "Kwargs": 9022,
      "ocolorscale": 9023,
      "ĠWARRANT": 9024,
      "991473532": 9025,
      "2246467991473532": 9026,
      "'\"": 9027,
      ")}\"": 9028,
      ".%": 9029,
      "85": 9030,
      "CLU": 9031,
      "Clear": 9032,
      "Frozen": 9033,
      "Gu": 9034,
      "GRO": 9035,
      "HumanMessage": 9036,
      "Lis": 9037,
      "Link": 9038,
      "LIST": 9039,
      "MM": 9040,
      "Mar": 9041,
      "Multi": 9042,
      "Mouse": 9043,
      "Metric": 9044,
      "NORM": 9045,
      "Pr": 9046,
      "SD": 9047,
      "SI": 9048,
      "Sim": 9049,
      "Sample": 9050,
      "Whether": 9051,
      "YMasking": 9052,
      "[*": 9053,
      "];": 9054,
      "ah": 9055,
      "bench": 9056,
      "cross": 9057,
      "drant": 9058,
      "fh": 9059,
      "fast": 9060,
      "fork": 9061,
      "gap": 9062,
      "jqc": 9063,
      "ky": 9064,
      "kinect": 9065,
      "mm": 9066,
      "mil": 9067,
      "nÐł": 9068,
      "nav": 9069,
      "pull": 9070,
      "passed": 9071,
      "rating": 9072,
      "raries": 9073,
      "sitter": 9074,
      "ug": 9075,
      "vid": 9076,
      "xis": 9077,
      "xterm": 9078,
      "Ġri": 9079,
      "Ġke": 9080,
      "indeterminate": 9081,
      "infixes": 9082,
      "repos": 9083,
      "remain": 9084,
      "reuse": 9085,
      "reward": 9086,
      "references": 9087,
      "degrees": 9088,
      "Ġ\".\"": 9089,
      "Ġactions": 9090,
      "alEvaluator": 9091,
      "arter": 9092,
      "arly": 9093,
      "armonic": 9094,
      "Ġcryptography": 9095,
      "Ġfun": 9096,
      "mpl": 9097,
      "ctrl": 9098,
      "urs": 9099,
      "urther": 9100,
      "asible": 9101,
      "asns": 9102,
      "Ġnull": 9103,
      "olt": 9104,
      "olu": 9105,
      "Ġbr": 9106,
      "ĠtheHarvester": 9107,
      "Ġops": 9108,
      "Ġmorpho": 9109,
      "une": 9110,
      "fish": 9111,
      "Ġways": 9112,
      "Ġwalk": 9113,
      "cha": 9114,
      "strong": 9115,
      "oney": 9116,
      "()},": 9117,
      "idata": 9118,
      "ckpt": 9119,
      "Ġassume": 9120,
      "pts": 9121,
      "ational": 9122,
      "Ġ\"\"\".": 9123,
      "Ġ[_": 9124,
      "named": 9125,
      "converter": 9126,
      "elcome": 9127,
      "ĠSo": 9128,
      "ĠSingle": 9129,
      "ĠSnowflake": 9130,
      "ket": 9131,
      "003": 9132,
      "ĠCircle": 9133,
      "tiango": 9134,
      "andle": 9135,
      "scc": 9136,
      "Requirement": 9137,
      "odo": 9138,
      "odality": 9139,
      "ĠFrozen": 9140,
      "Ġhist": 9141,
      "Ġuk": 9142,
      "ĠPrint": 9143,
      "ĠPRE": 9144,
      "ĠPUNCT": 9145,
      "exact": 9146,
      "Ġrng": 9147,
      "Ġrules": 9148,
      "ĠMan": 9149,
      "ĠMode": 9150,
      "ĠMusic": 9151,
      "ctories": 9152,
      "agged": 9153,
      "presented": 9154,
      "Ġ37": 9155,
      "ffff": 9156,
      "Ġ:,": 9157,
      "ĠEmpty": 9158,
      "ÐłÐİÐłÐīÐł": 9159,
      "ĠBut": 9160,
      "ĠBinding": 9161,
      "Ġcolors": 9162,
      "Ġ422": 9163,
      "readlines": 9164,
      "readouter": 9165,
      "library": 9166,
      "weather": 9167,
      "nothing": 9168,
      "tested": 9169,
      "capt": 9170,
      "103": 9171,
      "tailed": 9172,
      "Ġallitems": 9173,
      "ĠRIGHT": 9174,
      "Ġunion": 9175,
      "chains": 9176,
      "ĊĠĠĠĠĠĠĠĠĠĠĠĠĠĠĠĠĠĠĠĠĠĠĠĠĠĠĠĠĠĠĠĠĠĠĠĠĠĠ": 9177,
      "Ġadapt": 9178,
      "ĠGroup": 9179,
      "ĠGrid": 9180,
      "matched": 9181,
      "days": 9182,
      "PIPE": 9183,
      "faker": 9184,
      "Ġspacing": 9185,
      "formed": 9186,
      "checks": 9187,
      "joinpath": 9188,
      "ĠBaseCache": 9189,
      "ĠBaseTradeDecision": 9190,
      "Ġaddress": 9191,
      "CHUN": 9192,
      "nice": 9193,
      "Annot": 9194,
      "PEG": 9195,
      "Delete": 9196,
      "Ġsubject": 9197,
      "Ġsuite": 9198,
      "Ġmanifest": 9199,
      "509": 9200,
      "categor": 9201,
      "STATE": 9202,
      "Ġ\\\\": 9203,
      "Ġcapabilities": 9204,
      "Ġaccording": 9205,
      "Ġaccuracy": 9206,
      "rolling": 9207,
      "serialized": 9208,
      "Ġmakes": 9209,
      "Ġactively": 9210,
      "connector": 9211,
      "routes": 9212,
      "Ġworked": 9213,
      "Ġrendered": 9214,
      "uptools": 9215,
      "author": 9216,
      "ICON": 9217,
      "Ġabstractmethod": 9218,
      "ÐłÐİÐłÑĵÐłÐİÐ²ÐĤÑĻ": 9219,
      "2000": 9220,
      "ASCA": 9221,
      "ĠJSONL": 9222,
      "ELLOW": 9223,
      "Ġparents": 9224,
      "Agents": 9225,
      "ĠDocs": 9226,
      "Ġplaceholder": 9227,
      "allowlist": 9228,
      "Ġbottom": 9229,
      "dashdot": 9230,
      "Ġremoval": 9231,
      "Ġscores": 9232,
      "Screen": 9233,
      "Script": 9234,
      "Ġflows": 9235,
      "Ġlibraries": 9236,
      "ConnectionPool": 9237,
      "totalhosts": 9238,
      "Ġvirt": 9239,
      "ÐłÐģÐł": 9240,
      "IntermediateValue": 9241,
      "Ġskipping": 9242,
      "Ġextend": 9243,
      "Attention": 9244,
      "Ġcreds": 9245,
      "Ġcreating": 9246,
      "Ġplaylist": 9247,
      "Ġwaiting": 9248,
      "boundary": 9249,
      "Ġfiltering": 9250,
      "EmbeddingDistanceEvalChain": 9251,
      "lateral": 9252,
      "ĠHandoff": 9253,
      "MySQL": 9254,
      "Ġinsertion": 9255,
      "Raises": 9256,
      "Ġretriever": 9257,
      "deepcopy": 9258,
      "StateChangeState": 9259,
      "installer": 9260,
      "pickle": 9261,
      "Retries": 9262,
      "rotate": 9263,
      "istral": 9264,
      "squares": 9265,
      "Ġdays": 9266,
      "Ġhypos": 9267,
      "aterfall": 9268,
      ">`_": 9269,
      "CURR": 9270,
      "PrimaryKeyConstraint": 9271,
      "Ġadjust": 9272,
      "TemporaryFile": 9273,
      "Ġnotebooks": 9274,
      "Order": 9275,
      "SystemMessage": 9276,
      "Ġraising": 9277,
      "Ġpopulation": 9278,
      "ĠBoxLayout": 9279,
      "sqrt": 9280,
      "dispatcher": 9281,
      "RUCache": 9282,
      "LongTensor": 9283,
      "ktor": 9284,
      "WINDO": 9285,
      "opping": 9286,
      "enjer": 9287,
      "Ġconstants": 9288,
      "SKILL": 9289,
      "PhoneNumber": 9290,
      "iousness": 9291,
      "iliarynet": 9292,
      "ĠEnglish": 9293,
      "REAMABLE": 9294,
      "recycleview": 9295,
      "Listen": 9296,
      "tiangolo": 9297,
      "readouterr": 9298,
      "!\",": 9299,
      ")\")": 9300,
      "*)": 9301,
      "/'": 9302,
      "130": 9303,
      "41": 9304,
      "58": 9305,
      "517": 9306,
      "537": 9307,
      "61": 9308,
      "69": 9309,
      "=%": 9310,
      "AIS": 9311,
      "BÐł": 9312,
      "Bash": 9313,
      "BState": 9314,
      "Bedrock": 9315,
      "Basic": 9316,
      "Brainz": 9317,
      "Cal": 9318,
      "CAT": 9319,
      "Camila": 9320,
      "DK": 9321,
      "Fix": 9322,
      "IAL": 9323,
      "Iteration": 9324,
      "LP": 9325,
      "Lock": 9326,
      "MI": 9327,
      "NT": 9328,
      "Other": 9329,
      "PG": 9330,
      "PUNCT": 9331,
      "Public": 9332,
[...]
